[PAD]	0
[UNK]	0
[SEP]	0
[BOS]	0
[EOS]	0
▁t	-0
▁a	-1
in	-2
he	-3
re	-4
▁the	-5
▁s	-6
on	-7
er	-8
▁w	-9
▁c	-10
en	-11
at	-12
▁o	-13
▁p	-14
it	-15
▁b	-16
an	-17
or	-18
▁f	-19
es	-20
is	-21
▁m	-22
ed	-23
ing	-24
▁d	-25
al	-26
▁in	-27
▁an	-28
ar	-29
▁to	-30
ou	-31
▁h	-32
▁of	-33
ic	-34
as	-35
▁th	-36
▁l	-37
▁and	-38
om	-39
▁n	-40
ion	-41
ent	-42
▁g	-43
ll	-44
▁re	-45
▁e	-46
le	-47
st	-48
""	-49
ro	-50
"""	-51
id	-52
ve	-53
ly	-54
ac	-55
▁be	-56
ut	-57
ot	-58
▁u	-59
▁on	-60
ad	-61
▁i	-62
et	-63
▁st	-64
▁for	-65
▁that	-66
am	-67
ig	-68
ol	-69
ver	-70
ec	-71
▁is	-72
ow	-73
ay	-74
se	-75
ur	-76
▁he	-77
▁y	-78
ation	-79
im	-80
ir	-81
▁it	-82
ter	-83
▁we	-84
▁wh	-85
▁r	-86
em	-87
il	-88
▁"""	-89
▁2	-90
▁as	-91
ith	-92
ill	-93
▁with	-94
ce	-95
▁"	-96
ch	-97
ers	-98
▁j	-99
▁pro	-100
▁con	-101
ld	-102
un	-103
est	-104
▁de	-105
▁v	-106
▁ne	-107
▁was	-108
▁at	-109
ke	-110
ag	-111
um	-112
▁tr	-113
ct	-114
her	-115
▁mo	-116
ist	-117
▁com	-118
res	-119
pp	-120
▁20	-121
▁ha	-122
ate	-123
us	-124
oun	-125
oc	-126
and	-127
op	-128
▁fr	-129
▁1	-130
ort	-131
ies	-132
▁(	-133
▁ch	-134
ul	-135
ain	-136
ht	-137
art	-138
ment	-139
▁un	-140
▁se	-141
▁you	-142
▁are	-143
▁this	-144
oo	-145
▁k	-146
▁ex	-147
▁201	-148
ity	-149
▁al	-150
ant	-151
▁su	-152
th	-153
qu	-154
ess	-155
ab	-156
if	-157
▁by	-158
▁sh	-159
os	-160
▁have	-161
▁or	-162
▁not	-163
ie	-164
▁sa	-165
ear	-166
ive	-167
iv	-168
ice	-169
ould	-170
ber	-171
ial	-172
ect	-173
red	-174
▁sp	-175
▁from	-176
el	-177
com	-178
▁le	-179
▁they	-180
end	-181
▁but	-182
==	-183
▁has	-184
ud	-185
ust	-186
▁ab	-187
ap	-188
ight	-189
ia	-190
all	-191
▁wor	-192
out	-193
▁ad	-194
▁all	-195
▁go	-196
ack	-197
ren	-198
▁ar	-199
ak	-200
▁pl	-201
▁new	-202
▁whe	-203
ast	-204
ard	-205
▁co	-206
▁do	-207
▁said	-208
▁their	-209
ff	-210
ally	-211
▁off	-212
ans	-213
ib	-214
▁ag	-215
▁will	-216
ip	-217
our	-218
▁who	-219
ide	-220
▁int	-221
▁year	-222
▁can	-223
▁more	-224
ace	-225
ome	-226
ich	-227
▁cl	-228
▁en	-229
▁his	-230
▁us	-231
▁pr	-232
▁ac	-233
ge	-234
iz	-235
▁im	-236
▁rep	-237
ther	-238
▁pe	-239
▁out	-240
der	-241
ook	-242
oug	-243
ime	-244
▁am	-245
▁pol	-246
ions	-247
pt	-248
▁af	-249
ure	-250
▁were	-251
ost	-252
one	-253
▁no	-254
."""	-255
▁up	-256
▁so	-257
▁comp	-258
age	-259
ire	-260
act	-261
▁me	-262
ound	-263
ous	-264
▁cont	-265
ub	-266
▁one	-267
ne	-268
tt	-269
▁had	-270
,"""	-271
ame	-272
ra	-273
og	-274
ine	-275
ident	-276
ump	-277
ople	-278
ry	-279
ass	-280
▁man	-281
▁pres	-282
ian	-283
ong	-284
▁li	-285
▁res	-286
▁3	-287
▁about	-288
ore	-289
ount	-290
▁people	-291
ite	-292
▁qu	-293
ated	-294
ations	-295
▁part	-296
▁ro	-297
so	-298
▁work	-299
▁would	-300
per	-301
ake	-302
▁rec	-303
ign	-304
▁te	-305
▁dec	-306
▁$	-307
▁sc	-308
ary	-309
own	-310
the	-311
ue	-312
▁fe	-313
for	-314
▁ev	-315
▁been	-316
ind	-317
▁over	-318
▁other	-319
▁there	-320
00	-321
▁some	-322
pl	-323
▁trump	-324
au	-325
▁app	-326
very	-327
▁per	-328
ran	-329
▁which	-330
//	-331
cl	-332
ws	-333
ence	-334
://	-335
we	-336
▁2017	-337
====	-338
ttp	-339
ical	-340
▁when	-341
ach	-342
▁la	-343
▁also	-344
▁http	-345
▁after	-346
ord	-347
ough	-348
▁what	-349
ens	-350
▁than	-351
▁dis	-352
ory	-353
▁gr	-354
▁br	-355
▁bl	-356
▁act	-357
▁just	-358
▁em	-359
ose	-360
de	-361
▁like	-362
▁get	-363
lic	-364
▁my	-365
▁prot	-366
ile	-367
▁comm	-368
▁if	-369
ts	-370
vern	-371
are	-372
ks	-373
te	-374
able	-375
▁them	-376
▁acc	-377
▁fir	-378
ail	-379
ru	-380
oll	-381
▁time	-382
ase	-383
▁its	-384
▁dem	-385
ress	-386
50	-387
▁tw	-388
▁—	-389
oin	-390
▁our	-391
ond	-392
ings	-393
▁she	-394
ors	-395
fe	-396
av	-397
uc	-398
▁into	-399
▁how	-400
ates	-401
▁mar	-402
man	-403
wn	-404
▁her	-405
▁govern	-406
▁des	-407
ree	-408
▁imp	-409
ood	-410
ade	-411
ays	-412
▁pre	-413
ult	-414
▁first	-415
day	-416
ents	-417
▁sec	-418
reat	-419
▁inter	-420
ved	-421
vers	-422
▁inv	-423
vel	-424
ww	-425
ah	-426
ild	-427
▁any	-428
▁offic	-429
www	-430
ick	-431
ep	-432
od	-433
ang	-434
20	-435
▁again	-436
▁ser	-437
▁iran	-438
▁president	-439
▁cr	-440
▁most	-441
▁face	-442
▁fl	-443
ition	-444
▁could	-445
ict	-446
rat	-447
hing	-448
▁don	-449
▁min	-450
ational	-451
ities	-452
con	-453
old	-454
▁att	-455
▁bec	-456
▁count	-457
ock	-458
ning	-459
▁government	-460
▁-	-461
ink	-462
▁your	-463
ied	-464
▁reg	-465
ause	-466
ublic	-467
/1	-468
ember	-469
ob	-470
▁4	-471
eric	-472
ance	-473
ction	-474
▁'	-475
sh	-476
hed	-477
enc	-478
book	-479
▁dep	-480
▁play	-481
by	-482
clud	-483
▁now	-484
▁two	-485
▁even	-486
▁supp	-487
oot	-488
illed	-489
▁back	-490
form	-491
uring	-492
▁may	-493
amp	-494
itt	-495
pect	-496
ters	-497
▁ph	-498
▁par	-499
▁ke	-500
▁kn	-501
▁sy	-502
ious	-503
li	-504
▁car	-505
▁did	-506
▁cons	-507
pol	-508
▁ob	-509
ement	-510
anc	-511
uch	-512
ual	-513
▁ass	-514
▁report	-515
igh	-516
ited	-517
▁only	-518
ons	-519
▁bu	-520
oy	-521
eral	-522
ty	-523
min	-524
news	-525
gr	-526
▁because	-527
▁down	-528
ech	-529
▁bet	-530
▁cent	-531
rent	-532
get	-533
ish	-534
▁mon	-535
▁these	-536
▁facebook	-537
▁add	-538
▁under	-539
ax	-540
▁right	-541
▁recent	-542
▁him	-543
▁lead	-544
▁many	-545
▁want	-546
▁years	-547
17	-548
ration	-549
▁state	-550
ise	-551
iss	-552
▁2019	-553
▁every	-554
▁see	-555
▁includ	-556
▁ent	-557
0.	-558
ath	-559
▁form	-560
ull	-561
▁gu	-562
ily	-563
▁med	-564
▁against	-565
▁americ	-566
▁fin	-567
▁those	-568
▁ind	-569
/50	-570
ting	-571
▁world	-572
▁where	-573
▁thr	-574
▁polit	-575
▁19	-576
be	-577
▁gen	-578
▁rem	-579
▁–	-580
▁call	-581
========	-582
▁make	-583
ash	-584
olog	-585
pr	-586
ale	-587
▁look	-588
rest	-589
ork	-590
police	-591
▁during	-592
imes	-593
▁need	-594
aking	-595
co	-596
▁op	-597
▁bel	-598
ton	-599
ok	-600
ince	-601
up	-602
ating	-603
row	-604
▁spe	-605
ible	-606
▁own	-607
▁stud	-608
ased	-609
▁z	-610
▁end	-611
ution	-612
sel	-613
▁police	-614
gan	-615
xt	-616
▁through	-617
les	-618
und	-619
cr	-620
▁while	-621
▁pos	-622
▁oct	-623
ft	-624
▁war	-625
urn	-626
▁being	-627
▁rel	-628
ics	-629
oup	-630
▁inst	-631
▁inte	-632
▁support	-633
als	-634
ject	-635
ss	-636
▁news	-637
ands	-638
▁invest	-639
▁dr	-640
▁trans	-641
ouse	-642
▁well	-643
io	-644
ober	-645
).	-646
ower	-647
▁inc	-648
▁def	-649
▁october	-650
▁aut	-651
▁know	-652
▁el	-653
▁wom	-654
▁think	-655
▁compan	-656
az	-657
ene	-658
osts	-659
▁show	-660
▁5	-661
du	-662
ife	-663
▁str	-664
▁then	-665
killed	-666
▁official	-667
arly	-668
▁cor	-669
▁much	-670
▁sm	-671
erson	-672
ner	-673
▁fed	-674
▁big	-675
▁say	-676
▁last	-677
▁protest	-678
ph	-679
▁recently	-680
▁sim	-681
ior	-682
ont	-683
cess	-684
▁prov	-685
▁such	-686
▁commun	-687
ism	-688
ater	-689
▁sen	-690
▁public	-691
way	-692
▁cour	-693
▁made	-694
▁very	-695
▁exp	-696
ocrat	-697
▁hel	-698
▁still	-699
its	-700
fore	-701
ists	-702
ward	-703
ket	-704
uss	-705
atch	-706
ix	-707
ek	-708
▁accord	-709
▁way	-710
iew	-711
other	-712
ug	-713
000	-714
▁ter	-715
ble	-716
▁ele	-717
▁start	-718
ives	-719
oint	-720
▁bro	-721
▁loc	-722
▁states	-723
),	-724
ians	-725
▁adv	-726
▁take	-727
ific	-728
▁use	-729
▁since	-730
▁pa	-731
▁che	-732
ility	-733
▁sign	-734
▁should	-735
ral	-736
ivers	-737
ient	-738
▁cap	-739
ative	-740
pe	-741
▁6	-742
ments	-743
ger	-744
hip	-745
▁fam	-746
ually	-747
▁national	-748
▁num	-749
▁dire	-750
▁econ	-751
▁dif	-752
▁democrat	-753
▁wr	-754
arch	-755
▁eff	-756
▁high	-757
▁long	-758
▁team	-759
▁econom	-760
▁https	-761
▁law	-762
minist	-763
▁help	-764
▁soc	-765
▁sur	-766
ys	-767
▁mem	-768
▁post	-769
med	-770
cent	-771
▁according	-772
..	-773
ful	-774
ert	-775
▁ed	-776
▁country	-777
▁administ	-778
▁ins	-779
▁day	-780
▁run	-781
aj	-782
▁happ	-783
led	-784
ange	-785
▁200	-786
▁tax	-787
▁char	-788
▁serv	-789
▁sl	-790
ices	-791
mber	-792
▁going	-793
air	-794
ces	-795
che	-796
gest	-797
▁conf	-798
ages	-799
▁cur	-800
▁city	-801
ollow	-802
▁good	-803
▁open	-804
vember	-805
▁december	-806
read	-807
ween	-808
▁game	-809
▁house	-810
▁sub	-811
ues	-812
posts	-813
▁november	-814
ason	-815
▁group	-816
ize	-817
▁dat	-818
▁white	-819
▁contin	-820
ama	-821
off	-822
▁does	-823
▁real	-824
bypolice	-825
▁between	-826
killedbypolice	-827
▁bus	-828
▁set	-829
▁month	-830
iol	-831
illion	-832
▁es	-833
ants	-834
▁fire	-835
wh	-836
▁gl	-837
omet	-838
stem	-839
▁women	-840
▁7	-841
▁rev	-842
itter	-843
▁before	-844
ought	-845
▁here	-846
ures	-847
iving	-848
▁2018	-849
ms	-850
oth	-851
bers	-852
▁ret	-853
▁federal	-854
▁follow	-855
tern	-856
ten	-857
ital	-858
ving	-859
▁child	-860
▁media	-861
▁cre	-862
▁resp	-863
▁really	-864
inal	-865
▁ce	-866
alth	-867
▁top	-868
▁few	-869
gy	-870
▁camp	-871
▁stat	-872
▁found	-873
▁administration	-874
ins	-875
king	-876
▁bar	-877
to	-878
▁10	-879
▁read	-880
ked	-881
▁art	-882
▁put	-883
2017	-884
ged	-885
,000	-886
▁ref	-887
▁$1	-888
ized	-889
▁used	-890
ooting	-891
▁former	-892
...	-893
ave	-894
▁three	-895
▁lot	-896
▁pass	-897
▁same	-898
▁direct	-899
ced	-900
rem	-901
▁ann	-902
▁told	-903
▁polic	-904
go	-905
▁er	-906
▁let	-907
▁spec	-908
pa	-909
▁coll	-910
▁great	-911
▁person	-912
orth	-913
▁including	-914
▁lo	-915
▁somet	-916
▁political	-917
aff	-918
ief	-919
come	-920
ploy	-921
▁vis	-922
▁another	-923
▁0.	-924
▁sex	-925
▁vot	-926
▁data	-927
▁next	-928
▁iss	-929
▁head	-930
att	-931
work	-932
▁plan	-933
▁requ	-934
ically	-935
▁organ	-936
▁ext	-937
▁lar	-938
▁opp	-939
▁hist	-940
ald	-941
ves	-942
ames	-943
ired	-944
▁col	-945
▁system	-946
▁united	-947
▁8	-948
▁mil	-949
▁tal	-950
▁block	-951
▁ca	-952
▁det	-953
land	-954
▁got	-955
▁stre	-956
ier	-957
▁inf	-958
▁party	-959
▁depart	-960
▁av	-961
ross	-962
self	-963
▁far	-964
velop	-965
▁partic	-966
▁investig	-967
▁power	-968
br	-969
▁--	-970
▁ve	-971
▁leg	-972
▁sch	-973
ollah	-974
▁sun	-975
▁week	-976
▁never	-977
▁around	-978
hor	-979
ency	-980
12	-981
ular	-982
▁both	-983
▁come	-984
ather	-985
▁9	-986
gress	-987
▁viol	-988
▁things	-989
gram	-990
▁dist	-991
▁develop	-992
eth	-993
▁ra	-994
▁bre	-995
▁fact	-996
▁hard	-997
▁diffe	-998
▁intern	-999
ned	-1000
▁30	-1001
▁bo	-1002
▁jo	-1003
urity	-1004
▁life	-1005
pro	-1006
▁coal	-1007
▁find	-1008
akes	-1009
▁har	-1010
▁office	-1011
▁val	-1012
ially	-1013
olved	-1014
▁best	-1015
gin	-1016
ror	-1017
▁each	-1018
ying	-1019
▁expl	-1020
▁says	-1021
ety	-1022
▁without	-1023
son	-1024
▁bit	-1025
▁move	-1026
▁net	-1027
▁que	-1028
▁percent	-1029
▁po	-1030
/2017	-1031
▁prom	-1032
▁univers	-1033
ik	-1034
ody	-1035
▁men	-1036
iness	-1037
▁free	-1038
▁tech	-1039
han	-1040
cept	-1041
ever	-1042
thing	-1043
▁exper	-1044
▁protests	-1045
iting	-1046
▁care	-1047
▁build	-1048
▁inform	-1049
▁number	-1050
no	-1051
ajor	-1052
▁oper	-1053
▁allow	-1054
▁times	-1055
▁officials	-1056
================	-1057
onst	-1058
▁incre	-1059
▁import	-1060
ute	-1061
▁ide	-1062
ology	-1063
▁market	-1064
▁security	-1065
1,	-1066
bt	-1067
ina	-1068
rug	-1069
▁ban	-1070
▁ste	-1071
▁contro	-1072
▁social	-1073
▁ا	-1074
ines	-1075
▁prof	-1076
▁might	-1077
▁ap	-1078
▁company	-1079
▁working	-1080
ling	-1081
▁main	-1082
ck	-1083
▁won	-1084
▁members	-1085
aign	-1086
oney	-1087
▁pat	-1088
▁point	-1089
▁quest	-1090
▁project	-1091
10	-1092
of	-1093
▁hum	-1094
ision	-1095
▁list	-1096
els	-1097
ases	-1098
▁home	-1099
▁vide	-1100
ention	-1101
▁belie	-1102
▁protes	-1103
pped	-1104
olution	-1105
▁second	-1106
zb	-1107
inv	-1108
ains	-1109
osed	-1110
ering	-1111
▁major	-1112
uge	-1113
ared	-1114
▁poss	-1115
▁prev	-1116
▁techn	-1117
▁demonst	-1118
▁department	-1119
icle	-1120
less	-1121
▁eng	-1122
ience	-1123
▁fore	-1124
▁full	-1125
▁obama	-1126
zbollah	-1127
▁something	-1128
▁beh	-1129
▁pay	-1130
▁didn	-1131
▁rest	-1132
▁program	-1133
▁american	-1134
▁campaign	-1135
ham	-1136
isk	-1137
▁gre	-1138
▁feat	-1139
▁four	-1140
▁rele	-1141
ization	-1142
18	-1143
ric	-1144
rence	-1145
▁fund	-1146
▁author	-1147
▁15	-1148
▁why	-1149
▁win	-1150
▁hand	-1151
▁place	-1152
rib	-1153
ised	-1154
line	-1155
▁seem	-1156
▁money	-1157
▁employ	-1158
▁however	-1159
wer	-1160
▁cle	-1161
▁red	-1162
▁step	-1163
▁iranian	-1164
▁business	-1165
▁ant	-1166
ained	-1167
▁miss	-1168
▁republic	-1169
ri	-1170
ets	-1171
ered	-1172
▁chr	-1173
▁den	-1174
▁local	-1175
▁current	-1176
▁hezbollah	-1177
ness	-1178
▁bor	-1179
▁keep	-1180
aim	-1181
▁disc	-1182
▁appro	-1183
▁reported	-1184
aw	-1185
▁aff	-1186
▁russ	-1187
▁interest	-1188
51	-1189
erv	-1190
iven	-1191
▁rese	-1192
▁(@	-1193
▁12	-1194
ably	-1195
▁less	-1196
▁mod	-1197
ott	-1198
ret	-1199
year	-1200
▁var	-1201
ately	-1202
▁milit	-1203
atur	-1204
ecut	-1205
ured	-1206
▁cut	-1207
▁jan	-1208
▁mus	-1209
▁pop	-1210
▁able	-1211
▁deal	-1212
▁left	-1213
▁proble	-1214
▁sunday	-1215
30	-1216
my	-1217
▁[	-1218
ern	-1219
ready	-1220
▁speech	-1221
ae	-1222
hn	-1223
ung	-1224
▁sw	-1225
▁est	-1226
▁too	-1227
ality	-1228
offic	-1229
▁manag	-1230
outh	-1231
▁fre	-1232
▁2016	-1233
▁near	-1234
▁rece	-1235
▁q	-1236
ven	-1237
▁dev	-1238
▁case	-1239
▁better	-1240
▁health	-1241
af	-1242
oss	-1243
here	-1244
▁job	-1245
ising	-1246
ister	-1247
▁design	-1248
▁different	-1249
▁turn	-1250
▁economic	-1251
iff	-1252
ract	-1253
htm	-1254
ool	-1255
▁sit	-1256
▁yet	-1257
veral	-1258
▁least	-1259
▁already	-1260
▁cal	-1261
▁away	-1262
▁expect	-1263
▁america	-1264
▁important	-1265
gle	-1266
ield	-1267
ived	-1268
▁cond	-1269
▁press	-1270
▁attack	-1271
▁process	-1272
▁community	-1273
uck	-1274
▁da	-1275
▁coun	-1276
▁activ	-1277
▁million	-1278
▁several	-1279
▁information	-1280
eg	-1281
sc	-1282
rael	-1283
side	-1284
▁eas	-1285
▁small	-1286
▁using	-1287
▁though	-1288
ird	-1289
ator	-1290
ided	-1291
uters	-1292
▁court	-1293
▁change	-1294
▁del	-1295
▁ear	-1296
▁non	-1297
▁class	-1298
▁comple	-1299
tr	-1300
"".	-1301
back	-1302
▁die	-1303
▁central	-1304
▁protect	-1305
hen	-1306
ued	-1307
▁ty	-1308
duct	-1309
ense	-1310
ified	-1311
▁lear	-1312
▁claim	-1313
▁human	-1314
▁across	-1315
▁called	-1316
▁record	-1317
cc	-1318
aph	-1319
app	-1320
oci	-1321
▁der	-1322
ittle	-1323
▁often	-1324
▁leaders	-1325
▁workers	-1326
15	-1327
inc	-1328
▁dro	-1329
▁once	-1330
▁phot	-1331
▁email	-1332
▁force	-1333
▁stand	-1334
▁little	-1335
ado	-1336
aug	-1337
wor	-1338
▁mat	-1339
▁suc	-1340
▁wal	-1341
▁took	-1342
▁story	-1343
▁commit	-1344
▁democrats	-1345
▁x	-1346
par	-1347
ished	-1348
▁rights	-1349
hes	-1350
ends	-1351
▁mid	-1352
▁meet	-1353
bs	-1354
ruct	-1355
▁youn	-1356
▁const	-1357
▁level	-1358
▁general	-1359
,"	-1360
ges	-1361
html	-1362
▁met	-1363
▁bill	-1364
▁conc	-1365
▁shot	-1366
▁west	-1367
▁making	-1368
.,	-1369
24	-1370
por	-1371
uro	-1372
urs	-1373
▁di	-1374
▁ال	-1375
most	-1376
▁access	-1377
▁policy	-1378
▁thought	-1379
▁protesters	-1380
ex	-1381
ada	-1382
▁fac	-1383
▁fut	-1384
ories	-1385
▁crit	-1386
▁york	-1387
▁among	-1388
▁deput	-1389
▁university	-1390
acy	-1391
lin	-1392
ony	-1393
vert	-1394
▁ever	-1395
▁early	-1396
hington	-1397
▁donald	-1398
ban	-1399
used	-1400
▁came	-1401
▁feel	-1402
▁line	-1403
▁order	-1404
▁leader	-1405
26	-1406
""."	-1407
▁vir	-1408
▁past	-1409
▁simp	-1410
▁family	-1411
▁companies	-1412
▁fun	-1413
▁mean	-1414
ending	-1415
▁night	-1416
▁north	-1417
▁effort	-1418
que	-1419
▁lim	-1420
▁pot	-1421
▁sug	-1422
itions	-1423
▁months	-1424
shooting	-1425
▁international	-1426
3,	-1427
ury	-1428
▁17	-1429
ened	-1430
hers	-1431
ults	-1432
▁grow	-1433
▁video	-1434
tw	-1435
▁saf	-1436
▁san	-1437
▁inde	-1438
uspect	-1439
▁chang	-1440
86	-1441
une	-1442
▁old	-1443
▁cost	-1444
ees	-1445
use	-1446
reme	-1447
▁anti	-1448
▁star	-1449
▁enough	-1450
▁interv	-1451
▁history	-1452
enn	-1453
ove	-1454
▁ge	-1455
uary	-1456
ways	-1457
▁hal	-1458
▁pal	-1459
▁hold	-1460
▁prop	-1461
▁tell	-1462
ertain	-1463
mer	-1464
org	-1465
orn	-1466
▁days	-1467
▁land	-1468
▁death	-1469
▁later	-1470
▁intell	-1471
▁others	-1472
▁season	-1473
▁getting	-1474
▁twitter	-1475
90	-1476
▁et	-1477
coin	-1478
▁bas	-1479
ondon	-1480
▁john	-1481
▁laun	-1482
ential	-1483
officer	-1484
▁address	-1485
▁control	-1486
14	-1487
arc	-1488
▁18	-1489
ides	-1490
▁mot	-1491
▁based	-1492
▁today	-1493
▁within	-1494
bi	-1495
ann	-1496
ico	-1497
ron	-1498
▁fil	-1499
stand	-1500
idence	-1501
▁gener	-1502
▁announ	-1503
▁become	-1504
▁future	-1505
▁indust	-1506
▁washington	-1507
▁mor	-1508
ption	-1509
▁anal	-1510
▁ener	-1511
▁sept	-1512
▁associ	-1513
▁actually	-1514
▁sk	-1515
ards	-1516
crib	-1517
ider	-1518
▁arg	-1519
▁aud	-1520
▁fri	-1521
▁ill	-1522
allen	-1523
▁black	-1524
▁israel	-1525
ds	-1526
▁#	-1527
ler	-1528
loc	-1529
ades	-1530
▁cry	-1531
▁lab	-1532
ender	-1533
ortun	-1534
▁live	-1535
▁mess	-1536
▁priv	-1537
▁space	-1538
▁arrest	-1539
▁reuters	-1540
▁question	-1541
16	-1542
▁je	-1543
▁afp	-1544
▁equ	-1545
▁imm	-1546
▁unt	-1547
▁ident	-1548
▁confir	-1549
▁london	-1550
▁whether	-1551
▁election	-1552
ask	-1553
▁key	-1554
▁ple	-1555
▁rul	-1556
▁via	-1557
▁give	-1558
▁sure	-1559
▁vict	-1560
▁county	-1561
▁started	-1562
▁congress	-1563
uk	-1564
ams	-1565
new	-1566
▁foc	-1567
▁hop	-1568
▁pap	-1569
aring	-1570
▁crim	-1571
▁glob	-1572
cement	-1573
▁regul	-1574
ibility	-1575
▁killed	-1576
▁school	-1577
▁account	-1578
let	-1579
down	-1580
▁hig	-1581
▁drug	-1582
▁mult	-1583
▁must	-1584
▁final	-1585
▁16	-1586
aken	-1587
renc	-1588
▁ger	-1589
▁inj	-1590
▁sal	-1591
▁seen	-1592
▁tele	-1593
igence	-1594
▁impro	-1595
▁sound	-1596
▁watch	-1597
▁likely	-1598
▁service	-1599
▁suggest	-1600
sp	-1601
ries	-1602
ring	-1603
▁pub	-1604
heriff	-1605
uation	-1606
▁getty	-1607
▁large	-1608
▁network	-1609
▁military	-1610
▁officers	-1611
▁particip	-1612
ead	-1613
ids	-1614
▁gun	-1615
▁pus	-1616
▁ver	-1617
ament	-1618
▁brit	-1619
▁park	-1620
aining	-1621
▁event	-1622
▁effect	-1623
involved	-1624
▁looking	-1625
▁success	-1626
▁students	-1627
40	-1628
96	-1629
not	-1630
uel	-1631
▁sn	-1632
▁jud	-1633
ument	-1634
▁cele	-1635
iously	-1636
▁tower	-1637
▁images	-1638
▁foreign	-1639
▁september	-1640
13	-1641
2,	-1642
25	-1643
port	-1644
▁bur	-1645
▁occ	-1646
▁test	-1647
▁went	-1648
▁thing	-1649
▁young	-1650
▁energy	-1651
▁blockch	-1652
▁january	-1653
2.	-1654
28	-1655
70	-1656
mar	-1657
ney	-1658
ming	-1659
▁low	-1660
▁syr	-1661
▁wall	-1662
▁close	-1663
▁thous	-1664
▁profess	-1665
▁children	-1666
76	-1667
sy	-1668
▁:	-1669
empt	-1670
▁dom	-1671
▁mom	-1672
▁avail	-1673
▁enfor	-1674
▁inner	-1675
▁compet	-1676
▁course	-1677
▁proper	-1678
▁repres	-1679
▁secret	-1680
▁threat	-1681
▁justice	-1682
▁players	-1683
▁special	-1684
lf	-1685
ze	-1686
▁dou	-1687
ended	-1688
▁desp	-1689
▁sing	-1690
▁view	-1691
▁given	-1692
▁makes	-1693
▁following	-1694
23	-1695
ars	-1696
erc	-1697
▁14	-1698
▁area	-1699
▁five	-1700
▁pros	-1701
▁road	-1702
▁china	-1703
▁creat	-1704
▁elect	-1705
▁liber	-1706
▁almost	-1707
▁capital	-1708
▁outside	-1709
▁problem	-1710
bc	-1711
yn	-1712
ape	-1713
▁13	-1714
▁25	-1715
▁uk	-1716
ched	-1717
nect	-1718
ours	-1719
▁ran	-1720
▁tra	-1721
▁upd	-1722
there	-1723
▁bene	-1724
▁along	-1725
▁chief	-1726
▁south	-1727
▁always	-1728
▁conserv	-1729
▁director	-1730
▁♪	-1731
btc	-1732
▁civ	-1733
▁lat	-1734
getty	-1735
▁fail	-1736
verage	-1737
▁crypt	-1738
▁doesn	-1739
▁until	-1740
▁terror	-1741
75	-1742
lo	-1743
▁*	-1744
ify	-1745
▁os	-1746
itor	-1747
ones	-1748
▁0.0	-1749
ators	-1750
▁orig	-1751
▁sent	-1752
idents	-1753
▁center	-1754
▁services	-1755
▁intelligence	-1756
▁fem	-1757
▁tok	-1758
▁tot	-1759
itive	-1760
▁famil	-1761
▁front	-1762
▁speak	-1763
▁christ	-1764
▁execut	-1765
▁return	-1766
▁senate	-1767
▁wanted	-1768
▁criminal	-1769
▁research	-1770
▁employees	-1771
duc	-1772
▁cop	-1773
▁hot	-1774
attle	-1775
ional	-1776
▁dead	-1777
▁dest	-1778
▁gren	-1779
▁mass	-1780
itution	-1781
▁instead	-1782
▁continue	-1783
▁possible	-1784
▁investigation	-1785
bl	-1786
na	-1787
▁@	-1788
ley	-1789
ogr	-1790
vir	-1791
▁ju	-1792
ison	-1793
▁air	-1794
▁dra	-1795
▁esp	-1796
▁sum	-1797
▁asked	-1798
▁doing	-1799
▁light	-1800
▁available	-1801
80	-1802
do	-1803
/51	-1804
era	-1805
orm	-1806
urch	-1807
▁cam	-1808
▁tar	-1809
▁cand	-1810
▁laws	-1811
▁trad	-1812
lement	-1813
▁staff	-1814
▁third	-1815
▁advert	-1816
▁strong	-1817
▁democratic	-1818
lu	-1819
ão	-1820
aps	-1821
▁11	-1822
▁mi	-1823
local	-1824
ensive	-1825
▁begin	-1826
▁break	-1827
▁bring	-1828
▁german	-1829
▁connect	-1830
▁minister	-1831
▁blockchain	-1832
95	-1833
den	-1834
ilar	-1835
this	-1836
▁fur	-1837
▁pit	-1838
▁tre	-1839
▁2015	-1840
selves	-1841
twitter	-1842
▁entire	-1843
▁financ	-1844
▁having	-1845
▁believe	-1846
▁despite	-1847
▁reports	-1848
aces	-1849
▁dav	-1850
▁agre	-1851
▁cult	-1852
▁educ	-1853
▁foot	-1854
▁idea	-1855
▁sour	-1856
▁civil	-1857
▁color	-1858
▁short	-1859
ference	-1860
.5	-1861
ls	-1862
ging	-1863
lier	-1864
▁sol	-1865
▁tem	-1866
▁twe	-1867
▁anim	-1868
▁euro	-1869
▁games	-1870
▁share	-1871
▁taken	-1872
▁result	-1873
▁content	-1874
ps	-1875
ites	-1876
oice	-1877
time	-1878
▁hom	-1879
▁cust	-1880
▁deep	-1881
▁kind	-1882
gether	-1883
▁benef	-1884
▁action	-1885
▁challen	-1886
▁shooting	-1887
▁together	-1888
▁thousands	-1889
▁development	-1890
93	-1891
da	-1892
ipt	-1893
nal	-1894
▁ep	-1895
aint	-1896
angu	-1897
ivid	-1898
ully	-1899
aster	-1900
where	-1901
▁book	-1902
▁poll	-1903
▁prob	-1904
▁town	-1905
▁vers	-1906
▁super	-1907
aturday	-1908
▁charac	-1909
▁coming	-1910
▁committe	-1911
++	-1912
11	-1913
9,	-1914
ane	-1915
lam	-1916
▁...	-1917
▁pic	-1918
istic	-1919
▁half	-1920
▁init	-1921
▁poin	-1922
▁role	-1923
▁added	-1924
▁fight	-1925
ability	-1926
▁behind	-1927
▁russia	-1928
▁results	-1929
▁sheriff	-1930
▁anything	-1931
▁everyone	-1932
45	-1933
bo	-1934
▁ri	-1935
ches	-1936
ster	-1937
▁led	-1938
▁six	-1939
imate	-1940
pping	-1941
▁name	-1942
encies	-1943
▁agency	-1944
ov	-1945
ats	-1946
int	-1947
rict	-1948
ural	-1949
istan	-1950
▁port	-1951
▁publ	-1952
▁self	-1953
ournal	-1954
▁below	-1955
▁issue	-1956
▁global	-1957
fl	-1958
comm	-1959
hern	-1960
iety	-1961
▁$0.	-1962
▁100	-1963
▁goo	-1964
alach	-1965
ample	-1966
asing	-1967
ented	-1968
▁site	-1969
▁comes	-1970
▁happy	-1971
▁traff	-1972
▁cities	-1973
▁histor	-1974
▁reason	-1975
▁street	-1976
▁bitcoin	-1977
▁saturday	-1978
▁violence	-1979
▁authorities	-1980
▁24	-1981
▁ur	-1982
itted	-1983
▁pict	-1984
▁immig	-1985
▁store	-1986
▁target	-1987
▁building	-1988
ell	-1989
iday	-1990
play	-1991
count	-1992
fully	-1993
ribut	-1994
vered	-1995
viron	-1996
▁capt	-1997
▁apple	-1998
▁focus	-1999
▁create	-2000
▁regime	-2001
▁created	-2002
▁provide	-2003
▁appalach	-2004
▁opportun	-2005
▁relations	-2006
ma	-2007
ny	-2008
bre	-2009
imp	-2010
▁aw	-2011
▁wa	-2012
apan	-2013
iter	-2014
lear	-2015
like	-2016
okes	-2017
▁epa	-2018
▁body	-2019
▁clin	-2020
▁crow	-2021
▁join	-2022
▁stay	-2023
ection	-2024
icking	-2025
▁espec	-2026
/2017/1	-2027
▁safety	-2028
▁certain	-2029
▁addition	-2030
▁everything	-2031
▁enforcement	-2032
36	-2033
uf	-2034
aged	-2035
amed	-2036
fell	-2037
rote	-2038
▁doc	-2039
ively	-2040
story	-2041
works	-2042
▁arch	-2043
▁sens	-2044
▁weap	-2045
▁scott	-2046
ulation	-2047
▁google	-2048
▁please	-2049
▁respond	-2050
▁grenfell	-2051
▁.	-2052
uff	-2053
pend	-2054
▁bad	-2055
▁ira	-2056
ither	-2057
▁repl	-2058
▁wind	-2059
▁langu	-2060
▁total	-2061
▁track	-2062
▁review	-2063
▁officer	-2064
▁similar	-2065
▁increase	-2066
▁probably	-2067
▁committee	-2068
/0	-2069
ee	-2070
▁&	-2071
bur	-2072
hel	-2073
irc	-2074
oke	-2075
▁hy	-2076
ball	-2077
itiz	-2078
▁mill	-2079
▁task	-2080
▁vote	-2081
▁wasn	-2082
▁known	-2083
▁match	-2084
▁study	-2085
▁detail	-2086
▁europe	-2087
▁earlier	-2088
▁example	-2089
▁further	-2090
▁evidence	-2091
▁themselves	-2092
35	-2093
97	-2094
kn	-2095
la	-2096
aced	-2097
iple	-2098
▁bal	-2099
▁hit	-2100
▁los	-2101
▁sup	-2102
▁vol	-2103
wards	-2104
▁code	-2105
undred	-2106
▁lives	-2107
▁price	-2108
▁syria	-2109
▁wrote	-2110
▁strate	-2111
▁economy	-2112
▁environ	-2113
▁especially	-2114
27	-2115
84	-2116
oud	-2117
▁1.	-2118
▁log	-2119
▁ball	-2120
▁iraq	-2121
▁jobs	-2122
▁late	-2123
▁page	-2124
▁side	-2125
▁broad	-2126
▁rules	-2127
▁nearly	-2128
▁points	-2129
▁someone	-2130
85	-2131
mas	-2132
▁50	-2133
iews	-2134
▁dig	-2135
▁fav	-2136
▁gir	-2137
▁und	-2138
ences	-2139
ening	-2140
▁done	-2141
▁pred	-2142
govern	-2143
▁corpor	-2144
▁higher	-2145
▁issues	-2146
▁trying	-2147
▁attempt	-2148
▁biggest	-2149
▁discuss	-2150
▁express	-2151
▁nothing	-2152
▁respons	-2153
▁agencies	-2154
▁industry	-2155
ots	-2156
atic	-2157
▁dam	-2158
▁pet	-2159
based	-2160
ecess	-2161
▁suff	-2162
▁began	-2163
▁clear	-2164
▁exist	-2165
▁japan	-2166
ificant	-2167
▁nation	-2168
▁series	-2169
▁advertis	-2170
▁)	-2171
ese	-2172
ift	-2173
ram	-2174
▁28	-2175
"","	-2176
iate	-2177
▁31,	-2178
▁rob	-2179
aging	-2180
▁hill	-2181
▁plat	-2182
ission	-2183
▁cases	-2184
▁pract	-2185
▁custom	-2186
▁hundred	-2187
▁suspect	-2188
-4	-2189
ha	-2190
.""	-2191
▁na	-2192
▁ru	-2193
head	-2194
ises	-2195
iding	-2196
▁circ	-2197
▁club	-2198
▁image	-2199
▁prior	-2200
▁player	-2201
▁taking	-2202
▁friends	-2203
▁individ	-2204
▁personal	-2205
▁technology	-2206
34	-2207
ark	-2208
cal	-2209
fer	-2210
ners	-2211
▁due	-2212
▁mag	-2213
▁saw	-2214
ances	-2215
lling	-2216
▁comb	-2217
▁fall	-2218
▁2017.	-2219
▁citiz	-2220
▁field	-2221
▁islam	-2222
duction	-2223
ination	-2224
▁living	-2225
▁senior	-2226
ological	-2227
▁financial	-2228
▁potential	-2229
1.	-2230
iod	-2231
omb	-2232
cast	-2233
edom	-2234
lish	-2235
▁ago	-2236
▁exc	-2237
▁mis	-2238
ently	-2239
▁base	-2240
▁else	-2241
▁lost	-2242
▁hours	-2243
▁appear	-2244
▁deputy	-2245
▁single	-2246
▁virgin	-2247
▁billion	-2248
▁decision	-2249
▁announced	-2250
▁statement	-2251
3.	-2252
94	-2253
iec	-2254
ilt	-2255
you	-2256
▁26	-2257
unes	-2258
▁bud	-2259
▁june	-2260
▁love	-2261
▁true	-2262
▁webs	-2263
estern	-2264
▁tweet	-2265
▁water	-2266
▁accept	-2267
▁groups	-2268
▁needed	-2269
▁rather	-2270
▁saying	-2271
▁sexual	-2272
▁comment	-2273
▁contact	-2274
▁revolution	-2275
▁significant	-2276
2/	-2277
put	-2278
▁2.	-2279
that	-2280
they	-2281
▁30,	-2282
▁apr	-2283
icles	-2284
▁kill	-2285
▁reve	-2286
archae	-2287
▁2018.	-2288
▁green	-2289
▁value	-2290
▁border	-2291
▁spokes	-2292
▁himself	-2293
▁running	-2294
▁stories	-2295
▁understand	-2296
▁environment	-2297
.'	-2298
74	-2299
dle	-2300
ica	-2301
tty	-2302
comp	-2303
ires	-2304
▁enj	-2305
▁fbi	-2306
▁mer	-2307
▁try	-2308
▁veh	-2309
ature	-2310
▁stop	-2311
▁vill	-2312
▁mount	-2313
▁seems	-2314
▁woman	-2315
▁impact	-2316
▁moment	-2317
▁worked	-2318
▁british	-2319
▁platform	-2320
▁currently	-2321
▁represent	-2322
60	-2323
dr	-2324
me	-2325
cil	-2326
eng	-2327
ows	-2328
hood	-2329
ined	-2330
lect	-2331
▁arr	-2332
▁opt	-2333
rency	-2334
▁cars	-2335
▁king	-2336
▁mark	-2337
▁mind	-2338
▁repe	-2339
utions	-2340
▁carry	-2341
▁enter	-2342
▁whole	-2343
▁wrong	-2344
▁agents	-2345
▁feature	-2346
▁journal	-2347
▁weapons	-2348
▁movement	-2349
▁confirmed	-2350
▁republican	-2351
▁republicans	-2352
eks	-2353
ida	-2354
▁fo	-2355
atal	-2356
ests	-2357
ival	-2358
town	-2359
utes	-2360
▁ali	-2361
▁emb	-2362
▁isn	-2363
estin	-2364
▁alle	-2365
▁cook	-2366
▁prim	-2367
▁risk	-2368
▁above	-2369
▁influ	-2370
▁trade	-2371
▁celebr	-2372
▁period	-2373
▁pretty	-2374
▁include	-2375
▁complete	-2376
▁expected	-2377
▁families	-2378
▁released	-2379
government	-2380
▁americans	-2381
▁conservative	-2382
▁advertisement	-2383
.)	-2384
mb	-2385
lly	-2386
▁enc	-2387
▁pan	-2388
▁squ	-2389
iment	-2390
usion	-2391
▁cred	-2392
▁east	-2393
▁flag	-2394
▁phys	-2395
▁slow	-2396
▁sout	-2397
ograph	-2398
▁grand	-2399
▁leave	-2400
▁legal	-2401
▁march	-2402
▁sense	-2403
▁shows	-2404
▁candid	-2405
▁forces	-2406
▁inside	-2407
▁produc	-2408
▁resour	-2409
▁supreme	-2410
▁independ	-2411
▁individual	-2412
▁leadership	-2413
ta	-2414
zy	-2415
ami	-2416
dis	-2417
ogn	-2418
roy	-2419
onse	-2420
▁ang	-2421
▁ben	-2422
▁link	-2423
action	-2424
atives	-2425
▁april	-2426
▁compl	-2427
▁daily	-2428
▁enjoy	-2429
▁demand	-2430
▁friday	-2431
▁online	-2432
▁describ	-2433
▁freedom	-2434
▁popular	-2435
▁countries	-2436
▁secretary	-2437
hl	-2438
hr	-2439
ye	-2440
ode	-2441
oul	-2442
ste	-2443
ague	-2444
augh	-2445
▁dea	-2446
▁rat	-2447
▁scr	-2448
itten	-2449
▁appe	-2450
▁diff	-2451
▁path	-2452
▁room	-2453
▁coach	-2454
▁means	-2455
▁wants	-2456
▁anyone	-2457
▁instit	-2458
▁regard	-2459
▁finally	-2460
▁forward	-2461
▁medical	-2462
▁demonstr	-2463
▁happened	-2464
▁position	-2465
▁virginia	-2466
▁/	-2467
hib	-2468
▁(1	-2469
▁mr	-2470
ller	-2471
▁jer	-2472
▁neg	-2473
asons	-2474
iforn	-2475
▁areas	-2476
ifornia	-2477
▁budget	-2478
▁refuge	-2479
▁clinton	-2480
▁meeting	-2481
▁original	-2482
▁received	-2483
▁response	-2484
▁specific	-2485
▁executive	-2486
ij	-2487
elt	-2488
ium	-2489
oph	-2490
reg	-2491
uit	-2492
body	-2493
▁aug	-2494
▁fig	-2495
▁sto	-2496
▁tin	-2497
estic	-2498
ounds	-2499
right	-2500
▁army	-2501
▁held	-2502
▁terr	-2503
ctions	-2504
uments	-2505
ructure	-2506
▁female	-2507
▁actions	-2508
▁collect	-2509
▁present	-2510
▁product	-2511
▁website	-2512
▁features	-2513
▁implement	-2514
87	-2515
sm	-2516
ago	-2517
aut	-2518
mit	-2519
osp	-2520
▁1,	-2521
ston	-2522
▁ess	-2523
▁gro	-2524
▁lib	-2525
▁conv	-2526
▁hope	-2527
▁pull	-2528
▁analy	-2529
▁leban	-2530
▁peace	-2531
▁scale	-2532
article	-2533
▁longer	-2534
▁necess	-2535
▁status	-2536
▁wealth	-2537
▁concern	-2538
▁efforts	-2539
▁russian	-2540
▁western	-2541
▁learning	-2542
▁relationship	-2543
19	-2544
29	-2545
ios	-2546
key	-2547
net	-2548
pre	-2549
▁ic	-2550
oman	-2551
▁ans	-2552
▁div	-2553
▁ham	-2554
▁nuc	-2555
▁scre	-2556
coming	-2557
orters	-2558
▁colle	-2559
▁needs	-2560
▁photo	-2561
▁weeks	-2562
▁worth	-2563
▁either	-2564
▁middle	-2565
▁recogn	-2566
▁simply	-2567
▁source	-2568
▁improve	-2569
▁private	-2570
▁version	-2571
▁language	-2572
▁palestin	-2573
▁politics	-2574
▁continued	-2575
▁situation	-2576
ió	-2577
iet	-2578
rel	-2579
hani	-2580
over	-2581
word	-2582
▁ach	-2583
▁bay	-2584
▁cup	-2585
▁dre	-2586
▁hor	-2587
▁mur	-2588
▁obs	-2589
▁tit	-2590
▁tom	-2591
▁unf	-2592
aries	-2593
arter	-2594
▁drop	-2595
▁goal	-2596
▁jack	-2597
▁mich	-2598
▁afric	-2599
▁crowd	-2600
▁oppos	-2601
▁battle	-2602
▁became	-2603
▁brought	-2604
▁council	-2605
▁organiz	-2606
▁remains	-2607
▁writing	-2608
▁arrested	-2609
▁policies	-2610
▁california	-2611
▁conditions	-2612
gu	-2613
lt	-2614
nd	-2615
za	-2616
but	-2617
ota	-2618
yle	-2619
▁mc	-2620
ault	-2621
▁age	-2622
▁mal	-2623
▁nic	-2624
▁sem	-2625
cript	-2626
itect	-2627
▁doug	-2628
▁goes	-2629
▁ment	-2630
▁subs	-2631
▁music	-2632
▁surpr	-2633
▁owners	-2634
▁article	-2635
▁nuclear	-2636
▁release	-2637
▁citizens	-2638
▁residents	-2639
▁organization	-2640
21	-2641
64	-2642
ude	-2643
zen	-2644
▁27	-2645
cont	-2646
ghan	-2647
hran	-2648
imum	-2649
with	-2650
▁gra	-2651
▁mit	-2652
▁food	-2653
▁heav	-2654
▁safe	-2655
▁sold	-2656
▁text	-2657
▁corru	-2658
▁natur	-2659
▁relig	-2660
▁critic	-2661
▁attacks	-2662
▁details	-2663
▁systems	-2664
--	-2665
ba	-2666
fr	-2667
las	-2668
men	-2669
ume	-2670
▁ir	-2671
iran	-2672
▁amb	-2673
▁gal	-2674
▁las	-2675
▁tur	-2676
acing	-2677
after	-2678
alled	-2679
atory	-2680
house	-2681
icult	-2682
while	-2683
▁bank	-2684
▁fell	-2685
▁huge	-2686
▁rate	-2687
▁rich	-2688
itting	-2689
▁2017,	-2690
▁amend	-2691
▁david	-2692
▁takes	-2693
▁taxes	-2694
▁advent	-2695
▁decent	-2696
▁region	-2697
▁tehran	-2698
▁message	-2699
▁minutes	-2700
▁require	-2701
▁involved	-2702
▁progress	-2703
▁agreement	-2704
▁education	-2705
37	-2706
sk	-2707
rec	-2708
ille	-2709
▁abs	-2710
▁ein	-2711
▁pur	-2712
▁rou	-2713
▁ten	-2714
▁typ	-2715
crime	-2716
▁emer	-2717
▁gimp	-2718
▁pick	-2719
▁soon	-2720
itness	-2721
▁guard	-2722
▁offer	-2723
▁quick	-2724
▁users	-2725
covered	-2726
▁afghan	-2727
▁canada	-2728
▁decades	-2729
▁morning	-2730
▁consider	-2731
▁interview	-2732
▁experience	-2733
ho	-2734
ank	-2735
ato	-2736
eme	-2737
ias	-2738
ote	-2739
ref	-2740
▁3.	-2741
▁40	-2742
▁ma	-2743
?"""	-2744
ique	-2745
omas	-2746
rast	-2747
▁cas	-2748
▁eve	-2749
▁hol	-2750
▁deli	-2751
▁firm	-2752
▁gave	-2753
▁gold	-2754
▁phon	-2755
▁sett	-2756
▁teac	-2757
▁cover	-2758
▁career	-2759
▁launch	-2760
▁object	-2761
▁victim	-2762
▁alleged	-2763
▁islamic	-2764
▁streets	-2765
▁hundreds	-2766
▁multiple	-2767
ery	-2768
gen	-2769
unt	-2770
▁$5	-2771
aled	-2772
duce	-2773
fort	-2774
▁gas	-2775
▁gop	-2776
▁hur	-2777
▁nom	-2778
ights	-2779
▁card	-2780
▁cash	-2781
▁fear	-2782
▁guys	-2783
▁lack	-2784
▁push	-2785
▁race	-2786
▁wide	-2787
ounded	-2788
rences	-2789
though	-2790
▁defin	-2791
▁immed	-2792
▁paper	-2793
▁reach	-2794
▁scene	-2795
▁smart	-2796
▁token	-2797
▁travel	-2798
▁average	-2799
▁changes	-2800
▁playing	-2801
▁contract	-2802
▁domestic	-2803
▁previous	-2804
▁difficult	-2805
▁demonstrat	-2806
65	-2807
nn	-2808
su	-2809
nov	-2810
ube	-2811
▁oh	-2812
aves	-2813
ceed	-2814
cons	-2815
ford	-2816
load	-2817
lock	-2818
what	-2819
▁fix	-2820
▁lad	-2821
rants	-2822
▁aust	-2823
▁exch	-2824
▁fast	-2825
▁meas	-2826
▁pers	-2827
▁achie	-2828
▁apart	-2829
▁eight	-2830
▁mater	-2831
▁model	-2832
▁cannot	-2833
▁church	-2834
▁giving	-2835
▁perform	-2836
▁researc	-2837
▁deputies	-2838
▁amendment	-2839
9.	-2840
ai	-2841
gh	-2842
ett	-2843
lex	-2844
lls	-2845
▁ut	-2846
airs	-2847
last	-2848
part	-2849
ware	-2850
▁buy	-2851
▁oil	-2852
▁por	-2853
arily	-2854
erous	-2855
izing	-2856
▁cass	-2857
▁clos	-2858
▁easy	-2859
▁fair	-2860
▁flor	-2861
▁july	-2862
▁knew	-2863
▁lisk	-2864
▁piec	-2865
▁poor	-2866
▁shut	-2867
▁user	-2868
ground	-2869
iation	-2870
▁andro	-2871
▁exact	-2872
▁heart	-2873
▁maybe	-2874
▁spent	-2875
▁trust	-2876
▁veter	-2877
▁amount	-2878
▁forced	-2879
▁matter	-2880
▁reform	-2881
▁search	-2882
▁consist	-2883
▁counter	-2884
▁decided	-2885
▁mention	-2886
▁numbers	-2887
▁quality	-2888
▁approach	-2889
▁governor	-2890
▁included	-2891
▁29	-2892
▁um	-2893
erve	-2894
ette	-2895
gypt	-2896
hold	-2897
ocur	-2898
sych	-2899
▁eth	-2900
▁pow	-2901
▁son	-2902
ients	-2903
oring	-2904
verse	-2905
▁kids	-2906
▁nine	-2907
▁nort	-2908
▁paid	-2909
▁saud	-2910
▁estab	-2911
▁fired	-2912
▁kelly	-2913
▁phone	-2914
▁quite	-2915
▁separ	-2916
▁treat	-2917
▁works	-2918
ruction	-2919
▁august	-2920
▁chance	-2921
▁played	-2922
▁showed	-2923
ications	-2924
▁android	-2925
▁calling	-2926
▁society	-2927
▁function	-2928
▁includes	-2929
▁majority	-2930
▁property	-2931
▁beginning	-2932
▁christmas	-2933
▁cryptocur	-2934
▁resources	-2935
▁31	-2936
ecil	-2937
ighb	-2938
just	-2939
▁bey	-2940
▁feb	-2941
▁mel	-2942
▁web	-2943
power	-2944
▁coup	-2945
▁epis	-2946
▁fans	-2947
▁grud	-2948
▁rule	-2949
▁tren	-2950
▁trip	-2951
▁built	-2952
▁prime	-2953
ilities	-2954
▁latest	-2955
▁letter	-2956
▁levels	-2957
▁thanks	-2958
▁thomas	-2959
▁defense	-2960
▁predict	-2961
▁rouhani	-2962
▁student	-2963
▁comments	-2964
▁iranians	-2965
▁problems	-2966
▁strategy	-2967
▁attention	-2968
4,	-2969
ev	-2970
gs	-2971
/15	-2972
/18	-2973
ien	-2974
lim	-2975
arth	-2976
chen	-2977
icit	-2978
ills	-2979
oose	-2980
unch	-2981
▁ber	-2982
▁mad	-2983
▁obv	-2984
aving	-2985
inese	-2986
▁decl	-2987
▁male	-2988
ursday	-2989
▁looks	-2990
▁moder	-2991
▁strug	-2992
▁caecil	-2993
▁member	-2994
▁simple	-2995
▁turned	-2996
▁conduct	-2997
▁douglas	-2998
▁extreme	-2999
▁quarter	-3000
▁designed	-3001
▁powerful	-3002
▁thinking	-3003
▁appalachia	-3004
▁throughout	-3005
73	-3006
gl	-3007
mo	-3008
ana	-3009
ino	-3010
isl	-3011
ush	-3012
▁ok	-3013
acht	-3014
aine	-3015
dead	-3016
fect	-3017
izes	-3018
▁adm	-3019
▁ded	-3020
▁flow	-3021
▁note	-3022
▁pack	-3023
▁spot	-3024
▁vice	-3025
forman	-3026
▁board	-3027
▁check	-3028
▁heard	-3029
▁james	-3030
▁nunes	-3031
▁thank	-3032
eration	-3033
▁ground	-3034
▁itself	-3035
▁remain	-3036
entially	-3037
▁funding	-3038
▁although	-3039
▁password	-3040
▁southern	-3041
▁published	-3042
▁immigration	-3043
▁interesting	-3044
2)	-3045
nb	-3046
axy	-3047
ips	-3048
ple	-3049
raw	-3050
sey	-3051
val	-3052
▁23	-3053
▁du	-3054
lled	-3055
pres	-3056
ties	-3057
▁das	-3058
▁deb	-3059
▁guy	-3060
▁hat	-3061
▁hon	-3062
▁lay	-3063
▁tor	-3064
iring	-3065
▁amaz	-3066
▁door	-3067
▁loss	-3068
▁type	-3069
▁ways	-3070
▁deter	-3071
▁princ	-3072
imately	-3073
▁analys	-3074
▁beyond	-3075
▁consid	-3076
▁events	-3077
▁galaxy	-3078
▁gender	-3079
▁helped	-3080
▁climate	-3081
▁germany	-3082
▁israeli	-3083
▁phoneme	-3084
▁politic	-3085
▁programs	-3086
▁remember	-3087
▁thursday	-3088
▁character	-3089
▁tradition	-3090
▁increasing	-3091
▁palestinian	-3092
▁researchers	-3093
▁constitution	-3094
.0	-3095
1-	-3096
ür	-3097
▁ب	-3098
eda	-3099
nes	-3100
win	-3101
▁tv	-3102
▁vs	-3103
iers	-3104
imin	-3105
ocol	-3106
ried	-3107
term	-3108
usal	-3109
▁fal	-3110
▁nar	-3111
▁tim	-3112
▁wil	-3113
ached	-3114
aming	-3115
andra	-3116
aught	-3117
▁beat	-3118
▁font	-3119
▁hosp	-3120
▁item	-3121
▁meth	-3122
▁perm	-3123
▁talk	-3124
ements	-3125
▁advis	-3126
▁advoc	-3127
▁calls	-3128
▁franc	-3129
▁plans	-3130
▁psych	-3131
/2017/0	-3132
ancient	-3133
suspect	-3134
▁income	-3135
▁growing	-3136
▁studies	-3137
▁village	-3138
▁witness	-3139
▁downtown	-3140
▁performan	-3141
▁production	-3142
▁communities	-3143
7.	-3144
8,	-3145
ux	-3146
vo	-3147
har	-3148
iar	-3149
mag	-3150
ona	-3151
uth	-3152
▁ps	-3153
enda	-3154
fire	-3155
idge	-3156
ored	-3157
▁avo	-3158
▁lin	-3159
▁mob	-3160
▁pak	-3161
▁yes	-3162
field	-3163
ureau	-3164
world	-3165
▁blog	-3166
▁blue	-3167
▁prem	-3168
▁tool	-3169
iately	-3170
▁attor	-3171
▁behav	-3172
▁cross	-3173
▁favor	-3174
▁rates	-3175
▁shoot	-3176
▁visit	-3177
▁willi	-3178
▁adding	-3179
▁affect	-3180
▁couple	-3181
▁expand	-3182
▁growth	-3183
▁neighb	-3184
▁passed	-3185
▁spring	-3186
▁update	-3187
▁wouldn	-3188
▁florida	-3189
▁respect	-3190
▁material	-3191
▁cassandra	-3192
▁contribut	-3193
▁influence	-3194
archaeology	-3195
▁demonstration	-3196
bu	-3197
▁,	-3198
ael	-3199
ele	-3200
fin	-3201
was	-3202
▁22	-3203
enei	-3204
enez	-3205
haps	-3206
ibly	-3207
▁bow	-3208
▁buc	-3209
▁hus	-3210
▁mic	-3211
class	-3212
erved	-3213
iance	-3214
▁calc	-3215
▁cold	-3216
▁hall	-3217
▁imag	-3218
▁surv	-3219
▁upon	-3220
▁virt	-3221
▁wish	-3222
▁angel	-3223
▁brows	-3224
▁chair	-3225
▁learn	-3226
▁overt	-3227
▁words	-3228
enezuel	-3229
hamenei	-3230
ighters	-3231
▁choice	-3232
▁austral	-3233
▁digital	-3234
▁episode	-3235
▁largest	-3236
▁managed	-3237
▁written	-3238
▁benefits	-3239
▁district	-3240
▁pakistan	-3241
▁required	-3242
▁decentral	-3243
▁questions	-3244
▁associated	-3245
99	-3246
any	-3247
inn	-3248
met	-3249
set	-3250
▁"(	-3251
▁21	-3252
life	-3253
uses	-3254
▁aim	-3255
▁sym	-3256
ordin	-3257
ously	-3258
▁copy	-3259
▁doll	-3260
▁fuel	-3261
▁mond	-3262
▁para	-3263
▁qash	-3264
▁size	-3265
▁soft	-3266
▁wild	-3267
▁alleg	-3268
▁drive	-3269
▁goals	-3270
▁highl	-3271
▁india	-3272
▁named	-3273
▁rally	-3274
▁terms	-3275
▁throw	-3276
ication	-3277
ression	-3278
▁applic	-3279
▁bureau	-3280
▁credit	-3281
▁gruden	-3282
▁harass	-3283
▁legisl	-3284
▁signed	-3285
▁injured	-3286
▁limited	-3287
▁natural	-3288
▁repeated	-3289
▁speaking	-3290
▁activists	-3291
▁challenge	-3292
▁sometimes	-3293
▁operations	-3294
▁opportunity	-3295
▁participants	-3296
39	-3297
-12	-3298
apt	-3299
car	-3300
ero	-3301
gun	-3302
ocr	-3303
vey	-3304
ante	-3305
orge	-3306
resh	-3307
shot	-3308
wide	-3309
▁bir	-3310
▁mex	-3311
▁rad	-3312
trump	-3313
▁"(""	-3314
▁arab	-3315
▁hous	-3316
▁opin	-3317
▁send	-3318
▁stra	-3319
▁trib	-3320
▁posts	-3321
▁teams	-3322
▁whose	-3323
▁consum	-3324
▁failed	-3325
▁happen	-3326
▁prices	-3327
▁unrest	-3328
▁attract	-3329
▁perhaps	-3330
▁serious	-3331
▁creating	-3332
▁document	-3333
▁millions	-3334
▁venezuel	-3335
▁continues	-3336
▁eventually	-3337
▁independent	-3338
▁trafficking	-3339
▁demonstrators	-3340
/6	-3341
gn	-3342
sl	-3343
/17	-3344
how	-3345
iel	-3346
iqu	-3347
pap	-3348
ção	-3349
bell	-3350
stre	-3351
▁ren	-3352
ander	-3353
anted	-3354
ruary	-3355
▁cast	-3356
▁felt	-3357
▁host	-3358
▁plus	-3359
▁sand	-3360
▁shel	-3361
invest	-3362
isions	-3363
ularly	-3364
▁canad	-3365
▁crime	-3366
▁ended	-3367
▁hands	-3368
▁illeg	-3369
▁lower	-3370
▁annual	-3371
▁camera	-3372
▁centre	-3373
▁common	-3374
▁editor	-3375
▁gather	-3376
▁method	-3377
▁mother	-3378
▁shared	-3379
▁century	-3380
▁chinese	-3381
▁complex	-3382
▁minimum	-3383
▁related	-3384
▁request	-3385
▁smaller	-3386
▁analysis	-3387
▁believed	-3388
▁colorado	-3389
▁compared	-3390
▁provided	-3391
▁province	-3392
▁certainly	-3393
▁corporate	-3394
▁professor	-3395
▁reporting	-3396
▁commission	-3397
▁conference	-3398
▁particular	-3399
▁considering	-3400
4.	-3401
dy	-3402
sa	-3403
▁|	-3404
▁م	-3405
/16	-3406
200	-3407
ión	-3408
nel	-3409
och	-3410
ops	-3411
rad	-3412
see	-3413
ugh	-3414
urb	-3415
▁fa	-3416
face	-3417
iant	-3418
itch	-3419
resp	-3420
ucky	-3421
▁box	-3422
▁era	-3423
▁sus	-3424
▁ult	-3425
anced	-3426
iders	-3427
phone	-3428
stein	-3429
useum	-3430
▁burn	-3431
▁bush	-3432
▁coat	-3433
▁kore	-3434
▁nice	-3435
▁norm	-3436
ouston	-3437
▁ahead	-3438
▁award	-3439
▁innov	-3440
▁minor	-3441
▁seven	-3442
▁stage	-3443
▁league	-3444
▁summer	-3445
▁allowed	-3446
▁exactly	-3447
▁picture	-3448
▁various	-3449
▁hospital	-3450
▁location	-3451
▁partners	-3452
▁prosecut	-3453
▁spending	-3454
▁training	-3455
▁experiment	-3456
mon	-3457
rew	-3458
▁fu	-3459
bert	-3460
oted	-3461
▁bat	-3462
▁bin	-3463
▁sad	-3464
lined	-3465
night	-3466
rents	-3467
times	-3468
▁2010	-3469
▁aren	-3470
▁film	-3471
▁ones	-3472
▁rare	-3473
uction	-3474
▁meant	-3475
▁occup	-3476
▁probe	-3477
▁saudi	-3478
▁tried	-3479
▁union	-3480
▁africa	-3481
▁integr	-3482
▁perman	-3483
▁prison	-3484
▁voters	-3485
▁claimed	-3486
▁cookies	-3487
▁section	-3488
▁victory	-3489
/2017/12/	-3490
▁february	-3491
▁physical	-3492
▁architect	-3493
▁protester	-3494
▁characters	-3495
▁corruption	-3496
▁foundation	-3497
▁reportedly	-3498
▁immediately	-3499
▁presidential	-3500
1/	-3501
ady	-3502
cle	-3503
ipp	-3504
▁ho	-3505
anta	-3506
more	-3507
room	-3508
sequ	-3509
▁cab	-3510
▁mac	-3511
▁roy	-3512
▁tex	-3513
isted	-3514
ufact	-3515
▁band	-3516
▁died	-3517
▁mort	-3518
▁tend	-3519
▁thro	-3520
atever	-3521
county	-3522
refuge	-3523
▁brief	-3524
▁maint	-3525
▁stuff	-3526
▁voice	-3527
▁altern	-3528
▁engine	-3529
▁friend	-3530
▁modern	-3531
▁places	-3532
▁posted	-3533
▁secure	-3534
▁ability	-3535
▁cutting	-3536
▁devices	-3537
▁display	-3538
▁francis	-3539
▁leaving	-3540
▁massive	-3541
▁reasons	-3542
▁science	-3543
▁usually	-3544
▁violent	-3545
▁attorney	-3546
▁directly	-3547
▁exchange	-3548
▁starting	-3549
▁teachers	-3550
▁condition	-3551
▁meanwhile	-3552
▁institutions	-3553
▁particularly	-3554
33	-3555
wa	-3556
arm	-3557
des	-3558
ken	-3559
oti	-3560
rer	-3561
rev	-3562
ted	-3563
umb	-3564
yes	-3565
▁60	-3566
▁il	-3567
athe	-3568
hest	-3569
obby	-3570
rant	-3571
rary	-3572
well	-3573
▁dyn	-3574
▁flo	-3575
▁lif	-3576
▁pen	-3577
▁sil	-3578
▁wel	-3579
going	-3580
ledge	-3581
▁file	-3582
▁husb	-3583
▁scen	-3584
gender	-3585
people	-3586
▁cause	-3587
▁costs	-3588
▁graph	-3589
▁hotel	-3590
▁intro	-3591
▁invol	-3592
▁lands	-3593
▁parts	-3594
▁talks	-3595
▁agenda	-3596
▁allies	-3597
▁couldn	-3598
▁encour	-3599
▁myself	-3600
▁opened	-3601
▁tinder	-3602
investig	-3603
▁leading	-3604
▁lebanon	-3605
▁manager	-3606
▁subject	-3607
▁towards	-3608
▁victims	-3609
▁concerns	-3610
▁manufact	-3611
▁networks	-3612
▁refugees	-3613
▁necessary	-3614
)"	-3615
22	-3616
▁`	-3617
ati	-3618
can	-3619
dec	-3620
pos	-3621
▁cy	-3622
ania	-3623
ares	-3624
ilit	-3625
post	-3626
pper	-3627
west	-3628
▁$1,	-3629
▁cra	-3630
▁joe	-3631
▁nav	-3632
▁roc	-3633
comes	-3634
state	-3635
uries	-3636
ville	-3637
▁bern	-3638
▁draw	-3639
▁lawy	-3640
▁mach	-3641
person	-3642
▁alone	-3643
▁brand	-3644
▁celeb	-3645
▁funds	-3646
▁haven	-3647
▁refer	-3648
aughter	-3649
▁answer	-3650
▁choose	-3651
▁issued	-3652
▁monday	-3653
▁unlike	-3654
▁commerc	-3655
▁confirm	-3656
▁driving	-3657
▁dropped	-3658
▁infrast	-3659
▁michael	-3660
▁patient	-3661
▁prevent	-3662
▁princip	-3663
▁quickly	-3664
▁talking	-3665
▁internet	-3666
▁launched	-3667
lastrefuge	-3668
▁described	-3669
▁sanctions	-3670
▁association	-3671
▁demonstrations	-3672
▁infrastructure	-3673
7,	-3674
dd	-3675
df	-3676
yl	-3677
zz	-3678
▁0	-3679
amb	-3680
aud	-3681
dom	-3682
had	-3683
lle	-3684
rep	-3685
▁""	-3686
▁35	-3687
▁pu	-3688
idel	-3689
orry	-3690
wise	-3691
▁(10	-3692
▁anc	-3693
▁lic	-3694
▁mov	-3695
▁ord	-3696
▁ron	-3697
ensus	-3698
using	-3699
white	-3700
▁fest	-3701
▁girl	-3702
▁lock	-3703
▁paul	-3704
ressed	-3705
▁2016,	-3706
▁autom	-3707
▁blood	-3708
▁champ	-3709
▁clash	-3710
▁frame	-3711
▁motor	-3712
▁parks	-3713
thereum	-3714
▁afford	-3715
▁mining	-3716
▁scient	-3717
▁brother	-3718
▁culture	-3719
▁destroy	-3720
▁perfect	-3721
▁planned	-3722
▁telling	-3723
stitution	-3724
▁cultural	-3725
▁ethereum	-3726
▁interact	-3727
▁khamenei	-3728
▁watching	-3729
▁whatever	-3730
▁candidate	-3731
▁coalition	-3732
▁communist	-3733
▁management	-3734
▁population	-3735
▁organizations	-3736
79	-3737
8.	-3738
▁+	-3739
cur	-3740
hol	-3741
ike	-3742
kes	-3743
pet	-3744
she	-3745
▁ms	-3746
iles	-3747
prof	-3748
ucks	-3749
uing	-3750
▁arm	-3751
▁ens	-3752
▁les	-3753
▁lou	-3754
▁map	-3755
▁rac	-3756
akers	-3757
istry	-3758
itely	-3759
order	-3760
▁""""	-3761
▁2009	-3762
▁cris	-3763
▁dang	-3764
▁exam	-3765
▁iota	-3766
▁prec	-3767
▁rise	-3768
▁sect	-3769
▁shar	-3770
▁sort	-3771
▁asher	-3772
▁basic	-3773
▁brain	-3774
▁piece	-3775
▁table	-3776
▁worst	-3777
ounding	-3778
▁active	-3779
▁comput	-3780
▁decade	-3781
▁figure	-3782
▁larger	-3783
▁looked	-3784
▁spread	-3785
▁square	-3786
ologists	-3787
▁achieve	-3788
▁changed	-3789
▁college	-3790
▁concept	-3791
▁conflic	-3792
▁mission	-3793
▁reading	-3794
▁station	-3795
▁willing	-3796
▁followed	-3797
▁protocol	-3798
▁committed	-3799
▁documents	-3800
▁suggested	-3801
▁caecilians	-3802
▁previously	-3803
▁performance	-3804
):	-3805
7-	-3806
83	-3807
nc	-3808
po	-3809
yt	-3810
▁à	-3811
▁و	-3812
bed	-3813
col	-3814
ito	-3815
mad	-3816
sia	-3817
tre	-3818
▁id	-3819
ador	-3820
oved	-3821
rial	-3822
▁atl	-3823
▁cat	-3824
▁cnn	-3825
▁dir	-3826
▁fly	-3827
▁ker	-3828
▁mas	-3829
▁nor	-3830
▁ram	-3831
▁shi	-3832
agram	-3833
death	-3834
eries	-3835
itory	-3836
▁cell	-3837
▁diss	-3838
▁hack	-3839
▁mart	-3840
▁none	-3841
▁riot	-3842
▁runs	-3843
▁save	-3844
▁sind	-3845
▁tenn	-3846
▁tens	-3847
▁wage	-3848
americ	-3849
ishing	-3850
uchsia	-3851
▁avoid	-3852
▁fatal	-3853
▁metal	-3854
▁miami	-3855
▁moved	-3856
▁multi	-3857
▁ready	-3858
▁shown	-3859
▁speed	-3860
▁telev	-3861
atively	-3862
▁advant	-3863
▁assist	-3864
▁concer	-3865
▁crypto	-3866
▁george	-3867
▁indeed	-3868
▁moving	-3869
▁sounds	-3870
▁assault	-3871
▁initial	-3872
▁liberal	-3873
▁meaning	-3874
▁opening	-3875
▁reality	-3876
▁sensory	-3877
▁incident	-3878
▁interior	-3879
▁practice	-3880
▁solution	-3881
▁vehicles	-3882
▁increased	-3883
▁permanent	-3884
▁spokesman	-3885
▁terrorist	-3886
▁transform	-3887
▁protection	-3888
▁regulations	-3889
▁opportunities	-3890
▁responsibility	-3891
6,	-3892
ya	-3893
ano	-3894
bro	-3895
equ	-3896
ope	-3897
pir	-3898
uct	-3899
xit	-3900
▁70	-3901
▁si	-3902
ione	-3903
onom	-3904
oper	-3905
rupt	-3906
unte	-3907
zens	-3908
▁abd	-3909
▁ask	-3910
▁etc	-3911
▁gar	-3912
▁jon	-3913
▁nur	-3914
▁pun	-3915
▁swe	-3916
▁tro	-3917
icial	-3918
polit	-3919
tered	-3920
▁adop	-3921
▁kept	-3922
▁phil	-3923
▁sket	-3924
▁snow	-3925
▁abuse	-3926
▁beaut	-3927
▁brown	-3928
▁domin	-3929
▁draft	-3930
▁firms	-3931
▁indic	-3932
▁liter	-3933
▁purch	-3934
▁raise	-3935
▁serve	-3936
▁touch	-3937
▁trial	-3938
▁allows	-3939
▁closed	-3940
▁denver	-3941
▁disapp	-3942
▁double	-3943
▁dozens	-3944
▁experi	-3945
▁labour	-3946
▁mexico	-3947
▁presid	-3948
▁strugg	-3949
▁toward	-3950
▁warned	-3951
ferences	-3952
▁accused	-3953
▁affairs	-3954
▁appoint	-3955
▁audible	-3956
▁browser	-3957
▁charges	-3958
▁comfort	-3959
▁greater	-3960
▁happens	-3961
▁newslet	-3962
▁parents	-3963
▁wearing	-3964
▁behavior	-3965
▁pictures	-3966
▁revealed	-3967
▁expensive	-3968
▁expressed	-3969
▁religious	-3970
▁activities	-3971
▁afghanistan	-3972
▁politicians	-3973
,'	-3974
46	-3975
ua	-3976
aks	-3977
don	-3978
kel	-3979
nam	-3980
oty	-3981
war	-3982
▁ak	-3983
▁ay	-3984
▁ze	-3985
dies	-3986
long	-3987
▁auf	-3988
▁bab	-3989
▁bed	-3990
▁din	-3991
▁ice	-3992
▁jun	-3993
▁usa	-3994
antis	-3995
enced	-3996
known	-3997
woman	-3998
▁alex	-3999
▁jeff	-4000
▁load	-4001
▁mist	-4002
▁pain	-4003
▁sess	-4004
▁ship	-4005
▁surr	-4006
▁uses	-4007
▁wife	-4008
▁corre	-4009
▁firef	-4010
▁girls	-4011
▁names	-4012
▁sites	-4013
▁withd	-4014
▁charge	-4015
▁claims	-4016
▁crimes	-4017
▁elimin	-4018
▁except	-4019
▁highly	-4020
▁option	-4021
▁ancient	-4022
▁fuchsia	-4023
▁shelter	-4024
▁tweeted	-4025
ification	-4026
▁football	-4027
▁restrict	-4028
▁separate	-4029
▁veterans	-4030
▁childhood	-4031
▁businesses	-4032
▁investment	-4033
▁allegations	-4034
▁individuals	-4035
▁transgender	-4036
▁cryptocurrency	-4037
-1	-4038
-5	-4039
tc	-4040
▁é	-4041
bnb	-4042
lla	-4043
str	-4044
▁ec	-4045
▁ga	-4046
▁ko	-4047
!"""	-4048
adop	-4049
inte	-4050
▁sho	-4051
▁sie	-4052
▁van	-4053
arent	-4054
ashes	-4055
burgh	-4056
deput	-4057
iling	-4058
oulos	-4059
place	-4060
range	-4061
▁amid	-4062
▁apps	-4063
▁bowl	-4064
▁coin	-4065
▁cuts	-4066
▁date	-4067
▁dism	-4068
▁doct	-4069
▁gone	-4070
▁lots	-4071
▁spur	-4072
▁whom	-4073
commun	-4074
▁chann	-4075
▁click	-4076
▁drugs	-4077
▁frequ	-4078
▁ideas	-4079
▁meals	-4080
▁spoke	-4081
▁sport	-4082
▁stock	-4083
▁weren	-4084
▁caught	-4085
▁circum	-4086
▁miners	-4087
▁raised	-4088
▁seeing	-4089
▁sketch	-4090
▁values	-4091
▁dollars	-4092
▁footage	-4093
▁highest	-4094
▁reached	-4095
▁vehicle	-4096
▁volunte	-4097
▁activity	-4098
▁breaking	-4099
▁desantis	-4100
▁entirely	-4101
▁northern	-4102
▁proposed	-4103
▁resident	-4104
▁software	-4105
▁interests	-4106
▁operation	-4107
▁positions	-4108
▁responded	-4109
▁commercial	-4110
▁generation	-4111
▁harassment	-4112
▁supporters	-4113
-0	-4114
/4	-4115
88	-4116
ki	-4117
500	-4118
aco	-4119
het	-4120
iat	-4121
pay	-4122
ris	-4123
ros	-4124
run	-4125
san	-4126
▁80	-4127
▁py	-4128
aeda	-4129
city	-4130
emen	-4131
gers	-4132
star	-4133
▁cia	-4134
▁esc	-4135
▁eye	-4136
▁sle	-4137
▁tun	-4138
dered	-4139
found	-4140
itude	-4141
olute	-4142
▁auto	-4143
▁fine	-4144
▁hate	-4145
▁trek	-4146
▁unit	-4147
idered	-4148
stream	-4149
▁2018,	-4150
▁agree	-4151
▁broke	-4152
▁carol	-4153
▁chant	-4154
▁fresh	-4155
▁knows	-4156
▁labor	-4157
▁limit	-4158
▁nicht	-4159
▁quant	-4160
▁sched	-4161
▁valid	-4162
actions	-4163
clusion	-4164
▁asking	-4165
▁deaths	-4166
▁resist	-4167
▁studio	-4168
▁convers	-4169
▁enterpr	-4170
▁experts	-4171
▁hillary	-4172
▁newspap	-4173
▁offense	-4174
▁putting	-4175
▁records	-4176
▁canadian	-4177
▁coverage	-4178
▁critical	-4179
▁direction	-4180
▁locations	-4181
▁providing	-4182
▁interviews	-4183
▁presidency	-4184
▁increasingly	-4185
▁environmental	-4186
49	-4187
89	-4188
bit	-4189
bon	-4190
ini	-4191
who	-4192
▁32	-4193
▁45	-4194
▁bi	-4195
▁ta	-4196
ales	-4197
enue	-4198
isko	-4199
omen	-4200
week	-4201
wood	-4202
▁aid	-4203
▁bes	-4204
▁boy	-4205
▁cru	-4206
▁mig	-4207
▁vac	-4208
▁wat	-4209
ables	-4210
aches	-4211
▁doub	-4212
▁fort	-4213
▁hear	-4214
▁iron	-4215
▁mine	-4216
▁rain	-4217
▁rick	-4218
▁rock	-4219
▁semi	-4220
▁song	-4221
▁term	-4222
istics	-4223
usalem	-4224
▁2016.	-4225
▁cheap	-4226
▁crack	-4227
▁fully	-4228
▁lobby	-4229
▁owned	-4230
▁pitch	-4231
▁recre	-4232
▁tough	-4233
▁write	-4234
▁bigger	-4235
▁brexit	-4236
▁caused	-4237
▁mobile	-4238
▁models	-4239
▁promot	-4240
▁prompt	-4241
▁seemed	-4242
▁wonder	-4243
▁becomes	-4244
▁inspect	-4245
▁markets	-4246
▁papadop	-4247
▁primary	-4248
▁receive	-4249
▁showing	-4250
▁allowing	-4251
▁european	-4252
▁positive	-4253
▁prospect	-4254
▁standing	-4255
▁apartment	-4256
▁fundament	-4257
▁jerusalem	-4258
▁regarding	-4259
▁additional	-4260
▁commitment	-4261
▁completely	-4262
▁considered	-4263
▁opposition	-4264
▁ultimately	-4265
',	-4266
1%	-4267
▁{	-4268
-17	-4269
800	-4270
dem	-4271
fir	-4272
gor	-4273
hal	-4274
▁);	-4275
▁bh	-4276
▁eu	-4277
ancy	-4278
iful	-4279
oked	-4280
ores	-4281
rich	-4282
ship	-4283
supp	-4284
vere	-4285
▁aus	-4286
▁bra	-4287
▁dan	-4288
▁fis	-4289
▁fit	-4290
▁rie	-4291
▁wed	-4292
abled	-4293
athan	-4294
onson	-4295
▁asse	-4296
▁exce	-4297
▁fill	-4298
▁hasn	-4299
▁lose	-4300
▁mary	-4301
▁susp	-4302
▁tour	-4303
▁walk	-4304
▁wars	-4305
icient	-4306
onents	-4307
▁basis	-4308
▁boris	-4309
▁dynam	-4310
▁false	-4311
▁heavy	-4312
▁homel	-4313
▁magaz	-4314
▁mayor	-4315
▁memor	-4316
▁occas	-4317
▁qaeda	-4318
ossible	-4319
▁island	-4320
▁motion	-4321
▁nature	-4322
▁offers	-4323
▁planet	-4324
▁powers	-4325
▁reject	-4326
▁rocket	-4327
▁stepup	-4328
▁unless	-4329
▁videos	-4330
▁appropr	-4331
▁charged	-4332
▁conclud	-4333
▁disturb	-4334
▁husband	-4335
▁learned	-4336
▁missing	-4337
▁apparent	-4338
▁existing	-4339
▁identity	-4340
▁pressure	-4341
▁projects	-4342
▁standard	-4343
▁adventure	-4344
▁champions	-4345
▁transport	-4346
▁successful	-4347
▁investigate	-4348
▁traditional	-4349
▁decentralized	-4350
rs	-4351
ás	-4352
agn	-4353
ali	-4354
bec	-4355
ipl	-4356
ora	-4357
ray	-4358
sex	-4359
tra	-4360
ura	-4361
vin	-4362
vis	-4363
▁34	-4364
▁38	-4365
▁4.	-4366
▁5.	-4367
▁ai	-4368
▁cu	-4369
▁vo	-4370
adem	-4371
ando	-4372
aped	-4373
aron	-4374
enty	-4375
iced	-4376
know	-4377
lets	-4378
ocks	-4379
▁nfl	-4380
▁ris	-4381
▁sam	-4382
▁vul	-4383
arian	-4384
daily	-4385
icago	-4386
ottom	-4387
press	-4388
shoot	-4389
▁2020	-4390
▁bomb	-4391
▁cart	-4392
▁core	-4393
▁mike	-4394
▁mode	-4395
▁nick	-4396
▁pool	-4397
▁purs	-4398
▁reop	-4399
▁roll	-4400
▁sell	-4401
▁wait	-4402
▁wave	-4403
▁wood	-4404
employ	-4405
ribute	-4406
▁assum	-4407
▁books	-4408
▁escal	-4409
▁insur	-4410
▁jones	-4411
▁older	-4412
▁paint	-4413
▁riehl	-4414
▁sales	-4415
▁spend	-4416
▁steps	-4417
▁votes	-4418
▁waves	-4419
ributed	-4420
▁academ	-4421
▁actual	-4422
▁belief	-4423
▁indian	-4424
▁judges	-4425
▁mostly	-4426
▁muslim	-4427
▁propos	-4428
▁pushed	-4429
▁appears	-4430
▁imagine	-4431
▁nations	-4432
▁partner	-4433
▁weekend	-4434
▁wounded	-4435
▁historic	-4436
▁injuries	-4437
▁mountain	-4438
▁promised	-4439
▁speakers	-4440
▁supposed	-4441
▁transfer	-4442
▁celebrate	-4443
▁offensive	-4444
▁ownership	-4445
▁protected	-4446
▁reporters	-4447
▁therefore	-4448
▁specifically	-4449
47	-4450
fa	-4451
ga	-4452
ko	-4453
sw	-4454
wr	-4455
▁ت	-4456
ari	-4457
eff	-4458
ili	-4459
sec	-4460
sen	-4461
▁1:	-4462
▁2,	-4463
▁ii	-4464
▁lg	-4465
▁xi	-4466
"")"	-4467
agon	-4468
auld	-4469
cher	-4470
ding	-4471
iger	-4472
irts	-4473
pose	-4474
prot	-4475
rist	-4476
▁(20	-4477
▁cro	-4478
▁dog	-4479
▁ign	-4480
▁pix	-4481
antly	-4482
eline	-4483
orter	-4484
rench	-4485
▁appl	-4486
▁arms	-4487
▁asia	-4488
▁feed	-4489
▁grad	-4490
▁guar	-4491
▁impl	-4492
▁onto	-4493
▁resc	-4494
▁sich	-4495
▁skin	-4496
▁soph	-4497
▁stor	-4498
ivered	-4499
ocracy	-4500
▁cabin	-4501
▁movie	-4502
▁occur	-4503
▁roads	-4504
▁shout	-4505
▁steel	-4506
▁strip	-4507
▁texas	-4508
▁turns	-4509
atollah	-4510
content	-4511
respond	-4512
▁chrome	-4513
▁compil	-4514
▁easier	-4515
▁father	-4516
▁joined	-4517
▁lowest	-4518
▁merkel	-4519
▁placed	-4520
▁prohib	-4521
▁stress	-4522
▁tokens	-4523
▁voting	-4524
/2017/12	-4525
cription	-4526
election	-4527
▁amazing	-4528
▁analyst	-4529
▁animals	-4530
▁contain	-4531
▁england	-4532
▁helping	-4533
▁houston	-4534
▁illegal	-4535
▁install	-4536
▁johnson	-4537
▁offered	-4538
▁ongoing	-4539
▁regular	-4540
▁seconds	-4541
▁strateg	-4542
▁virtual	-4543
▁absolute	-4544
▁familiar	-4545
▁magazine	-4546
▁products	-4547
▁requires	-4548
▁soldiers	-4549
▁civilians	-4550
▁copyright	-4551
▁elections	-4552
▁establish	-4553
▁evolution	-4554
▁knowledge	-4555
▁obviously	-4556
▁otherwise	-4557
▁supported	-4558
▁definitely	-4559
▁discovered	-4560
▁mainstream	-4561
▁percentage	-4562
▁universities	-4563
mi	-4564
afp	-4565
awa	-4566
bal	-4567
ben	-4568
ext	-4569
ido	-4570
ita	-4571
lar	-4572
law	-4573
leg	-4574
lev	-4575
non	-4576
ulf	-4577
umn	-4578
▁33	-4579
▁iv	-4580
▁ry	-4581
alle	-4582
ario	-4583
clus	-4584
dine	-4585
hips	-4586
iban	-4587
inst	-4588
iver	-4589
▁10,	-4590
▁fol	-4591
▁haw	-4592
▁max	-4593
▁nex	-4594
▁rus	-4595
▁von	-4596
▁wis	-4597
astic	-4598
gency	-4599
ijing	-4600
ograp	-4601
point	-4602
watch	-4603
▁auch	-4604
▁como	-4605
▁disp	-4606
▁dram	-4607
▁gets	-4608
▁mall	-4609
▁merc	-4610
▁mull	-4611
▁ohio	-4612
▁rout	-4613
▁seek	-4614
▁tear	-4615
ayette	-4616
dering	-4617
israel	-4618
itable	-4619
ounder	-4620
rative	-4621
▁atten	-4622
▁clock	-4623
▁exhib	-4624
▁forms	-4625
▁frank	-4626
▁korea	-4627
▁metro	-4628
▁notes	-4629
▁optim	-4630
▁royal	-4631
▁sisko	-4632
▁solid	-4633
▁title	-4634
▁worse	-4635
ieddine	-4636
related	-4637
ressive	-4638
▁acting	-4639
▁arabia	-4640
▁defend	-4641
▁depend	-4642
▁device	-4643
▁embass	-4644
▁missed	-4645
▁museum	-4646
▁nearby	-4647
▁negoti	-4648
▁nomine	-4649
▁origin	-4650
▁served	-4651
▁tempor	-4652
▁unique	-4653
iversary	-4654
ribution	-4655
▁arrived	-4656
▁benefit	-4657
▁britain	-4658
▁complic	-4659
▁eastern	-4660
▁housing	-4661
▁opposed	-4662
▁organis	-4663
▁payment	-4664
▁replace	-4665
▁carolina	-4666
▁changing	-4667
▁conflict	-4668
▁greatest	-4669
▁observed	-4670
▁withdraw	-4671
▁advantage	-4672
▁authority	-4673
▁decisions	-4674
▁extremely	-4675
▁terrorism	-4676
▁consistent	-4677
▁industrial	-4678
▁innovation	-4679
▁newsletter	-4680
▁photograph	-4681
▁properties	-4682
▁supporting	-4683
▁transition	-4684
▁anniversary	-4685
▁attenuation	-4686
▁celebration	-4687
▁potentially	-4688
▁papadopoulos	-4689
%)	-4690
66	-4691
78	-4692
ca	-4693
mp	-4694
tz	-4695
ér	-4696
bel	-4697
hum	-4698
ici	-4699
lig	-4700
oon	-4701
ups	-4702
▁3,	-4703
▁44	-4704
▁tx	-4705
▁zu	-4706
anch	-4707
care	-4708
inct	-4709
ipts	-4710
look	-4711
nell	-4712
olly	-4713
onto	-4714
onym	-4715
pict	-4716
size	-4717
wers	-4718
when	-4719
▁$10	-4720
▁dut	-4721
▁fox	-4722
▁fro	-4723
▁gon	-4724
▁jul	-4725
▁ken	-4726
▁pod	-4727
▁rap	-4728
▁ton	-4729
▁unc	-4730
▁une	-4731
▁vig	-4732
aints	-4733
aling	-4734
cover	-4735
cribe	-4736
echan	-4737
ouble	-4738
▁2011	-4739
▁2014	-4740
▁clar	-4741
▁cool	-4742
▁hell	-4743
▁slog	-4744
▁word	-4745
ifying	-4746
ueller	-4747
▁egypt	-4748
▁extra	-4749
▁faces	-4750
▁gathe	-4751
▁leads	-4752
▁prepa	-4753
▁shape	-4754
▁shift	-4755
▁shock	-4756
▁signs	-4757
▁smoke	-4758
▁traum	-4759
liament	-4760
▁assemb	-4761
▁crisis	-4762
▁debate	-4763
▁ensure	-4764
▁fellow	-4765
▁guests	-4766
▁incred	-4767
▁memory	-4768
▁mental	-4769
▁photos	-4770
▁recomm	-4771
▁reduce	-4772
▁rising	-4773
▁screen	-4774
▁volume	-4775
▁wheels	-4776
▁beijing	-4777
▁burning	-4778
▁clearly	-4779
▁demands	-4780
▁killing	-4781
▁lawsuit	-4782
▁overall	-4783
▁pattern	-4784
▁prototy	-4785
▁reflect	-4786
▁targets	-4787
▁traffic	-4788
▁argument	-4789
▁declined	-4790
▁download	-4791
▁fighting	-4792
▁gathered	-4793
▁japanese	-4794
▁jonathan	-4795
▁numerous	-4796
▁provides	-4797
▁remained	-4798
▁sessions	-4799
▁straight	-4800
▁animation	-4801
▁australia	-4802
▁concerned	-4803
▁effective	-4804
▁entertain	-4805
▁initially	-4806
▁operating	-4807
▁organized	-4808
▁typically	-4809
▁venezuela	-4810
▁identified	-4811
▁immigrants	-4812
▁safieddine	-4813
▁governments	-4814
68	-4815
gg	-4816
▁=	-4817
▁}	-4818
-18	-4819
aza	-4820
bar	-4821
gas	-4822
gue	-4823
hom	-4824
kin	-4825
odo	-4826
omo	-4827
▁añ	-4828
▁ky	-4829
▁mu	-4830
agan	-4831
apse	-4832
berg	-4833
hand	-4834
mers	-4835
vide	-4836
▁$2.	-4837
▁bol	-4838
▁gay	-4839
▁hun	-4840
▁ist	-4841
▁nov	-4842
▁rug	-4843
▁sat	-4844
backs	-4845
ipped	-4846
ivity	-4847
light	-4848
liver	-4849
onent	-4850
party	-4851
rance	-4852
▁dark	-4853
▁elig	-4854
▁fees	-4855
▁hong	-4856
▁hurt	-4857
▁ring	-4858
▁sale	-4859
▁thus	-4860
▁2009,	-4861
▁banks	-4862
▁birth	-4863
▁davis	-4864
▁drink	-4865
▁estim	-4866
▁explo	-4867
▁glass	-4868
▁grown	-4869
▁initi	-4870
▁nexus	-4871
▁pence	-4872
▁peter	-4873
▁proud	-4874
▁quiet	-4875
▁reduc	-4876
▁remov	-4877
▁sharp	-4878
▁truth	-4879
issions	-4880
ologies	-4881
▁acknow	-4882
▁census	-4883
▁facing	-4884
▁fourth	-4885
▁mechan	-4886
▁normal	-4887
▁prefer	-4888
▁retail	-4889
▁retire	-4890
▁robert	-4891
▁select	-4892
▁window	-4893
breaking	-4894
▁balance	-4895
▁caption	-4896
▁deliver	-4897
▁english	-4898
▁entered	-4899
▁focused	-4900
▁hearing	-4901
▁library	-4902
▁opinion	-4903
▁screens	-4904
▁seattle	-4905
▁toronto	-4906
▁walking	-4907
▁wepower	-4908
▁believes	-4909
▁chairman	-4910
▁identify	-4911
▁possibly	-4912
▁produced	-4913
▁spurlock	-4914
▁buildings	-4915
▁essential	-4916
▁francisco	-4917
▁standards	-4918
▁candidates	-4919
▁discussion	-4920
▁enterprise	-4921
▁parliament	-4922
▁represents	-4923
▁volunteers	-4924
▁legislation	-4925
▁participate	-4926
▁firefighters	-4927
▁professional	-4928
1)	-4929
55	-4930
92	-4931
dc	-4932
lv	-4933
ات	-4934
adh	-4935
aur	-4936
ela	-4937
htt	-4938
ipe	-4939
now	-4940
oen	-4941
oms	-4942
osh	-4943
sch	-4944
tic	-4945
ula	-4946
▁37	-4947
▁46	-4948
▁48	-4949
▁49	-4950
▁lu	-4951
abil	-4952
abor	-4953
aded	-4954
aker	-4955
aley	-4956
ayer	-4957
cing	-4958
coll	-4959
hist	-4960
mann	-4961
otic	-4962
otus	-4963
page	-4964
reek	-4965
royo	-4966
▁alt	-4967
▁bid	-4968
▁dar	-4969
▁fan	-4970
▁ing	-4971
▁lit	-4972
▁reb	-4973
etter	-4974
graph	-4975
iplom	-4976
lines	-4977
peror	-4978
rated	-4979
ulate	-4980
▁edge	-4981
▁eyes	-4982
▁fash	-4983
▁guns	-4984
▁hind	-4985
▁hour	-4986
▁infl	-4987
▁kent	-4988
▁kong	-4989
▁mand	-4990
▁outr	-4991
▁sust	-4992
▁tact	-4993
▁tamp	-4994
▁vast	-4995
called	-4996
illing	-4997
terror	-4998
ulture	-4999
▁anger	-5000
▁beach	-5001
▁doubt	-5002
▁earth	-5003
▁error	-5004
▁filed	-5005
▁owner	-5006
▁paris	-5007
▁popul	-5008
▁river	-5009
▁subst	-5010
▁teach	-5011
▁treas	-5012
▁urban	-5013
▁wages	-5014
▁wings	-5015
aulding	-5016
derness	-5017
iveness	-5018
tsburgh	-5019
▁apprec	-5020
▁archae	-5021
▁assess	-5022
▁barack	-5023
▁bottom	-5024
▁damage	-5025
▁diplom	-5026
▁handle	-5027
▁oliver	-5028
▁remove	-5029
▁transl	-5030
▁vulner	-5031
/2017-12	-5032
▁consult	-5033
▁jackson	-5034
▁mueller	-5035
▁promise	-5036
▁removed	-5037
▁sitting	-5038
▁succeed	-5039
▁taliban	-5040
▁trading	-5041
▁audience	-5042
▁computer	-5043
▁instruct	-5044
▁patients	-5045
▁unemploy	-5046
▁williams	-5047
▁ayatollah	-5048
▁criticism	-5049
▁elsewhere	-5050
▁investors	-5051
▁literally	-5052
▁spaulding	-5053
▁suffering	-5054
▁conclusion	-5055
▁controvers	-5056
▁difference	-5057
▁interested	-5058
▁television	-5059
▁appalachian	-5060
-3	-5061
3%	-5062
38	-5063
4/	-5064
42	-5065
ef	-5066
ان	-5067
▁;	-5068
██	-5069
100	-5070
bbc	-5071
cel	-5072
ité	-5073
owa	-5074
ria	-5075
▁$4	-5076
▁36	-5077
▁6.	-5078
▁jr	-5079
/186	-5080
bart	-5081
dict	-5082
eron	-5083
happ	-5084
igen	-5085
ikes	-5086
oric	-5087
reng	-5088
stat	-5089
tery	-5090
them	-5091
tree	-5092
uous	-5093
▁$3,	-5094
▁28,	-5095
▁bag	-5096
▁coc	-5097
▁kid	-5098
▁kim	-5099
▁mix	-5100
▁mut	-5101
▁tru	-5102
about	-5103
agues	-5104
enter	-5105
force	-5106
iants	-5107
ifest	-5108
iques	-5109
itors	-5110
level	-5111
nings	-5112
riage	-5113
verty	-5114
▁born	-5115
▁chem	-5116
▁embr	-5117
▁enem	-5118
▁gard	-5119
▁isol	-5120
▁jose	-5121
▁kick	-5122
▁lgbt	-5123
▁mere	-5124
▁plug	-5125
▁rust	-5126
▁trig	-5127
gorith	-5128
isters	-5129
▁aware	-5130
▁crash	-5131
▁flood	-5132
▁holds	-5133
▁homes	-5134
▁ivory	-5135
▁laden	-5136
▁legit	-5137
▁lines	-5138
▁louis	-5139
▁noted	-5140
▁panel	-5141
▁range	-5142
▁rough	-5143
▁score	-5144
▁shots	-5145
▁smith	-5146
▁tools	-5147
▁trend	-5148
cluding	-5149
country	-5150
rencies	-5151
▁arroyo	-5152
▁assets	-5153
▁berlin	-5154
▁courts	-5155
▁easily	-5156
▁establ	-5157
▁expans	-5158
▁famous	-5159
▁franch	-5160
▁proced	-5161
▁stores	-5162
▁syrian	-5163
▁visual	-5164
▁weekly	-5165
idelines	-5166
▁autonom	-5167
▁bronson	-5168
▁cabinet	-5169
▁chicago	-5170
▁consequ	-5171
▁critics	-5172
▁elected	-5173
▁excited	-5174
▁liberty	-5175
▁poverty	-5176
▁sources	-5177
▁stopped	-5178
▁transpa	-5179
▁updated	-5180
▁warning	-5181
imination	-5182
▁affected	-5183
▁algorith	-5184
▁becoming	-5185
▁bringing	-5186
▁currency	-5187
▁lebanese	-5188
▁presence	-5189
▁requests	-5190
▁dangerous	-5191
▁deduction	-5192
▁generated	-5193
▁newspaper	-5194
▁personnel	-5195
▁receiving	-5196
▁impossible	-5197
▁surprising	-5198
▁alternative	-5199
▁applications	-5200
▁construction	-5201
▁successfully	-5202
2%	-5203
4%	-5204
dp	-5205
hs	-5206
ja	-5207
tv	-5208
xy	-5209
ym	-5210
▁ف	-5211
ais	-5212
aze	-5213
box	-5214
gar	-5215
got	-5216
gre	-5217
hot	-5218
ige	-5219
iro	-5220
owe	-5221
rid	-5222
rol	-5223
why	-5224
▁7.	-5225
▁``	-5226
▁cp	-5227
aven	-5228
from	-5229
high	-5230
igan	-5231
mine	-5232
noon	-5233
onic	-5234
some	-5235
thon	-5236
▁15.	-5237
▁26,	-5238
▁```	-5239
▁boo	-5240
▁bug	-5241
▁fif	-5242
▁für	-5243
▁gab	-5244
▁god	-5245
▁jug	-5246
▁obt	-5247
▁pin	-5248
▁pra	-5249
▁seg	-5250
▁tie	-5251
▁ukr	-5252
▁wer	-5253
first	-5254
front	-5255
icted	-5256
igned	-5257
lying	-5258
stone	-5259
▁2013	-5260
▁acqu	-5261
▁anth	-5262
▁bear	-5263
▁bran	-5264
▁bull	-5265
▁cler	-5266
▁jess	-5267
▁liqu	-5268
▁mitt	-5269
▁nach	-5270
▁penn	-5271
▁rand	-5272
▁sees	-5273
▁situ	-5274
▁stan	-5275
▁swed	-5276
ossier	-5277
▁aband	-5278
▁armed	-5279
▁braco	-5280
▁brady	-5281
▁fewer	-5282
▁joint	-5283
▁micro	-5284
▁miles	-5285
▁paths	-5286
▁radio	-5287
▁rugby	-5288
▁seats	-5289
▁sorry	-5290
▁stick	-5291
▁storm	-5292
▁style	-5293
▁trail	-5294
▁voted	-5295
▁yards	-5296
▁yemen	-5297
▁adults	-5298
▁belong	-5299
▁bernie	-5300
▁carbon	-5301
▁closer	-5302
▁column	-5303
▁compar	-5304
▁condem	-5305
▁deploy	-5306
▁excell	-5307
▁france	-5308
▁french	-5309
▁graham	-5310
▁intent	-5311
▁notice	-5312
▁parade	-5313
▁pulled	-5314
▁survey	-5315
▁tennis	-5316
▁throws	-5317
▁writes	-5318
atically	-5319
▁dismiss	-5320
▁embassy	-5321
▁fashion	-5322
▁jessica	-5323
▁kingdom	-5324
▁obvious	-5325
▁paralle	-5326
▁parties	-5327
▁raiders	-5328
▁refugee	-5329
▁removal	-5330
▁restaur	-5331
▁richard	-5332
▁signing	-5333
▁variety	-5334
▁waiting	-5335
▁william	-5336
▁younger	-5337
▁accounts	-5338
▁determin	-5339
▁favorite	-5340
▁improved	-5341
▁judicial	-5342
▁meetings	-5343
▁reaction	-5344
▁suffered	-5345
▁telegram	-5346
▁terrible	-5347
▁unfortun	-5348
▁customers	-5349
▁delivered	-5350
▁explained	-5351
▁institute	-5352
▁mentioned	-5353
▁employment	-5354
▁federation	-5355
▁pittsburgh	-5356
▁regulatory	-5357
▁repeatedly	-5358
▁wilderness	-5359
▁competition	-5360
▁surrounding	-5361
▁unemployment	-5362
▁investigators	-5363
'.	-5364
44	-5365
57	-5366
98	-5367
:"	-5368
lg	-5369
rl	-5370
vp	-5371
ما	-5372
▁>	-5373
▁£	-5374
ata	-5375
cam	-5376
cor	-5377
iem	-5378
oto	-5379
phe	-5380
▁5,	-5381
▁ba	-5382
▁pt	-5383
▁ts	-5384
ados	-5385
blog	-5386
char	-5387
cour	-5388
font	-5389
game	-5390
irut	-5391
kins	-5392
onis	-5393
oyal	-5394
ping	-5395
ples	-5396
remy	-5397
rene	-5398
resa	-5399
rish	-5400
whel	-5401
▁als	-5402
▁ark	-5403
▁aur	-5404
▁dur	-5405
▁jed	-5406
▁kir	-5407
▁mah	-5408
▁mir	-5409
▁ost	-5410
▁pil	-5411
▁ske	-5412
▁spl	-5413
▁syn	-5414
-1712	-5415
ación	-5416
ansas	-5417
guard	-5418
oenix	-5419
▁barr	-5420
▁buff	-5421
▁cert	-5422
▁chec	-5423
▁chev	-5424
▁deny	-5425
▁dise	-5426
▁eine	-5427
▁emot	-5428
▁enth	-5429
▁eric	-5430
▁feet	-5431
▁gate	-5432
▁harv	-5433
▁isis	-5434
▁lord	-5435
▁loud	-5436
▁reli	-5437
▁rose	-5438
▁symb	-5439
▁tack	-5440
▁warm	-5441
▁zero	-5442
itbart	-5443
ternal	-5444
▁0.01%	-5445
▁capac	-5446
▁chain	-5447
▁expos	-5448
▁genre	-5449
▁gonna	-5450
▁heads	-5451
▁items	-5452
▁loved	-5453
▁mouth	-5454
▁penal	-5455
▁proof	-5456
▁recru	-5457
▁renew	-5458
▁robot	-5459
▁round	-5460
▁tight	-5461
▁truly	-5462
fayette	-5463
▁agreed	-5464
▁andrew	-5465
▁argued	-5466
▁attend	-5467
▁beirut	-5468
▁dreams	-5469
▁emails	-5470
▁engage	-5471
▁recall	-5472
▁skills	-5473
▁subsid	-5474
▁tracks	-5475
▁vision	-5476
▁weight	-5477
▁winter	-5478
▁abandon	-5479
▁correct	-5480
▁covered	-5481
▁deficit	-5482
▁finance	-5483
▁holding	-5484
▁largely	-5485
▁parrish	-5486
▁pointed	-5487
▁possess	-5488
▁produce	-5489
▁slogans	-5490
▁visible	-5491
▁winning	-5492
▁anywhere	-5493
▁appeared	-5494
▁chanting	-5495
▁creative	-5496
▁declared	-5497
▁eligible	-5498
▁finished	-5499
▁ministry	-5500
▁prepared	-5501
▁recorded	-5502
▁shopping	-5503
▁treasury	-5504
▁christian	-5505
▁conducted	-5506
▁developed	-5507
▁instagram	-5508
▁sensitive	-5509
▁structure	-5510
▁challenges	-5511
▁confidence	-5512
▁comfortable	-5513
▁manufacture	-5514
▁independence	-5515
▁investigations	-5516
48	-5517
5%	-5518
5.	-5519
62	-5520
63	-5521
?'	-5522
eb	-5523
je	-5524
md	-5525
rc	-5526
tg	-5527
ου	-5528
▁τ	-5529
096	-5530
ads	-5531
ibh	-5532
iev	-5533
irt	-5534
itz	-5535
mus	-5536
ole	-5537
ule	-5538
▁$2	-5539
▁$6	-5540
▁39	-5541
▁6,	-5542
▁90	-5543
----	-5544
arts	-5545
away	-5546
case	-5547
cond	-5548
fund	-5549
inks	-5550
lete	-5551
onze	-5552
pass	-5553
ruck	-5554
stad	-5555
uitt	-5556
viol	-5557
▁$2,	-5558
▁22,	-5559
▁awa	-5560
▁bod	-5561
▁ceo	-5562
▁dun	-5563
▁hag	-5564
▁lee	-5565
▁neo	-5566
▁pac	-5567
▁row	-5568
▁sac	-5569
▁wie	-5570
ading	-5571
build	-5572
ested	-5573
fight	-5574
final	-5575
orted	-5576
smith	-5577
urban	-5578
▁bars	-5579
▁brut	-5580
▁chap	-5581
▁clim	-5582
▁dall	-5583
▁debt	-5584
▁fant	-5585
▁flat	-5586
▁harm	-5587
▁heat	-5588
▁hero	-5589
▁inev	-5590
▁moon	-5591
▁porn	-5592
▁reds	-5593
▁root	-5594
▁rush	-5595
▁ryan	-5596
▁scot	-5597
▁ther	-5598
▁unus	-5599
▁wein	-5600
nesday	-5601
orhood	-5602
▁amway	-5603
▁coast	-5604
▁diagn	-5605
▁discl	-5606
▁exerc	-5607
▁files	-5608
▁loyal	-5609
▁motiv	-5610
▁plays	-5611
▁ranch	-5612
▁rapid	-5613
▁ratio	-5614
▁steve	-5615
▁units	-5616
▁vigil	-5617
ecution	-5618
▁advice	-5619
▁authen	-5620
▁casper	-5621
▁colomb	-5622
▁desire	-5623
▁explor	-5624
▁hassan	-5625
▁hiring	-5626
▁jeremy	-5627
▁jersey	-5628
▁licens	-5629
▁martin	-5630
▁minute	-5631
▁plenty	-5632
▁pruitt	-5633
▁publis	-5634
▁ronald	-5635
▁signal	-5636
▁starts	-5637
▁theory	-5638
▁assange	-5639
▁beating	-5640
▁dossier	-5641
▁explain	-5642
▁extract	-5643
▁failure	-5644
▁feeling	-5645
▁finding	-5646
▁granted	-5647
▁heavily	-5648
▁manning	-5649
▁measure	-5650
▁purpose	-5651
▁readers	-5652
▁weather	-5653
▁welcome	-5654
▁accident	-5655
▁approval	-5656
▁attended	-5657
▁claiming	-5658
▁lobbying	-5659
▁managers	-5660
▁manifest	-5661
▁messages	-5662
▁politico	-5663
▁priority	-5664
▁returned	-5665
discovered	-5666
▁advocates	-5667
▁beautiful	-5668
▁concluded	-5669
▁destroyed	-5670
▁fireworks	-5671
▁lafayette	-5672
▁messaging	-5673
▁workforce	-5674
▁absolutely	-5675
▁colleagues	-5676
▁correspond	-5677
▁presidente	-5678
▁simulation	-5679
▁situations	-5680
▁differences	-5681
▁corporations	-5682
▁negotiations	-5683
▁revolutionary	-5684
7%	-5685
9/	-5686
cy	-5687
gm	-5688
kl	-5689
że	-5690
ها	-5691
▁ي	-5692
00%	-5693
cho	-5694
cut	-5695
def	-5696
hem	-5697
sub	-5698
▁(5	-5699
▁))	-5700
▁43	-5701
▁ah	-5702
▁dc	-5703
▁gh	-5704
▁pc	-5705
▁vr	-5706
▁ye	-5707
ader	-5708
anti	-5709
aste	-5710
cial	-5711
emet	-5712
foot	-5713
geon	-5714
iors	-5715
isan	-5716
mary	-5717
ogue	-5718
owed	-5719
raft	-5720
ront	-5721
tube	-5722
▁$1.	-5723
▁fue	-5724
▁hay	-5725
▁jav	-5726
▁mvp	-5727
▁nas	-5728
▁nbc	-5729
▁ped	-5730
▁rid	-5731
▁rif	-5732
▁sav	-5733
▁spd	-5734
▁sud	-5735
▁uma	-5736
acted	-5737
agger	-5738
color	-5739
egypt	-5740
ether	-5741
heast	-5742
inent	-5743
media	-5744
ordan	-5745
ovich	-5746
traff	-5747
▁alph	-5748
▁blow	-5749
▁crab	-5750
▁defe	-5751
▁fake	-5752
▁gall	-5753
▁grew	-5754
▁hang	-5755
▁hend	-5756
▁hits	-5757
▁inqu	-5758
▁intr	-5759
▁lapt	-5760
▁musk	-5761
▁myth	-5762
▁opio	-5763
▁pled	-5764
▁qual	-5765
▁ross	-5766
▁sams	-5767
▁unex	-5768
christ	-5769
cision	-5770
ighter	-5771
pected	-5772
sonian	-5773
terior	-5774
▁actor	-5775
▁agent	-5776
▁apply	-5777
▁boost	-5778
▁clean	-5779
▁delay	-5780
▁equip	-5781
▁floor	-5782
▁gives	-5783
▁guess	-5784
▁honor	-5785
▁judge	-5786
▁kevin	-5787
▁print	-5788
▁raibh	-5789
▁recip	-5790
▁tampa	-5791
▁train	-5792
sheriff	-5793
▁angela	-5794
▁crowds	-5795
▁divers	-5796
▁extrad	-5797
▁fallen	-5798
▁flames	-5799
▁flotus	-5800
▁forget	-5801
▁injury	-5802
▁lights	-5803
▁listen	-5804
▁montre	-5805
▁murder	-5806
▁polize	-5807
▁reagan	-5808
▁rescue	-5809
▁stable	-5810
▁stands	-5811
▁temple	-5812
▁termin	-5813
▁worker	-5814
national	-5815
▁african	-5816
▁angeles	-5817
▁artists	-5818
▁broader	-5819
▁classes	-5820
▁clients	-5821
▁closely	-5822
▁cocaine	-5823
▁context	-5824
▁coordin	-5825
▁effects	-5826
▁guarant	-5827
▁lawyers	-5828
▁machine	-5829
▁melania	-5830
▁offices	-5831
▁outlets	-5832
▁profile	-5833
▁serving	-5834
▁shouldn	-5835
▁updates	-5836
▁veteran	-5837
▁windows	-5838
abilities	-5839
▁admitted	-5840
▁assembly	-5841
▁attempts	-5842
▁capacity	-5843
▁collapse	-5844
▁crabtree	-5845
▁daughter	-5846
▁festival	-5847
▁instance	-5848
▁measures	-5849
▁midnight	-5850
▁nominees	-5851
▁surprise	-5852
▁thoughts	-5853
▁trillion	-5854
▁unlikely	-5855
▁yourself	-5856
▁accepting	-5857
▁afternoon	-5858
▁allegedly	-5859
▁mountaint	-5860
▁treatment	-5861
▁wednesday	-5862
▁witnesses	-5863
▁classified	-5864
▁developers	-5865
▁executives	-5866
▁importance	-5867
▁journalist	-5868
▁relatively	-5869
▁appropriate	-5870
▁combination	-5871
▁connections	-5872
▁departments	-5873
▁established	-5874
▁necessarily	-5875
▁preferences	-5876
▁responsible	-5877
▁spokeswoman	-5878
▁underground	-5879
investigating	-5880
thelastrefuge	-5881
▁architecture	-5882
▁celebrations	-5883
▁significantly	-5884
▁unfortunately	-5885
▁constitutional	-5886
()	-5887
4)	-5888
5,	-5889
8%	-5890
cn	-5891
fb	-5892
fc	-5893
ía	-5894
ون	-5895
00-	-5896
acc	-5897
azi	-5898
die	-5899
far	-5900
has	-5901
isf	-5902
sur	-5903
tch	-5904
tim	-5905
uer	-5906
▁8,	-5907
▁9,	-5908
▁ow	-5909
▁pm	-5910
acks	-5911
adas	-5912
anda	-5913
apes	-5914
flow	-5915
gien	-5916
ials	-5917
iert	-5918
illy	-5919
mind	-5920
mond	-5921
oken	-5922
only	-5923
oust	-5924
rele	-5925
rete	-5926
sour	-5927
tion	-5928
vant	-5929
▁cho	-5930
▁dos	-5931
▁dub	-5932
▁fay	-5933
▁fle	-5934
▁geg	-5935
▁hen	-5936
▁hid	-5937
▁jah	-5938
▁jam	-5939
▁kam	-5940
▁mos	-5941
▁não	-5942
▁pas	-5943
▁raj	-5944
▁sag	-5945
▁sco	-5946
▁una	-5947
▁الا	-5948
-2017	-5949
again	-5950
being	-5951
chang	-5952
ellow	-5953
ength	-5954
inger	-5955
ingly	-5956
ithub	-5957
smart	-5958
under	-5959
utral	-5960
which	-5961
▁2008	-5962
▁boom	-5963
▁desc	-5964
▁dict	-5965
▁gang	-5966
▁jump	-5967
▁lake	-5968
▁matt	-5969
▁rely	-5970
▁seat	-5971
▁tail	-5972
▁tory	-5973
▁wire	-5974
ancing	-5975
deputy	-5976
elstad	-5977
gienyt	-5978
icated	-5979
icious	-5980
makers	-5981
▁(2018	-5982
▁bench	-5983
▁breat	-5984
▁catch	-5985
▁cemet	-5986
▁comed	-5987
▁curve	-5988
▁decre	-5989
▁fifth	-5990
▁intel	-5991
▁kings	-5992
▁newly	-5993
▁nomin	-5994
▁param	-5995
▁pixel	-5996
▁pride	-5997
▁sizes	-5998
▁stone	-5999
▁stran	-6000
▁tells	-6001
▁twice	-6002
agement	-6003
winning	-6004
▁adjust	-6005
▁anonym	-6006
▁approx	-6007
▁bright	-6008
▁campus	-6009
▁disney	-6010
▁filled	-6011
▁firing	-6012
▁lawyer	-6013
▁liquid	-6014
▁python	-6015
▁script	-6016
▁streng	-6017
▁symbol	-6018
▁turkey	-6019
itecture	-6020
newsweek	-6021
▁aggress	-6022
▁clashes	-6023
▁defence	-6024
▁disrupt	-6025
▁doctors	-6026
▁dynamic	-6027
▁founder	-6028
▁herself	-6029
▁keeping	-6030
▁koetter	-6031
▁matters	-6032
▁mullins	-6033
▁options	-6034
▁parking	-6035
▁premium	-6036
▁refused	-6037
▁retired	-6038
▁schedul	-6039
▁selling	-6040
▁sharing	-6041
▁threats	-6042
▁unclear	-6043
maggienyt	-6044
president	-6045
▁advanced	-6046
▁announce	-6047
▁consumer	-6048
▁division	-6049
▁dramatic	-6050
▁elements	-6051
▁fighters	-6052
▁lawrence	-6053
▁marriage	-6054
▁michigan	-6055
▁minority	-6056
▁montreal	-6057
▁negative	-6058
▁offering	-6059
▁religion	-6060
▁attempted	-6061
▁confident	-6062
▁generally	-6063
▁highlands	-6064
▁insurance	-6065
▁photograp	-6066
▁platforms	-6067
▁presented	-6068
smithsonian	-6069
▁profession	-6070
▁resolution	-6071
▁statistics	-6072
▁techniques	-6073
architecture	-6074
▁disturbance	-6075
▁possibility	-6076
▁circumcision	-6077
▁neighborhood	-6078
▁technologies	-6079
▁thelastrefuge	-6080
-2	-6081
41	-6082
82	-6083
aa	-6084
ni	-6085
py	-6086
zo	-6087
án	-6088
ور	-6089
▁د	-6090
▁ش	-6091
▁ل	-6092
)."	-6093
-11	-6094
asc	-6095
azd	-6096
esy	-6097
hry	-6098
ils	-6099
pop	-6100
pot	-6101
rey	-6102
rie	-6103
uts	-6104
▁($	-6105
▁(3	-6106
▁42	-6107
▁dé	-6108
▁ji	-6109
▁ny	-6110
▁xx	-6111
++17	-6112
aked	-6113
beit	-6114
call	-6115
cape	-6116
gent	-6117
hell	-6118
home	-6119
ixon	-6120
mark	-6121
mont	-6122
onso	-6123
oria	-6124
raid	-6125
rait	-6126
rend	-6127
sapp	-6128
über	-6129
▁23,	-6130
▁ads	-6131
▁bbc	-6132
▁beg	-6133
▁bon	-6134
▁cha	-6135
▁gam	-6136
▁jim	-6137
▁nel	-6138
▁ric	-6139
▁sky	-6140
▁wik	-6141
asted	-6142
azers	-6143
board	-6144
downs	-6145
etime	-6146
every	-6147
idade	-6148
igent	-6149
never	-6150
ocker	-6151
oston	-6152
poses	-6153
rator	-6154
rehen	-6155
sight	-6156
uable	-6157
video	-6158
▁bell	-6159
▁bone	-6160
▁crew	-6161
▁drew	-6162
▁dual	-6163
▁ford	-6164
▁jail	-6165
▁lift	-6166
▁mism	-6167
▁pair	-6168
▁phen	-6169
▁pond	-6170
▁pure	-6171
▁rail	-6172
▁rall	-6173
▁rein	-6174
▁sony	-6175
▁tent	-6176
▁tick	-6177
▁util	-6178
▁wake	-6179
-18096	-6180
adores	-6181
amente	-6182
covery	-6183
ension	-6184
incinn	-6185
istent	-6186
report	-6187
skirts	-6188
urches	-6189
▁0.00%	-6190
▁accus	-6191
▁allen	-6192
▁aside	-6193
▁disag	-6194
▁drama	-6195
▁femin	-6196
▁flags	-6197
▁guide	-6198
▁helps	-6199
▁hyper	-6200
▁inequ	-6201
▁moves	-6202
▁patri	-6203
▁polls	-6204
▁prove	-6205
▁revol	-6206
▁roles	-6207
▁spons	-6208
▁swing	-6209
▁truck	-6210
▁usage	-6211
▁vegas	-6212
▁wales	-6213
▁worry	-6214
assador	-6215
attered	-6216
entions	-6217
journal	-6218
▁actors	-6219
▁aspect	-6220
▁assert	-6221
▁aurora	-6222
▁broken	-6223
▁cooper	-6224
▁corner	-6225
▁enable	-6226
▁forest	-6227
▁junior	-6228
▁limits	-6229
▁orders	-6230
▁privat	-6231
▁proved	-6232
▁revers	-6233
▁severe	-6234
▁slowly	-6235
▁stream	-6236
▁strike	-6237
▁summit	-6238
▁towers	-6239
▁unable	-6240
▁useful	-6241
ollywood	-6242
▁advance	-6243
▁adviser	-6244
▁anthony	-6245
▁arrests	-6246
▁blocked	-6247
▁carried	-6248
▁charles	-6249
▁conspir	-6250
▁explore	-6251
▁farmers	-6252
▁highway	-6253
▁located	-6254
▁married	-6255
▁moments	-6256
▁monitor	-6257
▁outrage	-6258
▁realize	-6259
▁samsung	-6260
▁shortly	-6261
▁species	-6262
▁testing	-6263
▁ukraine	-6264
▁underst	-6265
ibilities	-6266
incinnati	-6267
including	-6268
▁carrying	-6269
▁channels	-6270
▁chemical	-6271
▁confront	-6272
▁contains	-6273
▁contrast	-6274
▁creation	-6275
▁discount	-6276
▁entrance	-6277
▁introduc	-6278
▁kentucky	-6279
▁maintain	-6280
▁momentum	-6281
▁parallel	-6282
▁phenomen	-6283
▁planning	-6284
▁properly	-6285
▁publicly	-6286
▁purchase	-6287
▁rejected	-6288
▁releases	-6289
▁reporter	-6290
▁suburban	-6291
▁tracking	-6292
▁whatsapp	-6293
▁basically	-6294
▁broadcast	-6295
▁emergency	-6296
▁emissions	-6297
▁expansion	-6298
▁headlines	-6299
▁inflation	-6300
▁intercept	-6301
▁marketing	-6302
▁outskirts	-6303
▁principal	-6304
▁reference	-6305
▁remaining	-6306
▁subscribe	-6307
▁worldwide	-6308
▁apparently	-6309
▁connection	-6310
▁frequently	-6311
▁historical	-6312
▁officially	-6313
▁protecting	-6314
▁scientists	-6315
▁terrorists	-6316
▁violations	-6317
▁effectively	-6318
▁experienced	-6319
▁improvement	-6320
▁journalists	-6321
▁threatening	-6322
▁prostitution	-6323
smithsonianmag	-6324
▁understanding	-6325
43	-6326
59	-6327
67	-6328
ez	-6329
gi	-6330
iq	-6331
kt	-6332
ns	-6333
px	-6334
íd	-6335
ار	-6336
بي	-6337
▁α	-6338
aly	-6339
arr	-6340
bor	-6341
boy	-6342
cak	-6343
cas	-6344
lan	-6345
mes	-6346
oga	-6347
olf	-6348
pod	-6349
rom	-6350
wal	-6351
zed	-6352
▁$3	-6353
▁*/	-6354
▁/*	-6355
▁4,	-6356
▁41	-6357
▁va	-6358
base	-6359
bour	-6360
door	-6361
esse	-6362
even	-6363
free	-6364
gate	-6365
hett	-6366
ibis	-6367
icip	-6368
lich	-6369
mail	-6370
pted	-6371
quar	-6372
roit	-6373
spec	-6374
tech	-6375
uish	-6376
▁19,	-6377
▁20,	-6378
▁ble	-6379
▁bob	-6380
▁fer	-6381
▁kar	-6382
▁kom	-6383
▁mes	-6384
▁odd	-6385
▁phr	-6386
▁qui	-6387
▁rot	-6388
▁sab	-6389
▁sar	-6390
▁tan	-6391
▁ven	-6392
▁vor	-6393
"")."	-6394
acked	-6395
arked	-6396
armed	-6397
arted	-6398
compl	-6399
ected	-6400
esome	-6401
https	-6402
ining	-6403
lands	-6404
obile	-6405
polog	-6406
years	-6407
ystem	-6408
▁1990	-6409
▁boss	-6410
▁dust	-6411
▁ends	-6412
▁grey	-6413
▁horr	-6414
▁lens	-6415
▁mais	-6416
▁rang	-6417
▁refe	-6418
▁rhet	-6419
▁salt	-6420
▁sher	-6421
▁shop	-6422
▁span	-6423
▁spir	-6424
▁tues	-6425
▁weak	-6426
▁wear	-6427
cakale	-6428
iction	-6429
market	-6430
ounter	-6431
preced	-6432
rating	-6433
urning	-6434
▁2014,	-6435
▁adapt	-6436
▁alive	-6437
▁asset	-6438
▁catal	-6439
▁chick	-6440
▁datab	-6441
▁entry	-6442
▁faced	-6443
▁fayad	-6444
▁frust	-6445
▁hopes	-6446
▁medic	-6447
▁ordin	-6448
▁queen	-6449
▁rural	-6450
▁santa	-6451
▁sides	-6452
▁sleep	-6453
▁stood	-6454
▁stuck	-6455
▁towns	-6456
▁urged	-6457
▁views	-6458
▁walls	-6459
▁waste	-6460
clusive	-6461
elstadt	-6462
reprene	-6463
▁afraid	-6464
▁appoin	-6465
▁artist	-6466
▁backed	-6467
▁blocks	-6468
▁buying	-6469
▁client	-6470
▁deeply	-6471
▁dengue	-6472
▁deport	-6473
▁desper	-6474
▁devast	-6475
▁dinner	-6476
▁ending	-6477
▁export	-6478
▁favour	-6479
▁frayer	-6480
▁hardly	-6481
▁intens	-6482
▁legacy	-6483
▁length	-6484
▁listed	-6485
▁manual	-6486
▁marvel	-6487
▁noting	-6488
▁opioid	-6489
▁paying	-6490
▁pieces	-6491
▁propag	-6492
▁relief	-6493
▁reveal	-6494
▁spaces	-6495
▁speaks	-6496
▁trucks	-6497
ographic	-6498
▁appeals	-6499
▁atlanta	-6500
▁decline	-6501
▁discour	-6502
▁emperor	-6503
▁engaged	-6504
▁figures	-6505
▁hagibis	-6506
▁heading	-6507
▁healthy	-6508
▁missile	-6509
▁modular	-6510
▁objects	-6511
▁schools	-6512
▁seeking	-6513
▁sending	-6514
▁setting	-6515
▁stephen	-6516
▁tactics	-6517
▁totally	-6518
▁tuesday	-6519
▁akcakale	-6520
▁alliance	-6521
▁articles	-6522
▁auditory	-6523
▁autonomy	-6524
▁billions	-6525
▁detained	-6526
▁directed	-6527
▁distance	-6528
▁external	-6529
▁findings	-6530
▁occurred	-6531
▁replaced	-6532
▁scotland	-6533
▁supports	-6534
▁throwing	-6535
▁breitbart	-6536
▁competing	-6537
▁historian	-6538
▁landscape	-6539
▁monuments	-6540
▁publisher	-6541
▁suspected	-6542
crimination	-6543
precedented	-6544
▁ambassador	-6545
▁australian	-6546
▁background	-6547
▁borisovich	-6548
▁complaints	-6549
▁controlled	-6550
▁diplomatic	-6551
▁entreprene	-6552
▁guidelines	-6553
▁personally	-6554
▁priorities	-6555
▁regulation	-6556
▁statements	-6557
▁unexpected	-6558
▁competitive	-6559
▁complicated	-6560
▁discussions	-6561
▁distributed	-6562
▁fundamental	-6563
▁implemented	-6564
▁confirmation	-6565
▁distribution	-6566
▁congressional	-6567
▁entertainment	-6568
▁relationships	-6569
/2	-6570
06	-6571
58	-6572
6)	-6573
69	-6574
ci	-6575
ka	-6576
ky	-6577
غا	-6578
▁ك	-6579
abc	-6580
alo	-6581
bas	-6582
beh	-6583
css	-6584
gov	-6585
iry	-6586
jam	-6587
jet	-6588
los	-6589
oir	-6590
sky	-6591
yni	-6592
zie	-6593
▁7,	-6594
▁cz	-6595
▁mp	-6596
▁rh	-6597
▁في	-6598
ache	-6599
blic	-6600
burg	-6601
dale	-6602
date	-6603
eras	-6604
hrer	-6605
iano	-6606
iest	-6607
ithe	-6608
list	-6609
mate	-6610
offs	-6611
quer	-6612
roll	-6613
than	-6614
uate	-6615
uine	-6616
ylum	-6617
▁11,	-6618
▁12,	-6619
▁29,	-6620
▁css	-6621
▁deg	-6622
▁dot	-6623
▁fab	-6624
▁fee	-6625
▁ges	-6626
▁más	-6627
▁oce	-6628
▁ont	-6629
▁quo	-6630
▁rub	-6631
▁sea	-6632
▁shr	-6633
▁się	-6634
▁tam	-6635
▁tes	-6636
acher	-6637
antic	-6638
beral	-6639
hryth	-6640
human	-6641
inals	-6642
irect	-6643
itage	-6644
ivals	-6645
oking	-6646
organ	-6647
pired	-6648
shire	-6649
trans	-6650
▁2000	-6651
▁ally	-6652
▁bash	-6653
▁bath	-6654
▁bucs	-6655
▁bund	-6656
▁cate	-6657
▁coff	-6658
▁empt	-6659
▁eval	-6660
▁fuck	-6661
▁gain	-6662
▁gear	-6663
▁grid	-6664
▁jour	-6665
▁jung	-6666
▁lean	-6667
▁lind	-6668
▁obst	-6669
▁pace	-6670
▁pill	-6671
▁quit	-6672
▁spin	-6673
▁stem	-6674
▁stim	-6675
▁stir	-6676
▁swat	-6677
▁tony	-6678
atally	-6679
profit	-6680
season	-6681
status	-6682
▁2015.	-6683
▁aimed	-6684
▁argue	-6685
▁bound	-6686
▁charl	-6687
▁facts	-6688
▁finds	-6689
▁flash	-6690
▁fraud	-6691
▁giant	-6692
▁grant	-6693
▁greet	-6694
▁harry	-6695
▁hosts	-6696
▁invas	-6697
▁jamie	-6698
▁kinds	-6699
▁knock	-6700
▁latin	-6701
▁nicol	-6702
▁petro	-6703
▁pilot	-6704
▁reput	-6705
▁resol	-6706
▁scand	-6707
▁schul	-6708
▁suppl	-6709
▁surve	-6710
▁toler	-6711
▁uncon	-6712
ascript	-6713
history	-6714
ilitary	-6715
inction	-6716
minster	-6717
ogether	-6718
politan	-6719
▁adonis	-6720
▁begins	-6721
▁causes	-6722
▁detect	-6723
▁driven	-6724
▁exceed	-6725
▁golden	-6726
▁jordan	-6727
▁laptop	-6728
▁linked	-6729
▁losing	-6730
▁overse	-6731
▁scenes	-6732
▁scored	-6733
▁sector	-6734
▁sought	-6735
▁stated	-6736
▁taxpay	-6737
▁viewed	-6738
▁wilson	-6739
▁writer	-6740
officers	-6741
standing	-6742
whelming	-6743
▁applied	-6744
▁awesome	-6745
▁binance	-6746
▁corrupt	-6747
▁disease	-6748
▁exploit	-6749
▁factors	-6750
▁genital	-6751
▁glazers	-6752
▁holders	-6753
▁involve	-6754
▁musical	-6755
▁passing	-6756
▁polizei	-6757
▁precise	-6758
▁raising	-6759
▁reverse	-6760
▁roughly	-6761
▁stretch	-6762
▁theresa	-6763
▁tonight	-6764
▁trouble	-6765
▁violate	-6766
▁visitor	-6767
▁warrant	-6768
▁youtube	-6769
▁academic	-6770
▁activist	-6771
▁adventur	-6772
▁approved	-6773
▁captured	-6774
▁clerical	-6775
▁deployed	-6776
▁disaster	-6777
▁doorbell	-6778
▁exciting	-6779
▁explains	-6780
▁facility	-6781
▁featured	-6782
▁internal	-6783
▁liberals	-6784
▁opposite	-6785
▁producer	-6786
▁purposes	-6787
▁realized	-6788
▁struggle	-6789
▁targeted	-6790
▁acknowled	-6791
▁campaigns	-6792
▁collusion	-6793
▁commander	-6794
▁expanding	-6795
▁languages	-6796
▁launching	-6797
▁ministers	-6798
▁narrative	-6799
▁operators	-6800
▁predicted	-6801
▁procedure	-6802
▁recognize	-6803
▁struggled	-6804
▁technical	-6805
▁affordable	-6806
▁assessment	-6807
▁cincinnati	-6808
▁continuing	-6809
▁impressive	-6810
▁inequality	-6811
▁presidents	-6812
▁regardless	-6813
▁responding	-6814
▁venezuelan	-6815
▁vulnerable	-6816
▁contributed	-6817
▁educational	-6818
▁essentially	-6819
▁generations	-6820
▁mountaintop	-6821
▁announcement	-6822
▁consequences	-6823
▁metropolitan	-6824
▁organisation	-6825
▁transactions	-6826
▁accessibility	-6827
▁communication	-6828
▁unprecedented	-6829
▁communications	-6830
▁implementation	-6831
▁representatives	-6832
,6	-6833
-9	-6834
/3	-6835
7)	-6836
8)	-6837
91	-6838
__	-6839
hd	-6840
hi	-6841
hu	-6842
iu	-6843
mt	-6844
oh	-6845
yo	-6846
ör	-6847
ın	-6848
▁]	-6849
▁ع	-6850
-20	-6851
abs	-6852
ahl	-6853
alf	-6854
anç	-6855
bie	-6856
byn	-6857
ded	-6858
det	-6859
ena	-6860
fam	-6861
haw	-6862
iny	-6863
lyn	-6864
lyp	-6865
oos	-6866
pen	-6867
pes	-6868
two	-6869
uce	-6870
usa	-6871
uwa	-6872
wan	-6873
▁$.	-6874
▁$7	-6875
▁(4	-6876
▁(6	-6877
▁(8	-6878
▁51	-6879
▁az	-6880
▁eg	-6881
▁ip	-6882
▁ot	-6883
▁ww	-6884
ager	-6885
aire	-6886
bles	-6887
cles	-6888
empl	-6889
endo	-6890
fash	-6891
hair	-6892
irez	-6893
iten	-6894
llor	-6895
mult	-6896
olis	-6897
rate	-6898
requ	-6899
rett	-6900
rian	-6901
russ	-6902
serv	-6903
spot	-6904
sylv	-6905
will	-6906
▁197	-6907
▁api	-6908
▁arc	-6909
▁bom	-6910
▁bry	-6911
▁btc	-6912
▁fuc	-6913
▁hab	-6914
▁han	-6915
▁hiv	-6916
▁nrc	-6917
▁pip	-6918
▁qrl	-6919
▁vel	-6920
▁الم	-6921
angel	-6922
apeut	-6923
books	-6924
break	-6925
icate	-6926
icide	-6927
ifies	-6928
licop	-6929
north	-6930
riend	-6931
uably	-6932
uster	-6933
uwait	-6934
▁$10.	-6935
▁arts	-6936
▁baby	-6937
▁bang	-6938
▁clot	-6939
▁clyp	-6940
▁cops	-6941
▁dial	-6942
▁diam	-6943
▁jenn	-6944
▁judg	-6945
▁laid	-6946
▁nato	-6947
▁pant	-6948
▁rank	-6949
▁reco	-6950
▁resh	-6951
▁shit	-6952
▁symp	-6953
▁tiny	-6954
▁tree	-6955
▁wore	-6956
/2017/	-6957
apping	-6958
atible	-6959
atures	-6960
backed	-6961
compan	-6962
museum	-6963
phones	-6964
rehens	-6965
review	-6966
rowing	-6967
system	-6968
ynihan	-6969
▁0.02%	-6970
▁2013,	-6971
▁assad	-6972
▁candy	-6973
▁cited	-6974
▁climb	-6975
▁crazy	-6976
▁desde	-6977
▁dress	-6978
▁elite	-6979
▁equal	-6980
▁faith	-6981
▁fears	-6982
▁feels	-6983
▁guest	-6984
▁hired	-6985
▁jihad	-6986
▁links	-6987
▁lived	-6988
▁lucky	-6989
▁moore	-6990
▁moral	-6991
▁noise	-6992
▁notor	-6993
▁ocean	-6994
▁poder	-6995
▁races	-6996
▁ranks	-6997
▁revel	-6998
▁shame	-6999
▁sight	-7000
▁steam	-7001
▁sugar	-7002
▁therm	-7003
english	-7004
illance	-7005
itarian	-7006
ologist	-7007
onsored	-7008
station	-7009
ulating	-7010
▁(2018)	-7011
▁amazon	-7012
▁analyt	-7013
▁appeal	-7014
▁boston	-7015
▁bridge	-7016
▁butler	-7017
▁button	-7018
▁cartel	-7019
▁citing	-7020
▁combat	-7021
▁denied	-7022
▁desert	-7023
▁discip	-7024
▁fields	-7025
▁gaming	-7026
▁height	-7027
▁honest	-7028
▁hoping	-7029
▁horror	-7030
▁houses	-7031
▁illust	-7032
▁joseph	-7033
▁maduro	-7034
▁merely	-7035
▁nobody	-7036
▁nurgle	-7037
▁openly	-7038
▁palace	-7039
▁perpet	-7040
▁pursue	-7041
▁racing	-7042
▁regist	-7043
▁remark	-7044
▁remind	-7045
▁reward	-7046
▁talked	-7047
▁titles	-7048
quarters	-7049
sylvania	-7050
▁anymore	-7051
▁channel	-7052
▁closing	-7053
▁counsel	-7054
▁flights	-7055
▁genuine	-7056
▁holiday	-7057
▁illicit	-7058
▁journey	-7059
▁northam	-7060
▁oversee	-7061
▁passion	-7062
▁privacy	-7063
▁refusal	-7064
▁scripts	-7065
▁settled	-7066
▁swedish	-7067
▁treated	-7068
▁unknown	-7069
▁visited	-7070
terrorism	-7071
▁actively	-7072
▁advisory	-7073
▁arguably	-7074
▁artistic	-7075
▁concrete	-7076
▁electric	-7077
▁electron	-7078
▁exterior	-7079
▁forecast	-7080
▁handling	-7081
▁homeland	-7082
▁insisted	-7083
▁intended	-7084
▁memorial	-7085
▁mismatch	-7086
▁moynihan	-7087
▁osthryth	-7088
▁peaceful	-7089
▁preserve	-7090
▁reliable	-7091
▁somebody	-7092
▁stanford	-7093
▁suggests	-7094
▁talented	-7095
▁timeline	-7096
ifications	-7097
▁accidents	-7098
▁happening	-7099
▁henderson	-7100
▁inspector	-7101
▁isolation	-7102
▁offerings	-7103
▁practices	-7104
▁producing	-7105
▁prominent	-7106
▁prompting	-7107
▁returning	-7108
▁solutions	-7109
▁strategic	-7110
▁workplace	-7111
trafficking	-7112
▁adventuron	-7113
▁attractive	-7114
▁conspiracy	-7115
▁contribute	-7116
▁operatives	-7117
▁permission	-7118
▁resistance	-7119
▁retirement	-7120
▁challenging	-7121
▁citizenship	-7122
▁mittelstadt	-7123
▁prosecutors	-7124
▁intervention	-7125
▁pennsylvania	-7126
▁spokesperson	-7127
▁approximately	-7128
▁conservatives	-7129
▁investigating	-7130
▁manufacturing	-7131
▁accountability	-7132
!)	-7133
31	-7134
32	-7135
5)	-7136
54	-7137
56	-7138
77	-7139
9%	-7140
mm	-7141
tm	-7142
va	-7143
zt	-7144
är	-7145
éd	-7146
ín	-7147
▁<	-7148
▁ö	-7149
▁ه	-7150
-16	-7151
:00	-7152
abi	-7153
ala	-7154
bey	-7155
dos	-7156
dro	-7157
itu	-7158
jad	-7159
pal	-7160
pub	-7161
rot	-7162
ser	-7163
spr	-7164
unk	-7165
voa	-7166
wel	-7167
yon	-7168
▁47	-7169
▁55	-7170
▁8.	-7171
▁ao	-7172
▁au	-7173
▁bp	-7174
▁ka	-7175
▁kh	-7176
▁nv	-7177
▁ní	-7178
▁że	-7179
"":"	-7180
....	-7181
abad	-7182
aids	-7183
asty	-7184
aust	-7185
camp	-7186
conf	-7187
core	-7188
each	-7189
elph	-7190
eman	-7191
eter	-7192
fall	-7193
hole	-7194
iana	-7195
icul	-7196
idad	-7197
ifer	-7198
iled	-7199
kham	-7200
kill	-7201
lett	-7202
mans	-7203
near	-7204
nels	-7205
renn	-7206
scow	-7207
sell	-7208
sign	-7209
thor	-7210
view	-7211
▁14,	-7212
▁17,	-7213
▁ash	-7214
▁año	-7215
▁dor	-7216
▁enh	-7217
▁eru	-7218
▁gap	-7219
▁hij	-7220
▁icc	-7221
▁jal	-7222
▁kun	-7223
▁lag	-7224
▁lux	-7225
▁mum	-7226
▁ott	-7227
▁pir	-7228
▁ray	-7229
▁raz	-7230
▁tab	-7231
▁tas	-7232
▁tut	-7233
▁uni	-7234
▁vib	-7235
acare	-7236
anger	-7237
arcot	-7238
cohol	-7239
iable	-7240
ichol	-7241
icism	-7242
icits	-7243
igate	-7244
image	-7245
iones	-7246
isten	-7247
jamin	-7248
mente	-7249
oster	-7250
plant	-7251
rison	-7252
share	-7253
sters	-7254
those	-7255
today	-7256
union	-7257
▁1960	-7258
▁1979	-7259
▁1997	-7260
▁2006	-7261
▁bent	-7262
▁boat	-7263
▁bold	-7264
▁bump	-7265
▁busy	-7266
▁ecos	-7267
▁está	-7268
▁heck	-7269
▁hide	-7270
▁hunt	-7271
▁icos	-7272
▁lone	-7273
▁luck	-7274
▁luke	-7275
▁mash	-7276
▁meat	-7277
▁pose	-7278
▁sele	-7279
▁tall	-7280
▁teen	-7281
▁tied	-7282
▁upgr	-7283
▁utah	-7284
bridge	-7285
change	-7286
cience	-7287
former	-7288
iences	-7289
intern	-7290
making	-7291
strong	-7292
▁0.03%	-7293
▁2010,	-7294
▁2015,	-7295
▁abdul	-7296
▁audio	-7297
▁bless	-7298
▁bunch	-7299
▁categ	-7300
▁coins	-7301
▁cyber	-7302
▁displ	-7303
▁dozen	-7304
▁empty	-7305
▁entit	-7306
▁flows	-7307
▁gains	-7308
▁globe	-7309
▁goods	-7310
▁iraqi	-7311
▁lying	-7312
▁mosqu	-7313
▁resur	-7314
▁scher	-7315
▁scope	-7316
▁sheet	-7317
▁simon	-7318
▁spect	-7319
▁sympt	-7320
▁theat	-7321
▁thick	-7322
▁tokyo	-7323
▁trave	-7324
▁trick	-7325
▁wider	-7326
▁yacht	-7327
acement	-7328
apeutic	-7329
bellion	-7330
conduct	-7331
culture	-7332
houston	-7333
ionally	-7334
ivities	-7335
mingham	-7336
reuters	-7337
▁10,000	-7338
▁anyway	-7339
▁awards	-7340
▁behalf	-7341
▁bodies	-7342
▁boring	-7343
▁branch	-7344
▁burned	-7345
▁checks	-7346
▁corbyn	-7347
▁deadly	-7348
▁degree	-7349
▁enthus	-7350
▁estate	-7351
▁ethics	-7352
▁factor	-7353
▁fantas	-7354
▁hidden	-7355
▁hurric	-7356
▁ignore	-7357
▁impose	-7358
▁incomp	-7359
▁kuwait	-7360
▁mainly	-7361
▁marked	-7362
▁moscow	-7363
▁myster	-7364
▁narrow	-7365
▁papers	-7366
▁prepar	-7367
▁ratios	-7368
▁ruling	-7369
▁shiite	-7370
▁sister	-7371
▁spider	-7372
▁steady	-7373
▁struck	-7374
▁struct	-7375
▁tackle	-7376
▁temper	-7377
▁thread	-7378
▁tweets	-7379
▁whites	-7380
-1809676	-7381
articles	-7382
deputies	-7383
official	-7384
▁chapter	-7385
▁circuit	-7386
▁citizen	-7387
▁compete	-7388
▁concent	-7389
▁dispute	-7390
▁divided	-7391
▁emerged	-7392
▁enemies	-7393
▁equally	-7394
▁exchang	-7395
▁females	-7396
▁helicop	-7397
▁inquiry	-7398
▁mistake	-7399
▁ordered	-7400
▁passive	-7401
▁phoenix	-7402
▁promote	-7403
▁prosper	-7404
▁rallies	-7405
▁revenue	-7406
▁sanders	-7407
▁subsequ	-7408
▁unusual	-7409
▁watched	-7410
▁arkansas	-7411
▁colombia	-7412
▁defended	-7413
▁disabled	-7414
▁feedback	-7415
▁focusing	-7416
▁homeless	-7417
▁portrait	-7418
▁register	-7419
▁relative	-7420
▁resource	-7421
▁rhetoric	-7422
▁thousand	-7423
▁traffick	-7424
▁valuable	-7425
▁visiting	-7426
▁addresses	-7427
▁alexander	-7428
▁caecilian	-7429
▁collected	-7430
▁completed	-7431
▁demanding	-7432
▁developer	-7433
▁discussed	-7434
▁ecosystem	-7435
▁encounter	-7436
▁franchise	-7437
▁highlight	-7438
▁hollywood	-7439
▁incidents	-7440
▁mechanism	-7441
▁overnight	-7442
▁passwords	-7443
▁rebellion	-7444
▁recommend	-7445
▁referring	-7446
▁regularly	-7447
▁requiring	-7448
▁scheduled	-7449
▁seriously	-7450
▁stability	-7451
▁streaming	-7452
▁targeting	-7453
therapeutic	-7454
▁chancellor	-7455
▁complained	-7456
▁disappoint	-7457
▁extinction	-7458
▁javascript	-7459
▁journalism	-7460
▁performing	-7461
▁principles	-7462
▁professors	-7463
▁settlement	-7464
▁advertising	-7465
▁application	-7466
▁deportation	-7467
▁description	-7468
▁eliminating	-7469
▁residential	-7470
▁conservation	-7471
▁conversation	-7472
▁headquarters	-7473
▁photographed	-7474
▁recreational	-7475
anarchitecture	-7476
archaeologists	-7477
▁automatically	-7478
▁functionality	-7479
▁fundamentally	-7480
▁psychological	-7481
▁attractiveness	-7482
/5	-7483
bb	-7484
db	-7485
fo	-7486
gb	-7487
oz	-7488
pm	-7489
yr	-7490
és	-7491
ís	-7492
را	-7493
▁ε	-7494
-26	-7495
-75	-7496
/36	-7497
120	-7498
big	-7499
bow	-7500
cer	-7501
ema	-7502
ila	-7503
ima	-7504
iri	-7505
izz	-7506
job	-7507
lad	-7508
mat	-7509
may	-7510
mun	-7511
nik	-7512
opp	-7513
rah	-7514
rek	-7515
rif	-7516
rob	-7517
sim	-7518
sun	-7519
thr	-7520
ths	-7521
top	-7522
tsd	-7523
uay	-7524
ums	-7525
vas	-7526
zil	-7527
بغا	-7528
▁gn	-7529
▁kr	-7530
▁tu	-7531
▁wy	-7532
▁zh	-7533
++20	-7534
acts	-7535
arms	-7536
asts	-7537
ação	-7538
emed	-7539
eper	-7540
good	-7541
iang	-7542
icht	-7543
illa	-7544
iolg	-7545
llen	-7546
odes	-7547
owdy	-7548
pare	-7549
phas	-7550
pire	-7551
rick	-7552
stop	-7553
tele	-7554
thew	-7555
wing	-7556
▁$25	-7557
▁199	-7558
▁500	-7559
▁alb	-7560
▁cot	-7561
▁dad	-7562
▁env	-7563
▁gov	-7564
▁hdr	-7565
▁jae	-7566
▁jet	-7567
▁luc	-7568
▁mae	-7569
▁pad	-7570
▁pel	-7571
▁poe	-7572
▁rod	-7573
▁rom	-7574
▁sel	-7575
▁sin	-7576
▁som	-7577
▁syl	-7578
▁unn	-7579
▁usd	-7580
▁الب	-7581
bered	-7582
chief	-7583
eless	-7584
fired	-7585
iated	-7586
idesp	-7587
iemba	-7588
inter	-7589
itual	-7590
onian	-7591
photo	-7592
pical	-7593
scale	-7594
style	-7595
worth	-7596
▁acts	-7597
▁aids	-7598
▁beer	-7599
▁bois	-7600
▁cong	-7601
▁corp	-7602
▁dass	-7603
▁deer	-7604
▁grab	-7605
▁gran	-7606
▁hadn	-7607
▁hash	-7608
▁hire	-7609
▁hung	-7610
▁legs	-7611
▁magn	-7612
▁marg	-7613
▁nazi	-7614
▁obsc	-7615
▁pock	-7616
▁ptsd	-7617
▁roch	-7618
▁sche	-7619
▁sits	-7620
▁stun	-7621
▁subm	-7622
▁ties	-7623
▁visa	-7624
▁worm	-7625
▁yeah	-7626
agency	-7627
arrass	-7628
arthur	-7629
finals	-7630
ileaks	-7631
inform	-7632
mining	-7633
orient	-7634
oustic	-7635
timore	-7636
ulated	-7637
▁2009.	-7638
▁2012,	-7639
▁alien	-7640
▁bears	-7641
▁cance	-7642
▁chris	-7643
▁conce	-7644
▁deleg	-7645
▁diego	-7646
▁drone	-7647
▁fever	-7648
▁fuels	-7649
▁gowdy	-7650
▁greyh	-7651
▁haley	-7652
▁imper	-7653
▁input	-7654
▁inval	-7655
▁lorry	-7656
▁minds	-7657
▁moham	-7658
▁mortg	-7659
▁phase	-7660
▁putin	-7661
▁reass	-7662
▁remem	-7663
▁repro	-7664
▁shell	-7665
▁spots	-7666
▁types	-7667
▁vital	-7668
amacare	-7669
chester	-7670
liberal	-7671
support	-7672
workers	-7673
▁apolog	-7674
▁beauty	-7675
▁brutal	-7676
▁caller	-7677
▁canyon	-7678
▁condol	-7679
▁correl	-7680
▁donors	-7681
▁drills	-7682
▁explan	-7683
▁faster	-7684
▁finger	-7685
▁flying	-7686
▁formal	-7687
▁freeze	-7688
▁giants	-7689
▁jeunes	-7690
▁julian	-7691
▁korean	-7692
▁ledger	-7693
▁lehrer	-7694
▁master	-7695
▁minist	-7696
▁murray	-7697
▁native	-7698
▁passes	-7699
▁poster	-7700
▁presum	-7701
▁punish	-7702
▁putnam	-7703
▁quoine	-7704
▁refuse	-7705
▁reluct	-7706
▁rounds	-7707
▁schulz	-7708
▁slight	-7709
▁sudden	-7710
▁talent	-7711
▁thinks	-7712
▁thrown	-7713
▁trauma	-7714
▁trends	-7715
▁unders	-7716
▁valley	-7717
▁warren	-7718
▁weapon	-7719
▁widely	-7720
▁widesp	-7721
▁yellow	-7722
▁ziemba	-7723
guardian	-7724
interest	-7725
pictured	-7726
releases	-7727
▁accompl	-7728
▁airport	-7729
▁alcohol	-7730
▁auction	-7731
▁battery	-7732
▁buffalo	-7733
▁carries	-7734
▁choices	-7735
▁classic	-7736
▁command	-7737
▁contest	-7738
▁custody	-7739
▁customs	-7740
▁dealing	-7741
▁deliber	-7742
▁doubled	-7743
▁enabled	-7744
▁erupted	-7745
▁evening	-7746
▁fucking	-7747
▁goldman	-7748
▁harvest	-7749
▁invited	-7750
▁license	-7751
▁neither	-7752
▁notting	-7753
▁nowhere	-7754
▁pitched	-7755
▁podcast	-7756
▁proceed	-7757
▁ratiolg	-7758
▁ratiosm	-7759
▁reinfor	-7760
▁rockets	-7761
▁routine	-7762
▁senator	-7763
▁speaker	-7764
▁turning	-7765
christmas	-7766
operation	-7767
▁appointe	-7768
▁aviation	-7769
▁brothers	-7770
▁collabor	-7771
▁combined	-7772
▁compiler	-7773
▁constant	-7774
▁courtesy	-7775
▁deficits	-7776
▁examples	-7777
▁feelings	-7778
▁humanity	-7779
▁ideology	-7780
▁incoming	-7781
▁jennifer	-7782
▁occupied	-7783
▁recovery	-7784
▁rochdale	-7785
▁schedule	-7786
▁sexually	-7787
▁substant	-7788
/2017/12/1	-7789
identified	-7790
whitehouse	-7791
▁algorithm	-7792
▁appointed	-7793
▁complaint	-7794
▁connected	-7795
▁consumers	-7796
▁determine	-7797
▁embarrass	-7798
▁estimated	-7799
▁everybody	-7800
▁existence	-7801
▁featuring	-7802
▁framework	-7803
▁immediate	-7804
▁improving	-7805
▁migration	-7806
▁opponents	-7807
▁pollution	-7808
▁practical	-7809
▁prospects	-7810
▁reactions	-7811
▁reduction	-7812
▁replacing	-7813
▁resulting	-7814
▁universal	-7815
suppression	-7816
▁constantly	-7817
▁convention	-7818
▁everywhere	-7819
▁exhibition	-7820
▁legitimate	-7821
▁occupation	-7822
▁processing	-7823
▁protesting	-7824
▁protestors	-7825
▁telecommun	-7826
▁widespread	-7827
▁demonstrate	-7828
▁engineering	-7829
▁experiences	-7830
▁importantly	-7831
▁personality	-7832
▁playstation	-7833
▁programming	-7834
▁publication	-7835
▁quarterback	-7836
▁recognition	-7837
▁consistently	-7838
▁entrepreneur	-7839
▁improvements	-7840
▁interference	-7841
▁palestinians	-7842
▁representing	-7843
▁surveillance	-7844
▁verification	-7845
▁administrator	-7846
▁controversial	-7847
▁manufacturers	-7848
▁privatization	-7849
▁discrimination	-7850
!!	-7851
-6	-7852
/9	-7853
3)	-7854
3/	-7855
9)	-7856
cz	-7857
jo	-7858
jv	-7859
nt	-7860
rd	-7861
si	-7862
ár	-7863
ço	-7864
να	-7865
ال	-7866
▁μ	-7867
""—	-7868
),"	-7869
-15	-7870
.),	-7871
/62	-7872
:30	-7873
aka	-7874
del	-7875
dge	-7876
dit	-7877
eds	-7878
exp	-7879
fan	-7880
fre	-7881
hab	-7882
icy	-7883
imm	-7884
ira	-7885
ivo	-7886
nbc	-7887
onc	-7888
ped	-7889
rez	-7890
sea	-7891
uls	-7892
wed	-7893
wis	-7894
íom	-7895
▁(2	-7896
▁(9	-7897
▁:)	-7898
▁ds	-7899
▁ig	-7900
▁od	-7901
acob	-7902
emic	-7903
enas	-7904
ener	-7905
erce	-7906
find	-7907
gang	-7908
iece	-7909
imer	-7910
ipei	-7911
irds	-7912
ismo	-7913
ista	-7914
itim	-7915
lago	-7916
leum	-7917
live	-7918
lord	-7919
mand	-7920
olen	-7921
oral	-7922
osis	-7923
outs	-7924
park	-7925
phys	-7926
pour	-7927
rees	-7928
reve	-7929
riel	-7930
road	-7931
ropr	-7932
tail	-7933
vent	-7934
yout	-7935
▁$4,	-7936
▁$7.	-7937
▁15-	-7938
▁150	-7939
▁18,	-7940
▁198	-7941
▁25,	-7942
▁27,	-7943
▁300	-7944
▁80%	-7945
▁bou	-7946
▁cav	-7947
▁cos	-7948
▁cpu	-7949
▁dag	-7950
▁dim	-7951
▁eld	-7952
▁gur	-7953
▁hav	-7954
▁hud	-7955
▁mun	-7956
▁nam	-7957
▁nec	-7958
▁oak	-7959
▁osw	-7960
▁rip	-7961
▁rum	-7962
▁tel	-7963
▁www	-7964
""),"	-7965
abeth	-7966
alloc	-7967
antes	-7968
arios	-7969
child	-7970
claim	-7971
cracy	-7972
craft	-7973
erves	-7974
essee	-7975
eston	-7976
icing	-7977
ieron	-7978
inson	-7979
itals	-7980
izona	-7981
leans	-7982
lives	-7983
mates	-7984
oming	-7985
opher	-7986
osene	-7987
owned	-7988
store	-7989
think	-7990
women	-7991
▁$100	-7992
▁15.5	-7993
▁2005	-7994
▁agus	-7995
▁ahed	-7996
▁banc	-7997
▁batt	-7998
▁boot	-7999
▁boys	-8000
▁brow	-8001
▁bugs	-8002
▁cham	-8003
▁dash	-8004
▁dean	-8005
▁dell	-8006
▁drag	-8007
▁dvoa	-8008
▁eggs	-8009
▁fate	-8010
▁flip	-8011
▁foss	-8012
▁info	-8013
▁keen	-8014
▁mans	-8015
▁puts	-8016
▁rent	-8017
▁rice	-8018
▁rico	-8019
▁ride	-8020
▁sean	-8021
▁sein	-8022
▁sequ	-8023
▁soci	-8024
▁soil	-8025
▁sole	-8026
▁suit	-8027
▁till	-8028
▁trem	-8029
▁uber	-8030
▁vary	-8031
▁wise	-8032
▁yoga	-8033
accept	-8034
antiqu	-8035
ateral	-8036
celona	-8037
consin	-8038
ectual	-8039
family	-8040
finder	-8041
ington	-8042
ipping	-8043
lessly	-8044
rapped	-8045
terday	-8046
threat	-8047
▁0.04%	-8048
▁admit	-8049
▁arena	-8050
▁cable	-8051
▁cards	-8052
▁cerem	-8053
▁chill	-8054
▁clube	-8055
▁clubs	-8056
▁coinc	-8057
▁cycle	-8058
▁devot	-8059
▁dirty	-8060
▁doyle	-8061
▁dream	-8062
▁fixed	-8063
▁folks	-8064
▁gregg	-8065
▁gross	-8066
▁ideal	-8067
▁index	-8068
▁jacob	-8069
▁juven	-8070
▁lgbtq	-8071
▁likes	-8072
▁loose	-8073
▁maria	-8074
▁nodes	-8075
▁pages	-8076
▁panic	-8077
▁plant	-8078
▁prize	-8079
▁quote	-8080
▁roger	-8081
▁skept	-8082
▁split	-8083
▁stake	-8084
▁stowe	-8085
▁tesla	-8086
▁threw	-8087
▁tommy	-8088
america	-8089
ctioned	-8090
england	-8091
fatally	-8092
holders	-8093
limited	-8094
nytimes	-8095
ography	-8096
podcast	-8097
rations	-8098
science	-8099
tenance	-8100
unction	-8101
youtube	-8102
▁animal	-8103
▁argent	-8104
▁assume	-8105
▁asylum	-8106
▁bought	-8107
▁brazil	-8108
▁bronze	-8109
▁conven	-8110
▁copies	-8111
▁decide	-8112
▁declar	-8113
▁donate	-8114
▁earned	-8115
▁emphas	-8116
▁escape	-8117
▁expert	-8118
▁explos	-8119
▁fairly	-8120
▁fiscal	-8121
▁frozen	-8122
▁gotten	-8123
▁incent	-8124
▁inters	-8125
▁leaves	-8126
▁linear	-8127
▁locked	-8128
▁losses	-8129
▁madrid	-8130
▁makers	-8131
▁nelson	-8132
▁notion	-8133
▁observ	-8134
▁ottawa	-8135
▁praise	-8136
▁quoted	-8137
▁random	-8138
▁robust	-8139
▁saving	-8140
▁settle	-8141
▁sports	-8142
▁switch	-8143
▁taipei	-8144
▁trades	-8145
▁traged	-8146
▁troops	-8147
american	-8148
eachment	-8149
inations	-8150
▁100,000	-8151
▁banking	-8152
▁canucks	-8153
▁chevron	-8154
▁coaster	-8155
▁creates	-8156
▁defined	-8157
▁descend	-8158
▁deserve	-8159
▁diamond	-8160
▁empower	-8161
▁equival	-8162
▁heckard	-8163
▁insight	-8164
▁justify	-8165
▁letting	-8166
▁mashhad	-8167
▁matthew	-8168
▁maximum	-8169
▁noticed	-8170
▁operate	-8171
▁orleans	-8172
▁package	-8173
▁painted	-8174
▁physics	-8175
▁plastic	-8176
▁prepare	-8177
▁pushing	-8178
▁queries	-8179
▁radical	-8180
▁ramirez	-8181
▁recipro	-8182
▁regimes	-8183
▁reserve	-8184
▁reviews	-8185
▁simpson	-8186
▁sparked	-8187
▁stepped	-8188
▁studios	-8189
▁summary	-8190
▁teacher	-8191
▁telecom	-8192
/2017-12/	-8193
▁acoustic	-8194
▁baseball	-8195
▁benjamin	-8196
▁cardinal	-8197
▁churches	-8198
▁circumst	-8199
▁civilian	-8200
▁coaching	-8201
▁commerce	-8202
▁concepts	-8203
▁creature	-8204
▁crossing	-8205
▁damaging	-8206
▁database	-8207
▁donation	-8208
▁employee	-8209
▁famously	-8210
▁firearms	-8211
▁graphics	-8212
▁invasion	-8213
▁kerosene	-8214
▁mentally	-8215
▁monument	-8216
▁opinions	-8217
▁panthers	-8218
▁petition	-8219
▁policing	-8220
▁promises	-8221
▁regional	-8222
▁shocking	-8223
▁supplies	-8224
▁teaching	-8225
▁upcoming	-8226
washington	-8227
▁baltimore	-8228
▁clubhouse	-8229
▁component	-8230
▁contained	-8231
▁democracy	-8232
▁guarantee	-8233
▁increases	-8234
▁indicated	-8235
▁involving	-8236
▁lightning	-8237
▁louisiana	-8238
▁macarthur	-8239
▁neighbors	-8240
▁obamacare	-8241
▁occasions	-8242
▁permitted	-8243
▁primarily	-8244
▁requested	-8245
▁sentences	-8246
▁somewhere	-8247
▁surprised	-8248
▁tennessee	-8249
▁virtually	-8250
▁wisconsin	-8251
antiquities	-8252
▁animations	-8253
▁appearance	-8254
▁boundaries	-8255
▁celebrated	-8256
▁determined	-8257
▁eliminated	-8258
▁expression	-8259
▁highlights	-8260
▁incredible	-8261
▁incredibly	-8262
▁industries	-8263
▁introduced	-8264
▁nationwide	-8265
▁smartphone	-8266
▁threatened	-8267
▁withdrawal	-8268
▁competitors	-8269
▁conferences	-8270
▁corporation	-8271
▁destruction	-8272
▁extradition	-8273
▁ideological	-8274
▁impeachment	-8275
▁interactive	-8276
▁partnership	-8277
▁progressive	-8278
▁technically	-8279
▁temporarily	-8280
▁transaction	-8281
▁demonstrated	-8282
▁implementing	-8283
▁transparency	-8284
▁interventions	-8285
02	-8286
08	-8287
52	-8288
::	-8289
;"	-8290
],	-8291
bp	-8292
cf	-8293
hy	-8294
ii	-8295
js	-8296
kh	-8297
ée	-8298
íc	-8299
ún	-8300
▁κ	-8301
▁π	-8302
-19	-8303
21/	-8304
27/	-8305
40,	-8306
50,	-8307
aca	-8308
add	-8309
aho	-8310
ani	-8311
bab	-8312
cht	-8313
dog	-8314
ean	-8315
eed	-8316
ete	-8317
gra	-8318
iki	-8319
iot	-8320
iti	-8321
ius	-8322
jud	-8323
lat	-8324
mir	-8325
obb	-8326
olk	-8327
oma	-8328
php	-8329
raf	-8330
spe	-8331
suc	-8332
tax	-8333
too	-8334
ías	-8335
▁53	-8336
▁56	-8337
▁ih	-8338
▁ان	-8339
-424	-8340
alph	-8341
avor	-8342
bery	-8343
boks	-8344
cane	-8345
crit	-8346
ende	-8347
ente	-8348
file	-8349
hdad	-8350
idat	-8351
iden	-8352
klär	-8353
ksen	-8354
liur	-8355
mble	-8356
moud	-8357
nest	-8358
next	-8359
neys	-8360
oles	-8361
olic	-8362
paul	-8363
plan	-8364
plus	-8365
ppel	-8366
pret	-8367
reon	-8368
stud	-8369
uana	-8370
udes	-8371
ulty	-8372
wish	-8373
yeom	-8374
▁(2.	-8375
▁));	-8376
▁13,	-8377
▁15,	-8378
▁20%	-8379
▁21,	-8380
▁9/1	-8381
▁ale	-8382
▁bhí	-8383
▁bil	-8384
▁blo	-8385
▁cbs	-8386
▁cdu	-8387
▁dax	-8388
▁doj	-8389
▁eat	-8390
▁fat	-8391
▁faz	-8392
▁fel	-8393
▁gin	-8394
▁hir	-8395
▁hub	-8396
▁ico	-8397
▁jak	-8398
▁jur	-8399
▁kai	-8400
▁lev	-8401
▁mps	-8402
▁nhl	-8403
▁rok	-8404
▁sig	-8405
▁spr	-8406
abama	-8407
aldon	-8408
ashed	-8409
astro	-8410
black	-8411
celer	-8412
china	-8413
crash	-8414
elect	-8415
empor	-8416
entes	-8417
fatal	-8418
gling	-8419
great	-8420
group	-8421
haven	-8422
imony	-8423
isive	-8424
izoph	-8425
leted	-8426
liest	-8427
nored	-8428
orgia	-8429
othan	-8430
otted	-8431
oured	-8432
phoon	-8433
proof	-8434
redit	-8435
renia	-8436
roman	-8437
shore	-8438
tmann	-8439
udeau	-8440
uther	-8441
▁"""[	-8442
▁$0.3	-8443
▁2001	-8444
▁adam	-8445
▁aoun	-8446
▁años	-8447
▁bart	-8448
▁bias	-8449
▁bond	-8450
▁cath	-8451
▁cock	-8452
▁dies	-8453
▁echo	-8454
▁fare	-8455
▁fulf	-8456
▁gors	-8457
▁greg	-8458
▁guil	-8459
▁gust	-8460
▁josh	-8461
▁lady	-8462
▁lets	-8463
▁maps	-8464
▁math	-8465
▁mehr	-8466
▁mock	-8467
▁moto	-8468
▁node	-8469
▁peak	-8470
▁peer	-8471
▁pela	-8472
▁sets	-8473
▁snap	-8474
▁sons	-8475
▁soul	-8476
▁stur	-8477
▁toll	-8478
▁tone	-8479
▁urge	-8480
▁ward	-8481
▁wins	-8482
ancies	-8483
around	-8484
author	-8485
azione	-8486
before	-8487
deadly	-8488
during	-8489
endous	-8490
giving	-8491
herald	-8492
incial	-8493
liurfa	-8494
nation	-8495
ocrats	-8496
omsday	-8497
orders	-8498
ranked	-8499
veland	-8500
▁0.05%	-8501
▁1,000	-8502
▁accur	-8503
▁affir	-8504
▁arran	-8505
▁backl	-8506
▁begun	-8507
▁camps	-8508
▁chart	-8509
▁chose	-8510
▁chron	-8511
▁corps	-8512
▁cryst	-8513
▁cuomo	-8514
▁czech	-8515
▁daley	-8516
▁debut	-8517
▁depth	-8518
▁doors	-8519
▁drawn	-8520
▁enorm	-8521
▁forth	-8522
▁fried	-8523
▁hamda	-8524
▁hindu	-8525
▁horse	-8526
▁laura	-8527
▁login	-8528
▁lunch	-8529
▁miner	-8530
▁mobil	-8531
▁proxy	-8532
▁ralph	-8533
▁recon	-8534
▁rival	-8535
▁roinn	-8536
▁shine	-8537
▁simpl	-8538
▁spurs	-8539
▁stars	-8540
▁sweet	-8541
▁upper	-8542
▁visas	-8543
▁youth	-8544
comfort	-8545
company	-8546
izabeth	-8547
pective	-8548
plitude	-8549
selling	-8550
vereign	-8551
▁aryeom	-8552
▁ashley	-8553
▁assign	-8554
▁banner	-8555
▁beside	-8556
▁bitter	-8557
▁blamed	-8558
▁brings	-8559
▁casual	-8560
▁circle	-8561
▁clarke	-8562
▁dallas	-8563
▁daniel	-8564
▁doctor	-8565
▁exists	-8566
▁extent	-8567
▁extrem	-8568
▁flight	-8569
▁forgot	-8570
▁fossil	-8571
▁guards	-8572
▁handed	-8573
▁harvey	-8574
▁headed	-8575
▁hugely	-8576
▁humans	-8577
▁inevit	-8578
▁jacket	-8579
▁justin	-8580
▁lifted	-8581
▁narcot	-8582
▁packed	-8583
▁picked	-8584
▁prince	-8585
▁proven	-8586
▁racial	-8587
▁raises	-8588
▁riding	-8589
▁saudis	-8590
▁serves	-8591
▁shares	-8592
▁sophie	-8593
▁stance	-8594
▁static	-8595
▁supply	-8596
▁suprem	-8597
▁surviv	-8598
▁ticket	-8599
▁tunnel	-8600
▁visits	-8601
▁walked	-8602
▁werden	-8603
atherine	-8604
protests	-8605
standoff	-8606
ulations	-8607
▁acceler	-8608
▁alabama	-8609
▁anticip	-8610
▁arizona	-8611
▁arrival	-8612
▁baghdad	-8613
▁beckham	-8614
▁brandon	-8615
▁buccane	-8616
▁cameras	-8617
▁coaches	-8618
▁dissent	-8619
▁editing	-8620
▁fantasy	-8621
▁follows	-8622
▁gabriel	-8623
▁gorsuch	-8624
▁hardest	-8625
▁ignored	-8626
▁mahmoud	-8627
▁mortars	-8628
▁notable	-8629
▁oakland	-8630
▁ontario	-8631
▁penalty	-8632
▁postcss	-8633
▁pulling	-8634
▁rapidly	-8635
▁rebuild	-8636
▁reduced	-8637
▁russell	-8638
▁seasons	-8639
▁shouted	-8640
▁simonon	-8641
▁somehow	-8642
▁staying	-8643
▁storage	-8644
▁survive	-8645
▁sustain	-8646
▁theater	-8647
▁trudeau	-8648
▁typhoon	-8649
▁typical	-8650
▁wealthy	-8651
/2017-12-	-8652
democracy	-8653
instagram	-8654
▁category	-8655
▁commands	-8656
▁controls	-8657
▁covering	-8658
▁customer	-8659
▁doomsday	-8660
▁dropping	-8661
▁entering	-8662
▁entitled	-8663
▁entrants	-8664
▁exercise	-8665
▁expanded	-8666
▁exposing	-8667
▁freshman	-8668
▁friendly	-8669
▁guardian	-8670
▁hardware	-8671
▁holtmann	-8672
▁limiting	-8673
▁longtime	-8674
▁marginal	-8675
▁memories	-8676
▁mosquito	-8677
▁normally	-8678
▁ordinary	-8679
▁overseas	-8680
▁proposal	-8681
▁receiver	-8682
▁reducing	-8683
▁reopened	-8684
▁sentence	-8685
▁servants	-8686
▁somewhat	-8687
▁sponsors	-8688
▁stronger	-8689
▁supervis	-8690
▁symptoms	-8691
▁universe	-8692
▁whenever	-8693
▁wildlife	-8694
izophrenia	-8695
▁abandoned	-8696
▁barcelona	-8697
▁classroom	-8698
▁computers	-8699
▁consensus	-8700
▁contracts	-8701
▁criminals	-8702
▁defensive	-8703
▁diversity	-8704
▁employers	-8705
▁engineers	-8706
▁functions	-8707
▁household	-8708
▁illegally	-8709
▁lawmakers	-8710
▁nonprofit	-8711
▁northeast	-8712
▁performed	-8713
▁petroleum	-8714
▁preferred	-8715
▁prototype	-8716
▁sanliurfa	-8717
▁slaughter	-8718
▁sovereign	-8719
▁sustained	-8720
▁taxpayers	-8721
▁testimony	-8722
▁weinstein	-8723
▁yesterday	-8724
▁acceptable	-8725
▁apartments	-8726
▁appointees	-8727
▁appreciate	-8728
▁approaches	-8729
▁assistance	-8730
▁collecting	-8731
▁collection	-8732
▁communists	-8733
▁compatible	-8734
▁designated	-8735
▁developing	-8736
▁disturbing	-8737
▁excellence	-8738
▁greyhounds	-8739
▁healthcare	-8740
▁initiative	-8741
▁maintained	-8742
▁originally	-8743
▁phenomenon	-8744
▁physically	-8745
▁possession	-8746
▁propaganda	-8747
▁prosecutor	-8748
▁prototypes	-8749
▁publishing	-8750
▁reasonable	-8751
▁recognised	-8752
▁recreation	-8753
▁reputation	-8754
▁restaurant	-8755
▁springboks	-8756
▁subsequent	-8757
▁suggesting	-8758
▁touchdowns	-8759
▁transplant	-8760
▁tremendous	-8761
▁archaeology	-8762
▁blockchains	-8763
▁christopher	-8764
▁devastating	-8765
▁explanation	-8766
▁institution	-8767
▁investments	-8768
▁involvement	-8769
▁maintenance	-8770
▁medications	-8771
▁politically	-8772
▁replacement	-8773
▁substantial	-8774
▁associations	-8775
▁expectations	-8776
▁historically	-8777
▁implications	-8778
▁intellectual	-8779
▁performances	-8780
▁prosecutions	-8781
▁requirements	-8782
▁shareholders	-8783
▁transnational	-8784
.-	-8785
5/	-8786
di	-8787
dt	-8788
iw	-8789
lm	-8790
vc	-8791
ät	-8792
ün	-8793
دي	-8794
فر	-8795
▁σ	-8796
!).	-8797
/1.	-8798
/14	-8799
140	-8800
20%	-8801
26/	-8802
28/	-8803
=""	-8804
bra	-8805
edu	-8806
enh	-8807
esp	-8808
gie	-8809
gop	-8810
hur	-8811
ikh	-8812
isp	-8813
kom	-8814
lab	-8815
pow	-8816
tes	-8817
tle	-8818
tur	-8819
wat	-8820
yer	-8821
▁2-	-8822
▁5:	-8823
▁64	-8824
▁65	-8825
▁>>	-8826
▁fi	-8827
▁gp	-8828
▁ll	-8829
▁ly	-8830
▁ni	-8831
▁om	-8832
▁pb	-8833
▁qt	-8834
▁sb	-8835
▁xr	-8836
▁من	-8837
"";"	-8838
/176	-8839
/180	-8840
acle	-8841
agen	-8842
ahoo	-8843
anth	-8844
ardo	-8845
arks	-8846
best	-8847
brid	-8848
bury	-8849
cade	-8850
club	-8851
cust	-8852
ders	-8853
done	-8854
fast	-8855
ican	-8856
iffe	-8857
ioti	-8858
istí	-8859
itol	-8860
kman	-8861
many	-8862
mart	-8863
name	-8864
ncia	-8865
node	-8866
oret	-8867
osta	-8868
pack	-8869
phic	-8870
pton	-8871
real	-8872
rise	-8873
rose	-8874
stan	-8875
terr	-8876
umer	-8877
urek	-8878
user	-8879
uted	-8880
vada	-8881
vote	-8882
yard	-8883
ério	-8884
▁$15	-8885
▁$3.	-8886
▁$5.	-8887
▁$6,	-8888
▁$7,	-8889
▁$8.	-8890
▁1.2	-8891
▁12.	-8892
▁16,	-8893
▁24,	-8894
▁3.9	-8895
▁30-	-8896
▁ace	-8897
▁aet	-8898
▁ast	-8899
▁blm	-8900
▁bos	-8901
▁bul	-8902
▁cub	-8903
▁cul	-8904
▁flu	-8905
▁foi	-8906
▁gcc	-8907
▁gil	-8908
▁gps	-8909
▁hew	-8910
▁hog	-8911
▁inn	-8912
▁ire	-8913
▁jay	-8914
▁jog	-8915
▁kle	-8916
▁kot	-8917
▁lam	-8918
▁lun	-8919
▁mak	-8920
▁meg	-8921
▁pdf	-8922
▁rah	-8923
▁tai	-8924
▁upr	-8925
▁voc	-8926
▁wid	-8927
▁الت	-8928
aleza	-8929
angle	-8930
archy	-8931
atell	-8932
berts	-8933
chann	-8934
dling	-8935
doing	-8936
earls	-8937
eping	-8938
essed	-8939
happy	-8940
ierce	-8941
iking	-8942
inity	-8943
isons	-8944
likes	-8945
metoo	-8946
miami	-8947
ockey	-8948
owing	-8949
space	-8950
ubble	-8951
umber	-8952
▁2012	-8953
▁athe	-8954
▁barg	-8955
▁bayt	-8956
▁belt	-8957
▁bloc	-8958
▁brig	-8959
▁bust	-8960
▁chat	-8961
▁cups	-8962
▁dece	-8963
▁dirt	-8964
▁ease	-8965
▁evil	-8966
▁fame	-8967
▁fisa	-8968
▁forb	-8969
▁garc	-8970
▁gaza	-8971
▁glad	-8972
▁grup	-8973
▁guid	-8974
▁hota	-8975
▁kidd	-8976
▁lect	-8977
▁libr	-8978
▁logo	-8979
▁mail	-8980
▁oder	-8981
▁oide	-8982
▁pent	-8983
▁ramp	-8984
▁sanc	-8985
▁scal	-8986
▁shah	-8987
▁sono	-8988
▁stal	-8989
▁trou	-8990
▁unve	-8991
▁vent	-8992
▁wird	-8993
▁über	-8994
adelph	-8995
arthed	-8996
astern	-8997
behind	-8998
bourne	-8999
courts	-9000
encing	-9001
father	-9002
fields	-9003
friend	-9004
holder	-9005
ilarly	-9006
iminal	-9007
island	-9008
mented	-9009
ortion	-9010
proble	-9011
ribune	-9012
rifice	-9013
source	-9014
ultane	-9015
▁2012.	-9016
▁adams	-9017
▁ahmad	-9018
▁alloc	-9019
▁anton	-9020
▁arrow	-9021
▁asian	-9022
▁beast	-9023
▁biden	-9024
▁blind	-9025
▁brenn	-9026
▁cells	-9027
▁cheat	-9028
▁clark	-9029
▁creek	-9030
▁della	-9031
▁dereg	-9032
▁dimin	-9033
▁drops	-9034
▁dying	-9035
▁embed	-9036
▁hedge	-9037
▁hyatt	-9038
▁inbox	-9039
▁keeps	-9040
▁label	-9041
▁layer	-9042
▁liked	-9043
▁loves	-9044
▁merch	-9045
▁mines	-9046
▁minim	-9047
▁niger	-9048
▁novel	-9049
▁nurse	-9050
▁oblig	-9051
▁opens	-9052
▁pases	-9053
▁pavel	-9054
▁polar	-9055
▁punch	-9056
▁reads	-9057
▁risks	-9058
▁roman	-9059
▁ruled	-9060
▁sindh	-9061
▁stair	-9062
▁taste	-9063
▁theme	-9064
▁tourn	-9065
▁usual	-9066
▁weird	-9067
▁wives	-9068
achtell	-9069
control	-9070
driving	-9071
icholas	-9072
igation	-9073
itories	-9074
network	-9075
present	-9076
ruption	-9077
success	-9078
ubeidat	-9079
working	-9080
▁aethel	-9081
▁aliens	-9082
▁avenue	-9083
▁bloody	-9084
▁buried	-9085
▁chiang	-9086
▁comics	-9087
▁danger	-9088
▁dating	-9089
▁deemed	-9090
▁dispar	-9091
▁docker	-9092
▁enjoys	-9093
▁esquer	-9094
▁excess	-9095
▁finish	-9096
▁format	-9097
▁freely	-9098
▁fueron	-9099
▁funded	-9100
▁gained	-9101
▁guilty	-9102
▁gunman	-9103
▁harder	-9104
▁iconic	-9105
▁indict	-9106
▁invent	-9107
▁lothan	-9108
▁manner	-9109
▁nevada	-9110
▁obtain	-9111
▁orient	-9112
▁parent	-9113
▁patrol	-9114
▁pinned	-9115
▁plants	-9116
▁rifles	-9117
▁satell	-9118
▁server	-9119
▁shrink	-9120
▁staged	-9121
▁stages	-9122
▁steven	-9123
▁stocks	-9124
▁stolen	-9125
▁tenure	-9126
▁trials	-9127
▁wallet	-9128
▁wishes	-9129
adelphia	-9130
dictator	-9131
facebook	-9132
▁absence	-9133
▁anybody	-9134
▁assumed	-9135
▁authent	-9136
▁beneath	-9137
▁captain	-9138
▁capture	-9139
▁chamber	-9140
▁chronic	-9141
▁compare	-9142
▁compass	-9143
▁delayed	-9144
▁drawing	-9145
▁faculty	-9146
▁forever	-9147
▁grounds	-9148
▁hunting	-9149
▁intense	-9150
▁invalid	-9151
▁jeffrey	-9152
▁mandate	-9153
▁matches	-9154
▁milioti	-9155
▁pledged	-9156
▁portion	-9157
▁quietly	-9158
▁regions	-9159
▁roberts	-9160
▁rolling	-9161
▁seniors	-9162
▁sherman	-9163
▁shipped	-9164
▁solving	-9165
▁surging	-9166
▁theoret	-9167
▁tragedy	-9168
▁trigger	-9169
community	-9170
dcsheriff	-9171
efficient	-9172
▁advocacy	-9173
▁attitude	-9174
▁cemetery	-9175
▁ceremony	-9176
▁cocktail	-9177
▁compiled	-9178
▁drinking	-9179
▁educated	-9180
▁emerging	-9181
▁enormous	-9182
▁equality	-9183
▁flagship	-9184
▁frontier	-9185
▁graduate	-9186
▁guidance	-9187
▁heritage	-9188
▁informed	-9189
▁involves	-9190
▁lifetime	-9191
▁machines	-9192
▁maryland	-9193
▁militant	-9194
▁moreover	-9195
▁offshore	-9196
▁opposing	-9197
▁overlook	-9198
▁payments	-9199
▁pressing	-9200
▁prompted	-9201
▁refusing	-9202
▁relevant	-9203
▁resulted	-9204
▁selected	-9205
▁senators	-9206
▁strength	-9207
▁strongly	-9208
▁visitors	-9209
revolution	-9210
▁addressed	-9211
▁alongside	-9212
▁anonymous	-9213
▁audiences	-9214
▁authentic	-9215
▁cleveland	-9216
▁contacted	-9217
▁container	-9218
▁contempor	-9219
▁directors	-9220
▁discourse	-9221
▁discovery	-9222
▁elizabeth	-9223
▁emotional	-9224
▁encourage	-9225
▁excellent	-9226
▁fortaleza	-9227
▁hopefully	-9228
▁hurricane	-9229
▁instances	-9230
▁integrity	-9231
▁melbourne	-9232
▁methodist	-9233
▁movements	-9234
▁naturally	-9235
▁ourselves	-9236
▁oversight	-9237
▁processes	-9238
▁promising	-9239
▁promoting	-9240
▁promotion	-9241
▁selection	-9242
▁similarly	-9243
▁spotlight	-9244
▁succeeded	-9245
▁televised	-9246
▁temporary	-9247
▁territory	-9248
▁vacancies	-9249
▁validator	-9250
▁violation	-9251
▁wikileaks	-9252
theguardian	-9253
▁algorithms	-9254
▁birmingham	-9255
▁buccaneers	-9256
▁describing	-9257
▁encouraged	-9258
▁equivalent	-9259
▁escalation	-9260
▁explaining	-9261
▁extractive	-9262
▁laundering	-9263
▁meaningful	-9264
▁membership	-9265
▁misconduct	-9266
▁overseeing	-9267
▁popularity	-9268
▁procession	-9269
▁questioned	-9270
▁registered	-9271
▁struggling	-9272
▁accusations	-9273
▁bureaucracy	-9274
▁correlation	-9275
▁credibility	-9276
▁declaration	-9277
▁initiatives	-9278
▁westminster	-9279
investigation	-9280
▁acknowledged	-9281
▁developments	-9282
▁instructions	-9283
▁intersection	-9284
▁occasionally	-9285
▁overwhelming	-9286
▁partnerships	-9287
▁thanksgiving	-9288
▁circumstances	-9289
▁contributions	-9290
▁technological	-9291
▁representative	-9292
▁transportation	-9293
].	-9294
cp	-9295
cs	-9296
kr	-9297
ln	-9298
ox	-9299
wm	-9300
ło	-9301
ικ	-9302
ρο	-9303
▁ق	-9304
"">	-9305
/10	-9306
10.	-9307
20/	-9308
400	-9309
414	-9310
926	-9311
ahr	-9312
aku	-9313
amm	-9314
ara	-9315
awf	-9316
aye	-9317
bad	-9318
bus	-9319
cha	-9320
cla	-9321
cus	-9322
dam	-9323
ece	-9324
egg	-9325
god	-9326
him	-9327
hit	-9328
hna	-9329
igs	-9330
igt	-9331
ika	-9332
inj	-9333
jon	-9334
ker	-9335
lib	-9336
mor	-9337
nic	-9338
ois	-9339
oli	-9340
ols	-9341
pac	-9342
pat	-9343
phy	-9344
rum	-9345
ähr	-9346
▁**	-9347
▁54	-9348
▁57	-9349
▁85	-9350
▁9.	-9351
▁__	-9352
▁dv	-9353
▁ff	-9354
▁md	-9355
▁nu	-9356
▁ou	-9357
▁ré	-9358
abet	-9359
anim	-9360
area	-9361
bled	-9362
both	-9363
clos	-9364
deal	-9365
dist	-9366
dive	-9367
dney	-9368
edia	-9369
edin	-9370
erto	-9371
euro	-9372
fact	-9373
fers	-9374
gans	-9375
half	-9376
have	-9377
hrab	-9378
ifax	-9379
igin	-9380
iley	-9381
iola	-9382
ippi	-9383
issa	-9384
lost	-9385
make	-9386
mass	-9387
math	-9388
mite	-9389
open	-9390
orse	-9391
osen	-9392
ouch	-9393
phib	-9394
poin	-9395
pple	-9396
rect	-9397
rock	-9398
rous	-9399
rust	-9400
shon	-9401
site	-9402
soci	-9403
stra	-9404
subs	-9405
text	-9406
thur	-9407
tten	-9408
uins	-9409
umin	-9410
vedo	-9411
wear	-9412
wind	-9413
zing	-9414
äter	-9415
▁(11	-9416
▁1.5	-9417
▁13.	-9418
▁17-	-9419
▁bei	-9420
▁cbc	-9421
▁cen	-9422
▁cin	-9423
▁cpp	-9424
▁dil	-9425
▁dry	-9426
▁ell	-9427
▁enf	-9428
▁fgm	-9429
▁gdp	-9430
▁gem	-9431
▁gif	-9432
▁haz	-9433
▁hos	-9434
▁ian	-9435
▁iso	-9436
▁jin	-9437
▁kit	-9438
▁lav	-9439
▁lie	-9440
▁lyn	-9441
▁nan	-9442
▁nba	-9443
▁oaa	-9444
▁pec	-9445
▁scp	-9446
▁sei	-9447
▁sid	-9448
▁tag	-9449
▁tak	-9450
▁vox	-9451
▁zem	-9452
.'"""	-9453
acies	-9454
acles	-9455
ailed	-9456
ancou	-9457
anças	-9458
aping	-9459
armot	-9460
awfiq	-9461
baugh	-9462
check	-9463
epend	-9464
error	-9465
ersed	-9466
exper	-9467
grand	-9468
green	-9469
index	-9470
keyes	-9471
liner	-9472
ocial	-9473
oklyn	-9474
oness	-9475
osoph	-9476
plate	-9477
riers	-9478
somet	-9479
south	-9480
super	-9481
their	-9482
these	-9483
ucker	-9484
urned	-9485
▁15.3	-9486
▁18.0	-9487
▁1950	-9488
▁1970	-9489
▁1980	-9490
▁aber	-9491
▁adds	-9492
▁aver	-9493
▁beam	-9494
▁cane	-9495
▁chun	-9496
▁craw	-9497
▁dhom	-9498
▁dogs	-9499
▁duty	-9500
▁elev	-9501
▁epic	-9502
▁exec	-9503
▁finn	-9504
▁flaw	-9505
▁flex	-9506
▁fold	-9507
▁fork	-9508
▁fred	-9509
▁gini	-9510
▁grav	-9511
▁holy	-9512
▁hype	-9513
▁indo	-9514
▁irre	-9515
▁kann	-9516
▁kirk	-9517
▁lash	-9518
▁lies	-9519
▁mask	-9520
▁memo	-9521
▁mikh	-9522
▁mile	-9523
▁palm	-9524
▁plot	-9525
▁pope	-9526
▁pour	-9527
▁prin	-9528
▁proc	-9529
▁pupp	-9530
▁puzz	-9531
▁sant	-9532
▁shad	-9533
▁sick	-9534
▁sink	-9535
▁sogi	-9536
▁solo	-9537
▁sont	-9538
▁yose	-9539
50,000	-9540
aching	-9541
associ	-9542
astery	-9543
ceived	-9544
commod	-9545
cripts	-9546
econom	-9547
ethere	-9548
github	-9549
hnaill	-9550
iciary	-9551
icides	-9552
idades	-9553
iments	-9554
issues	-9555
lihood	-9556
mation	-9557
odynam	-9558
ounced	-9559
owners	-9560
played	-9561
record	-9562
refill	-9563
reness	-9564
shoots	-9565
thorne	-9566
ublica	-9567
▁0.08%	-9568
▁2,000	-9569
▁2011,	-9570
▁abbas	-9571
▁agric	-9572
▁album	-9573
▁alike	-9574
▁aspen	-9575
▁atlus	-9576
▁backb	-9577
▁badly	-9578
▁bajor	-9579
▁bills	-9580
▁bombs	-9581
▁bryan	-9582
▁burst	-9583
▁cease	-9584
▁demol	-9585
▁eleph	-9586
▁enemy	-9587
▁falls	-9588
▁fores	-9589
▁freem	-9590
▁genus	-9591
▁hayes	-9592
▁irish	-9593
▁kunin	-9594
▁laugh	-9595
▁maltz	-9596
▁merit	-9597
▁nader	-9598
▁onset	-9599
▁overd	-9600
▁overl	-9601
▁paulo	-9602
▁pelle	-9603
▁pharm	-9604
▁plain	-9605
▁ports	-9606
▁quart	-9607
▁razor	-9608
▁react	-9609
▁relax	-9610
▁saeed	-9611
▁santi	-9612
▁sarah	-9613
▁saved	-9614
▁schol	-9615
▁shake	-9616
▁sobre	-9617
▁solve	-9618
▁subpo	-9619
▁tests	-9620
▁tries	-9621
▁tronc	-9622
▁vegan	-9623
▁veloc	-9624
▁walks	-9625
▁winds	-9626
account	-9627
century	-9628
charged	-9629
current	-9630
donnell	-9631
ecutive	-9632
emption	-9633
ibtimes	-9634
inguish	-9635
invited	-9636
issippi	-9637
iteness	-9638
neutral	-9639
ocolate	-9640
popular	-9641
rential	-9642
running	-9643
seattle	-9644
service	-9645
univers	-9646
western	-9647
witness	-9648
▁50,000	-9649
▁admits	-9650
▁albeit	-9651
▁amphib	-9652
▁argues	-9653
▁arthur	-9654
▁assass	-9655
▁babies	-9656
▁banned	-9657
▁barric	-9658
▁boulev	-9659
▁brands	-9660
▁browne	-9661
▁bundes	-9662
▁cancer	-9663
▁colors	-9664
▁comedy	-9665
▁cotten	-9666
▁disput	-9667
▁draped	-9668
▁driver	-9669
▁erklär	-9670
▁fabric	-9671
▁facial	-9672
▁github	-9673
▁herald	-9674
▁hockey	-9675
▁hollow	-9676
▁incons	-9677
▁insist	-9678
▁invite	-9679
▁jewish	-9680
▁landed	-9681
▁loudon	-9682
▁michel	-9683
▁newton	-9684
▁pollak	-9685
▁profit	-9686
▁rarely	-9687
▁reddit	-9688
▁reopen	-9689
▁resign	-9690
▁scales	-9691
▁scores	-9692
▁spoken	-9693
▁stayed	-9694
▁stimul	-9695
▁string	-9696
▁submit	-9697
▁suffer	-9698
▁sydney	-9699
▁tawfiq	-9700
▁unfair	-9701
▁upline	-9702
▁vancou	-9703
▁voices	-9704
▁weiner	-9705
▁winner	-9706
▁الببغا	-9707
--------	-9708
blogspot	-9709
ductions	-9710
ethereum	-9711
heastern	-9712
independ	-9713
oriented	-9714
▁adopted	-9715
▁amongst	-9716
▁artific	-9717
▁capable	-9718
▁capitol	-9719
▁cardass	-9720
▁causing	-9721
▁centers	-9722
▁chances	-9723
▁chanted	-9724
▁clement	-9725
▁collaps	-9726
▁compell	-9727
▁designs	-9728
▁detroit	-9729
▁digging	-9730
▁disclos	-9731
▁diverse	-9732
▁dressed	-9733
▁element	-9734
▁embrace	-9735
▁enacted	-9736
▁enforce	-9737
▁enthusi	-9738
▁exports	-9739
▁factory	-9740
▁falling	-9741
▁flashes	-9742
▁flooded	-9743
▁georgia	-9744
▁gunfire	-9745
▁indiana	-9746
▁instant	-9747
▁invoked	-9748
▁joining	-9749
▁landing	-9750
▁landler	-9751
▁latimer	-9752
▁locally	-9753
▁mainnet	-9754
▁melissa	-9755
▁mikhail	-9756
▁militar	-9757
▁neutral	-9758
▁nigeria	-9759
▁oideach	-9760
▁outdoor	-9761
▁picking	-9762
▁poeppel	-9763
▁recruit	-9764
▁remarks	-9765
▁rushing	-9766
▁savings	-9767
▁spotted	-9768
▁strange	-9769
▁sympath	-9770
▁theatre	-9771
▁tourist	-9772
▁tunnels	-9773
▁winners	-9774
dailynews	-9775
isticated	-9776
political	-9777
telegraph	-9778
▁achieved	-9779
▁analysts	-9780
▁attached	-9781
▁attacked	-9782
▁bachtell	-9783
▁blocking	-9784
▁buckeyes	-9785
▁catastro	-9786
▁clothing	-9787
▁coinbase	-9788
▁deceased	-9789
▁delivers	-9790
▁detailed	-9791
▁discover	-9792
▁disorder	-9793
▁embedded	-9794
▁employed	-9795
▁esquerda	-9796
▁explicit	-9797
▁extended	-9798
▁formally	-9799
▁generate	-9800
▁husbands	-9801
▁imperial	-9802
▁judgment	-9803
▁medicine	-9804
▁pentagon	-9805
▁presents	-9806
▁prohibit	-9807
▁promoted	-9808
▁proteste	-9809
▁rational	-9810
▁receives	-9811
▁reserved	-9812
▁rotation	-9813
▁santiago	-9814
▁scenario	-9815
▁scottish	-9816
▁shootout	-9817
▁stirling	-9818
▁undermin	-9819
▁uprising	-9820
▁yosemite	-9821
▁zemarmot	-9822
acceptable	-9823
▁affecting	-9824
▁assistant	-9825
▁awareness	-9826
▁bernstein	-9827
▁catherine	-9828
▁chocolate	-9829
▁communism	-9830
▁comparing	-9831
▁dedicated	-9832
▁depending	-9833
▁describes	-9834
▁desperate	-9835
▁economies	-9836
▁economist	-9837
▁electoral	-9838
▁equipment	-9839
▁estimates	-9840
▁exchanges	-9841
▁exclusive	-9842
▁execution	-9843
▁expecting	-9844
▁extensive	-9845
▁gathering	-9846
▁governing	-9847
▁guardiola	-9848
▁interpret	-9849
▁jugadores	-9850
▁libraries	-9851
▁licensing	-9852
▁listening	-9853
▁militants	-9854
▁perfectly	-9855
▁precisely	-9856
▁proposals	-9857
▁provision	-9858
▁simultane	-9859
▁sponsored	-9860
▁staircase	-9861
▁suspended	-9862
▁telephone	-9863
▁vancouver	-9864
▁accessible	-9865
▁adaptation	-9866
▁addressing	-9867
▁associates	-9868
▁biological	-9869
▁collective	-9870
▁comparison	-9871
▁complexity	-9872
▁components	-9873
▁conducting	-9874
▁criticized	-9875
▁definition	-9876
▁dhomhnaill	-9877
▁facilities	-9878
▁fatalities	-9879
▁franchises	-9880
▁functional	-9881
▁helicopter	-9882
▁inevitable	-9883
▁inevitably	-9884
▁performers	-9885
▁politician	-9886
▁prevention	-9887
▁propublica	-9888
▁provincial	-9889
▁purchasing	-9890
▁screenshot	-9891
▁understood	-9892
▁achievement	-9893
▁acknowledge	-9894
▁celebrating	-9895
▁condolences	-9896
▁cooperation	-9897
▁intelligent	-9898
▁interaction	-9899
▁legislative	-9900
▁marketshare	-9901
▁participant	-9902
▁restaurants	-9903
▁territories	-9904
▁thermodynam	-9905
▁transferred	-9906
▁transparent	-9907
▁withdrawing	-9908
▁appalachians	-9909
▁championship	-9910
▁confidential	-9911
▁contemporary	-9912
▁evolutionary	-9913
▁experimental	-9914
▁restrictions	-9915
▁conversations	-9916
▁demonstrating	-9917
▁establishment	-9918
▁participation	-9919
▁schizophrenia	-9920
▁sophisticated	-9921
▁authentication	-9922
▁simultaneously	-9923
,0	-9924
2-	-9925
3-	-9926
61	-9927
71	-9928
</	-9929
](	-9930
aç	-9931
cu	-9932
gt	-9933
mr	-9934
pd	-9935
ui	-9936
uz	-9937
wc	-9938
zi	-9939
ór	-9940
ام	-9941
رو	-9942
ست	-9943
▁ج	-9944
▁ح	-9945
▁س	-9946
!!!	-9947
-10	-9948
-13	-9949
/28	-9950
130	-9951
320	-9952
504	-9953
900	-9954
984	-9955
aba	-9956
ahs	-9957
ahu	-9958
aki	-9959
amh	-9960
amo	-9961
aqu	-9962
aws	-9963
azz	-9964
cap	-9965
cat	-9966
cbs	-9967
cro	-9968
dex	-9969
dut	-9970
fts	-9971
fut	-9972
gaz	-9973
igr	-9974
isc	-9975
kar	-9976
llo	-9977
lor	-9978
mid	-9979
mot	-9980
mur	-9981
nie	-9982
oni	-9983
osa	-9984
ouc	-9985
pin	-9986
rup	-9987
sic	-9988
sit	-9989
tar	-9990
tro	-9991
uni	-9992
uto	-9993
xin	-9994
yet	-9995
ées	-9996
بير	-9997
▁$8	-9998
▁$9	-9999
▁58	-10000
▁67	-10001
▁95	-10002
▁aj	-10003
▁ax	-10004
▁dá	-10005
▁eğ	-10006
▁ft	-10007
▁rv	-10008
▁—–	-10009
/165	-10010
/18/	-10011
/612	-10012
/623	-10013
000-	-10014
000.	-10015
ails	-10016
arda	-10017
arre	-10018
aska	-10019
born	-10020
brit	-10021
coal	-10022
curl	-10023
deep	-10024
dell	-10025
dern	-10026
duty	-10027
east	-10028
enth	-10029
erts	-10030
este	-10031
expl	-10032
fair	-10033
feed	-10034
gery	-10035
help	-10036
hour	-10037
icia	-10038
icut	-10039
iere	-10040
iner	-10041
inge	-10042
inik	-10043
into	-10044
isis	-10045
jack	-10046
join	-10047
jähr	-10048
kind	-10049
kson	-10050
ktla	-10051
lass	-10052
left	-10053
lsea	-10054
mons	-10055
move	-10056
olla	-10057
omin	-10058
onts	-10059
orig	-10060
phee	-10061
pool	-10062
reds	-10063
rell	-10064
rome	-10065
safe	-10066
shel	-10067
sted	-10068
step	-10069
teen	-10070
then	-10071
true	-10072
uits	-10073
ules	-10074
ulpt	-10075
umul	-10076
wach	-10077
wage	-10078
wire	-10079
▁$11	-10080
▁$20	-10081
▁$5,	-10082
▁10-	-10083
▁10.	-10084
▁12-	-10085
▁125	-10086
▁17.	-10087
▁20-	-10088
▁ano	-10089
▁anx	-10090
▁aux	-10091
▁ave	-10092
▁awk	-10093
▁bnb	-10094
▁cow	-10095
▁dna	-10096
▁dow	-10097
▁eri	-10098
▁gui	-10099
▁gut	-10100
▁gym	-10101
▁hin	-10102
▁jar	-10103
▁jem	-10104
▁joy	-10105
▁kne	-10106
▁kos	-10107
▁kru	-10108
▁kup	-10109
▁mug	-10110
▁muj	-10111
▁npr	-10112
▁nut	-10113
▁raw	-10114
▁rin	-10115
▁scl	-10116
▁snp	-10117
▁são	-10118
▁tap	-10119
▁tay	-10120
▁tip	-10121
▁toy	-10122
▁unw	-10123
▁ves	-10124
▁vin	-10125
▁zur	-10126
alert	-10127
alous	-10128
andez	-10129
anton	-10130
bling	-10131
bring	-10132
chain	-10133
chron	-10134
echer	-10135
eland	-10136
email	-10137
encer	-10138
enger	-10139
erate	-10140
farda	-10141
gered	-10142
idays	-10143
illor	-10144
inois	-10145
istas	-10146
itung	-10147
lando	-10148
llers	-10149
olith	-10150
peter	-10151
polis	-10152
pound	-10153
ppled	-10154
scene	-10155
shirt	-10156
since	-10157
surpr	-10158
tting	-10159
uffle	-10160
ulent	-10161
úblic	-10162
▁100%	-10163
▁1930	-10164
▁2.9.	-10165
▁anch	-10166
▁bare	-10167
▁bast	-10168
▁belg	-10169
▁buzz	-10170
▁caps	-10171
▁ceni	-10172
▁chen	-10173
▁cous	-10174
▁edin	-10175
▁effe	-10176
▁elic	-10177
▁espa	-10178
▁glam	-10179
▁gray	-10180
▁habe	-10181
▁hart	-10182
▁hook	-10183
▁icon	-10184
▁ital	-10185
▁jake	-10186
▁jama	-10187
▁juan	-10188
▁kane	-10189
▁kath	-10190
▁khan	-10191
▁lamb	-10192
▁leak	-10193
▁leis	-10194
▁loop	-10195
▁lung	-10196
▁mara	-10197
▁marr	-10198
▁marx	-10199
▁mini	-10200
▁pear	-10201
▁pens	-10202
▁pret	-10203
▁qtum	-10204
▁quad	-10205
▁raid	-10206
▁sadd	-10207
▁salv	-10208
▁scan	-10209
▁slam	-10210
▁spac	-10211
▁sque	-10212
▁tatt	-10213
▁thir	-10214
▁tire	-10215
▁tons	-10216
▁toss	-10217
▁trav	-10218
▁urug	-10219
▁vari	-10220
▁vest	-10221
▁veto	-10222
▁weig	-10223
▁xbox	-10224
▁zomb	-10225
▁كبير	-10226
..."""	-10227
ailand	-10228
anteed	-10229
ashing	-10230
astics	-10231
asting	-10232
ateful	-10233
balled	-10234
burger	-10235
canada	-10236
casper	-10237
closed	-10238
ctuary	-10239
direct	-10240
effect	-10241
erated	-10242
estine	-10243
europe	-10244
funded	-10245
groups	-10246
hammer	-10247
ijuana	-10248
intell	-10249
iptomo	-10250
ischen	-10251
itious	-10252
minded	-10253
mobile	-10254
nesota	-10255
orship	-10256
osophy	-10257
outhis	-10258
overed	-10259
proper	-10260
rators	-10261
school	-10262
scious	-10263
secret	-10264
sexual	-10265
update	-10266
▁2010.	-10267
▁2018!	-10268
▁alarm	-10269
▁alpha	-10270
▁annoy	-10271
▁balls	-10272
▁blaze	-10273
▁blogs	-10274
▁bonus	-10275
▁brave	-10276
▁bruce	-10277
▁clamp	-10278
▁comic	-10279
▁conse	-10280
▁craig	-10281
▁depos	-10282
▁downs	-10283
▁dutch	-10284
▁eager	-10285
▁edges	-10286
▁einer	-10287
▁fancy	-10288
▁freep	-10289
▁funny	-10290
▁gegen	-10291
▁ghost	-10292
▁glenn	-10293
▁grass	-10294
▁griev	-10295
▁haben	-10296
▁hence	-10297
▁hoped	-10298
▁hydro	-10299
▁kenya	-10300
▁knife	-10301
▁lifts	-10302
▁liver	-10303
▁macon	-10304
▁marsh	-10305
▁miche	-10306
▁mined	-10307
▁mixed	-10308
▁plaza	-10309
▁prone	-10310
▁redes	-10311
▁reloc	-10312
▁renov	-10313
▁rifle	-10314
▁risen	-10315
▁rises	-10316
▁safer	-10317
▁saleh	-10318
▁scoil	-10319
▁scrip	-10320
▁spell	-10321
▁squad	-10322
▁stops	-10323
▁strat	-10324
▁surge	-10325
▁tends	-10326
▁tired	-10327
▁todos	-10328
▁tutor	-10329
▁valle	-10330
▁voter	-10331
▁vowed	-10332
▁wheel	-10333
acional	-10334
channel	-10335
cribing	-10336
erville	-10337
iciency	-10338
illiant	-10339
itative	-10340
onsense	-10341
picture	-10342
profess	-10343
profile	-10344
realdon	-10345
theless	-10346
through	-10347
▁bannon	-10348
▁beings	-10349
▁bitten	-10350
▁burial	-10351
▁carlos	-10352
▁castle	-10353
▁cheese	-10354
▁coding	-10355
▁columb	-10356
▁copper	-10357
▁defeat	-10358
▁define	-10359
▁engulf	-10360
▁expose	-10361
▁extend	-10362
▁feigin	-10363
▁formed	-10364
▁fundra	-10365
▁garcia	-10366
▁garner	-10367
▁grants	-10368
▁hitler	-10369
▁hudson	-10370
▁insult	-10371
▁iphone	-10372
▁jaeger	-10373
▁laskey	-10374
▁latter	-10375
▁manage	-10376
▁margin	-10377
▁mcphee	-10378
▁mercia	-10379
▁mirror	-10380
▁monaco	-10381
▁namely	-10382
▁orange	-10383
▁organs	-10384
▁parano	-10385
▁pepper	-10386
▁racist	-10387
▁ranked	-10388
▁recher	-10389
▁remote	-10390
▁satisf	-10391
▁scheme	-10392
▁scoile	-10393
▁silver	-10394
▁slides	-10395
▁speeds	-10396
▁strict	-10397
▁taiwan	-10398
▁twenty	-10399
▁unlock	-10400
▁upload	-10401
▁urbano	-10402
▁urgent	-10403
▁vessel	-10404
▁videot	-10405
▁worthy	-10406
aldtrump	-10407
discover	-10408
identité	-10409
ilingual	-10410
inikanth	-10411
intended	-10412
khamenei	-10413
republic	-10414
watching	-10415
▁academy	-10416
▁advisor	-10417
▁answers	-10418
▁aspects	-10419
▁awkward	-10420
▁barriss	-10421
▁brennan	-10422
▁caution	-10423
▁charity	-10424
▁chelsea	-10425
▁chicken	-10426
▁compens	-10427
▁comprom	-10428
▁consent	-10429
▁continu	-10430
▁courage	-10431
▁creator	-10432
▁crossed	-10433
▁crucial	-10434
▁dealers	-10435
▁dehaven	-10436
▁doubles	-10437
▁drivers	-10438
▁dynasty	-10439
▁edition	-10440
▁enables	-10441
▁endorse	-10442
▁enjoyed	-10443
▁expects	-10444
▁expense	-10445
▁exposed	-10446
▁facilit	-10447
▁founded	-10448
▁generic	-10449
▁halifax	-10450
▁hirshon	-10451
▁houthis	-10452
▁illness	-10453
▁imposed	-10454
▁indefin	-10455
▁ireland	-10456
▁lasting	-10457
▁legitim	-10458
▁lengthy	-10459
▁letters	-10460
▁libcurl	-10461
▁linking	-10462
▁marched	-10463
▁matched	-10464
▁mexican	-10465
▁mineral	-10466
▁pacific	-10467
▁packers	-10468
▁patreon	-10469
▁patriot	-10470
▁pending	-10471
▁permits	-10472
▁pitcher	-10473
▁placing	-10474
▁powered	-10475
▁privile	-10476
▁rainbow	-10477
▁rampant	-10478
▁regards	-10479
▁restore	-10480
▁returns	-10481
▁scoring	-10482
▁sectors	-10483
▁shocked	-10484
▁shooter	-10485
▁silence	-10486
▁statist	-10487
▁suicide	-10488
▁surface	-10489
▁surgery	-10490
▁terrain	-10491
▁tribute	-10492
▁trusted	-10493
▁uruguay	-10494
▁viewing	-10495
ettlement	-10496
unearthed	-10497
▁accepted	-10498
▁accommod	-10499
▁adoption	-10500
▁advances	-10501
▁advocate	-10502
▁arrivals	-10503
▁birthday	-10504
▁captains	-10505
▁catholic	-10506
▁cellular	-10507
▁contacts	-10508
▁counties	-10509
▁criptomo	-10510
▁deciding	-10511
▁decrease	-10512
▁defeated	-10513
▁defender	-10514
▁delivery	-10515
▁destabil	-10516
▁disagree	-10517
▁distinct	-10518
▁engaging	-10519
▁grenades	-10520
▁illinois	-10521
▁indicted	-10522
▁interpre	-10523
▁invested	-10524
▁managing	-10525
▁migrants	-10526
▁obtained	-10527
▁patterns	-10528
▁profiles	-10529
▁psychiat	-10530
▁rebounds	-10531
▁recalled	-10532
▁robinson	-10533
▁settings	-10534
▁shoulder	-10535
▁starters	-10536
▁steelers	-10537
▁stranger	-10538
▁survival	-10539
▁survived	-10540
▁suspects	-10541
▁tensions	-10542
▁throness	-10543
▁ultimate	-10544
▁undersco	-10545
▁violated	-10546
▁websites	-10547
corruption	-10548
foundation	-10549
▁aethelred	-10550
▁arguments	-10551
▁assertion	-10552
▁associate	-10553
▁bitrefill	-10554
▁cambridge	-10555
▁concealed	-10556
▁conflicts	-10557
▁construct	-10558
▁dependent	-10559
▁detention	-10560
▁dismissed	-10561
▁edinburgh	-10562
▁efference	-10563
▁efficient	-10564
▁financing	-10565
▁forgotten	-10566
▁hashgraph	-10567
▁hawthorne	-10568
▁identical	-10569
▁installed	-10570
▁intention	-10571
▁investing	-10572
▁islanders	-10573
▁mikhailov	-10574
▁mortality	-10575
▁motorcade	-10576
▁mountains	-10577
▁offseason	-10578
▁prisoners	-10579
▁producers	-10580
▁providers	-10581
▁recovered	-10582
▁reluctant	-10583
▁rendering	-10584
▁renewable	-10585
▁retailers	-10586
▁scattered	-10587
▁strongest	-10588
▁struggles	-10589
▁unlimited	-10590
▁unpopular	-10591
▁whiteness	-10592
▁witnessed	-10593
▁wonderful	-10594
comfortable	-10595
information	-10596
livescience	-10597
▁advantages	-10598
▁altogether	-10599
▁assumption	-10600
▁cemeteries	-10601
▁committees	-10602
▁comprehens	-10603
▁connecting	-10604
▁correction	-10605
▁delivering	-10606
▁discipline	-10607
▁economists	-10608
▁engagement	-10609
▁extraordin	-10610
▁frustrated	-10611
▁grievances	-10612
▁guaranteed	-10613
▁historians	-10614
▁liberation	-10615
▁newspapers	-10616
▁oideachais	-10617
▁philosophy	-10618
▁productive	-10619
▁punishment	-10620
▁razorbacks	-10621
▁remarkable	-10622
▁remembered	-10623
▁restricted	-10624
▁scientific	-10625
▁strategies	-10626
▁structures	-10627
▁surrounded	-10628
▁suspicious	-10629
▁tournament	-10630
▁williamson	-10631
/2017/12/19/	-10632
prostitution	-10633
▁appointment	-10634
▁coefficient	-10635
▁congressman	-10636
▁consecutive	-10637
▁controversy	-10638
▁distinguish	-10639
▁exploration	-10640
▁integration	-10641
▁methodology	-10642
▁photographs	-10643
▁protections	-10644
▁rajinikanth	-10645
▁reciprocity	-10646
▁requirement	-10647
▁smartphones	-10648
▁traffickers	-10649
▁transformed	-10650
▁understands	-10651
▁achievements	-10652
▁additionally	-10653
▁commissioner	-10654
▁contribution	-10655
▁contributors	-10656
▁deliberately	-10657
▁nevertheless	-10658
▁paramilitary	-10659
▁presentation	-10660
▁publications	-10661
▁respectively	-10662
▁surprisingly	-10663
▁temperatures	-10664
▁unidentified	-10665
▁collaboration	-10666
▁corresponding	-10667
▁documentation	-10668
▁neighborhoods	-10669
▁notifications	-10670
▁participating	-10671
▁professionals	-10672
▁reinforcement	-10673
realdonaldtrump	-10674
▁slaughterhouse	-10675
*:	-10676
+,	-10677
-7	-10678
."	-10679
/8	-10680
0)	-10681
04	-10682
6-	-10683
8/	-10684
ei	-10685
ey	-10686
hq	-10687
jc	-10688
jf	-10689
jp	-10690
pb	-10691
uy	-10692
zg	-10693
än	-10694
ém	-10695
én	-10696
ña	-10697
τε	-10698
اك	-10699
ند	-10700
نو	-10701
ية	-10702
ين	-10703
▁%	-10704
▁ä	-10705
-1.	-10706
-23	-10707
.5%	-10708
013	-10709
10,	-10710
15)	-10711
17.	-10712
22/	-10713
220	-10714
24/	-10715
26,	-10716
27.	-10717
290	-10718
345	-10719
386	-10720
700	-10721
860	-10722
890	-10723
968	-10724
ags	-10725
aha	-10726
ahn	-10727
amn	-10728
anz	-10729
aux	-10730
cnn	-10731
czy	-10732
dan	-10733
dep	-10734
eck	-10735
elf	-10736
gly	-10737
gow	-10738
hil	-10739
his	-10740
hon	-10741
iad	-10742
jan	-10743
kim	-10744
lot	-10745
maa	-10746
mod	-10747
oft	-10748
ola	-10749
orp	-10750
reo	-10751
roc	-10752
sac	-10753
sci	-10754
udo	-10755
unc	-10756
van	-10757
wid	-10758
wil	-10759
wns	-10760
ycl	-10761
äub	-10762
▁''	-10763
▁(7	-10764
▁5%	-10765
▁52	-10766
▁72	-10767
▁75	-10768
▁8:	-10769
▁mb	-10770
▁mt	-10771
▁pá	-10772
▁rp	-10773
▁sé	-10774
▁ui	-10775
▁vi	-10776
▁در	-10777
/174	-10778
/184	-10779
/185	-10780
acre	-10781
alny	-10782
anes	-10783
anna	-10784
asey	-10785
aspx	-10786
asse	-10787
atri	-10788
beek	-10789
boys	-10790
code	-10791
cops	-10792
cost	-10793
crat	-10794
cult	-10795
data	-10796
days	-10797
emes	-10798
ethe	-10799
fern	-10800
fill	-10801
hatt	-10802
held	-10803
hill	-10804
hors	-10805
iler	-10806
inas	-10807
inke	-10808
jvbu	-10809
liga	-10810
made	-10811
main	-10812
mani	-10813
mist	-10814
moon	-10815
mull	-10816
muth	-10817
nedy	-10818
oard	-10819
ocus	-10820
oded	-10821
oirí	-10822
oler	-10823
ooth	-10824
oyed	-10825
paid	-10826
pers	-10827
pert	-10828
plat	-10829
pled	-10830
pred	-10831
qual	-10832
rets	-10833
sing	-10834
soft	-10835
swat	-10836
take	-10837
tico	-10838
ught	-10839
uttg	-10840
wart	-10841
ític	-10842
▁$24	-10843
▁11.	-10844
▁250	-10845
▁26.	-10846
▁28-	-10847
▁baz	-10848
▁bot	-10849
▁ces	-10850
▁chu	-10851
▁cou	-10852
▁cyn	-10853
▁doe	-10854
▁dus	-10855
▁dys	-10856
▁err	-10857
▁fdp	-10858
▁gad	-10859
▁gao	-10860
▁gla	-10861
▁gum	-10862
▁hip	-10863
▁hug	-10864
▁iii	-10865
▁jen	-10866
▁jou	-10867
▁kay	-10868
▁kaz	-10869
▁kil	-10870
▁kin	-10871
▁kmd	-10872
▁kon	-10873
▁kyc	-10874
▁lei	-10875
▁lik	-10876
▁lsk	-10877
▁maj	-10878
▁mcc	-10879
▁naj	-10880
▁neu	-10881
▁nfc	-10882
▁nie	-10883
▁nik	-10884
▁nin	-10885
▁nps	-10886
▁ohr	-10887
▁pew	-10888
▁poc	-10889
▁prz	-10890
▁pul	-10891
▁rab	-10892
▁rae	-10893
▁tea	-10894
▁tec	-10895
▁tox	-10896
▁vic	-10897
▁viv	-10898
▁vow	-10899
▁wpr	-10900
▁الع	-10901
allah	-10902
aning	-10903
arded	-10904
arton	-10905
atisf	-10906
court	-10907
ensed	-10908
enses	-10909
erald	-10910
escal	-10911
eurek	-10912
fires	-10913
glect	-10914
goers	-10915
grave	-10916
greek	-10917
haust	-10918
hears	-10919
hroom	-10920
idate	-10921
ilton	-10922
inced	-10923
ioned	-10924
issue	-10925
iters	-10926
itzer	-10927
iwack	-10928
knife	-10929
langu	-10930
lfare	-10931
liche	-10932
oreal	-10933
orrow	-10934
overs	-10935
parts	-10936
piece	-10937
ports	-10938
price	-10939
print	-10940
quest	-10941
quist	-10942
rayed	-10943
reoty	-10944
revue	-10945
riors	-10946
river	-10947
scope	-10948
ships	-10949
stage	-10950
start	-10951
three	-10952
uated	-10953
unity	-10954
valid	-10955
water	-10956
▁$11,	-10957
▁1/50	-10958
▁1996	-10959
▁2.10	-10960
▁2/50	-10961
▁2002	-10962
▁3/50	-10963
▁4/50	-10964
▁5/50	-10965
▁6/50	-10966
▁7/50	-10967
▁8/50	-10968
▁9/50	-10969
▁ante	-10970
▁auss	-10971
▁bind	-10972
▁bríd	-10973
▁caut	-10974
▁cens	-10975
▁clip	-10976
▁clue	-10977
▁crus	-10978
▁dans	-10979
▁dawn	-10980
▁earn	-10981
▁ears	-10982
▁fasc	-10983
▁fiat	-10984
▁fish	-10985
▁fled	-10986
▁func	-10987
▁gaps	-10988
▁gegl	-10989
▁geys	-10990
▁gift	-10991
▁gill	-10992
▁groß	-10993
▁gymn	-10994
▁hair	-10995
▁heal	-10996
▁helm	-10997
▁hern	-10998
▁hier	-10999
▁hipp	-11000
▁hort	-11001
▁huff	-11002
▁idex	-11003
▁incl	-11004
▁inhe	-11005
▁jean	-11006
▁jets	-11007
▁joke	-11008
▁jong	-11009
▁kerr	-11010
▁kiss	-11011
▁laug	-11012
▁loan	-11013
▁lobb	-11014
▁lore	-11015
▁lula	-11016
▁mars	-11017
▁meal	-11018
▁mens	-11019
▁menu	-11020
▁noah	-11021
▁país	-11022
▁pier	-11023
▁rear	-11024
▁rene	-11025
▁sear	-11026
▁shed	-11027
▁shir	-11028
▁stro	-11029
▁tips	-11030
▁tort	-11031
▁twin	-11032
▁unhe	-11033
▁unif	-11034
▁unre	-11035
▁vend	-11036
▁wing	-11037
▁zone	-11038
00,000	-11039
access	-11040
active	-11041
agogue	-11042
ailing	-11043
amento	-11044
apolis	-11045
arcity	-11046
assing	-11047
atican	-11048
backer	-11049
caller	-11050
caster	-11051
contro	-11052
cribed	-11053
docker	-11054
driven	-11055
enders	-11056
erving	-11057
future	-11058
hattan	-11059
iances	-11060
idemic	-11061
indust	-11062
inejad	-11063
isdict	-11064
ledger	-11065
lichen	-11066
lining	-11067
myster	-11068
ocaust	-11069
ologie	-11070
ontane	-11071
orflow	-11072
parish	-11073
please	-11074
produc	-11075
rahman	-11076
ranean	-11077
shirts	-11078
stefan	-11079
teenth	-11080
umping	-11081
untary	-11082
worker	-11083
▁0.07%	-11084
▁0.09%	-11085
▁0.20%	-11086
▁10/50	-11087
▁11/50	-11088
▁12/50	-11089
▁13/50	-11090
▁14/50	-11091
▁15/50	-11092
▁16/50	-11093
▁17/50	-11094
▁18/50	-11095
▁19/50	-11096
▁20/50	-11097
▁21/50	-11098
▁22/50	-11099
▁23/50	-11100
▁24/50	-11101
▁25/50	-11102
▁26/50	-11103
▁27/50	-11104
▁28/50	-11105
▁29/50	-11106
▁3,000	-11107
▁30/50	-11108
▁31/50	-11109
▁32/50	-11110
▁33/50	-11111
▁34/50	-11112
▁35/50	-11113
▁36/50	-11114
▁37/50	-11115
▁38/50	-11116
▁39/50	-11117
▁40/50	-11118
▁41/50	-11119
▁42/50	-11120
▁43/50	-11121
▁44/50	-11122
▁45/50	-11123
▁46/50	-11124
▁47/50	-11125
▁48/50	-11126
▁49/50	-11127
▁50/50	-11128
▁abbey	-11129
▁adopt	-11130
▁aller	-11131
▁andre	-11132
▁angle	-11133
▁angry	-11134
▁arsen	-11135
▁balko	-11136
▁bases	-11137
▁bells	-11138
▁blame	-11139
▁bloom	-11140
▁blown	-11141
▁boxes	-11142
▁brian	-11143
▁caval	-11144
▁chile	-11145
▁choos	-11146
▁comey	-11147
▁conan	-11148
▁conti	-11149
▁counc	-11150
▁cpusa	-11151
▁cruel	-11152
▁dates	-11153
▁deals	-11154
▁decor	-11155
▁dixon	-11156
▁dorud	-11157
▁effig	-11158
▁einem	-11159
▁elder	-11160
▁eller	-11161
▁envoy	-11162
▁essay	-11163
▁fault	-11164
▁gangs	-11165
▁habit	-11166
▁hanno	-11167
▁hesit	-11168
▁hikes	-11169
▁hills	-11170
▁inaug	-11171
▁instr	-11172
▁irreg	-11173
▁isles	-11174
▁logic	-11175
▁looph	-11176
▁maior	-11177
▁mohan	-11178
▁moroc	-11179
▁mummy	-11180
▁pants	-11181
▁parsi	-11182
▁plate	-11183
▁posed	-11184
▁poses	-11185
▁quint	-11186
▁rhett	-11187
▁rooms	-11188
▁route	-11189
▁sadiq	-11190
▁saint	-11191
▁seeks	-11192
▁sends	-11193
▁seoul	-11194
▁shoes	-11195
▁songs	-11196
▁stamp	-11197
▁tasks	-11198
▁tires	-11199
▁topic	-11200
▁trash	-11201
▁tresp	-11202
▁unlaw	-11203
▁unter	-11204
▁upset	-11205
▁wegen	-11206
▁wells	-11207
▁width	-11208
▁zinke	-11209
another	-11210
atorium	-11211
because	-11212
british	-11213
chinese	-11214
custody	-11215
defined	-11216
develop	-11217
ections	-11218
emperor	-11219
founder	-11220
icester	-11221
ictions	-11222
iculous	-11223
iliated	-11224
isation	-11225
latimes	-11226
mission	-11227
olithic	-11228
phoenix	-11229
quality	-11230
reement	-11231
respect	-11232
robbery	-11233
ropolis	-11234
ructive	-11235
society	-11236
strange	-11237
ttenham	-11238
unknown	-11239
uttgart	-11240
washing	-11241
wounded	-11242
written	-11243
▁abedin	-11244
▁aboard	-11245
▁amnest	-11246
▁arrive	-11247
▁baloch	-11248
▁basket	-11249
▁bolton	-11250
▁breach	-11251
▁breaks	-11252
▁burden	-11253
▁burrow	-11254
▁chosen	-11255
▁cleric	-11256
▁clever	-11257
▁clinic	-11258
▁coffee	-11259
▁covers	-11260
▁covert	-11261
▁delete	-11262
▁divide	-11263
▁drives	-11264
▁emerge	-11265
▁equity	-11266
▁escort	-11267
▁ethnic	-11268
▁exclud	-11269
▁exempt	-11270
▁exting	-11271
▁eğitim	-11272
▁fierce	-11273
▁garden	-11274
▁harris	-11275
▁hosted	-11276
▁infant	-11277
▁joumaa	-11278
▁kicked	-11279
▁kotaku	-11280
▁kruzen	-11281
▁kupfer	-11282
▁ladder	-11283
▁leeann	-11284
▁lifest	-11285
▁locals	-11286
▁magnet	-11287
▁measey	-11288
▁nicola	-11289
▁overth	-11290
▁phones	-11291
▁pirate	-11292
▁preced	-11293
▁pushes	-11294
▁quartz	-11295
▁quebec	-11296
▁ramsey	-11297
▁rating	-11298
▁repeal	-11299
▁retali	-11300
▁rolled	-11301
▁sacked	-11302
▁sensor	-11303
▁snakes	-11304
▁sophom	-11305
▁spirit	-11306
▁squand	-11307
▁suther	-11308
▁taylor	-11309
▁topics	-11310
▁tribal	-11311
▁tricky	-11312
▁unanim	-11313
▁verbal	-11314
▁verify	-11315
▁worksh	-11316
▁yemeni	-11317
ecessary	-11318
language	-11319
military	-11320
multiple	-11321
together	-11322
▁actress	-11323
▁amounts	-11324
▁antonio	-11325
▁applies	-11326
▁archive	-11327
▁assists	-11328
▁backing	-11329
▁battles	-11330
▁beliefs	-11331
▁besides	-11332
▁bombing	-11333
▁bowling	-11334
▁briefed	-11335
▁careful	-11336
▁casting	-11337
▁clarify	-11338
▁commons	-11339
▁congest	-11340
▁convinc	-11341
▁crystal	-11342
▁cssnext	-11343
▁defiant	-11344
▁desired	-11345
▁evolved	-11346
▁exhaust	-11347
▁exhibit	-11348
▁failing	-11349
▁forcing	-11350
▁germans	-11351
▁greatly	-11352
▁hackers	-11353
▁hackett	-11354
▁handful	-11355
▁harvard	-11356
▁hawkman	-11357
▁hostile	-11358
▁iceland	-11359
▁invaded	-11360
▁irrelev	-11361
▁kennedy	-11362
▁knowing	-11363
▁legally	-11364
▁lessons	-11365
▁lifting	-11366
▁lindner	-11367
▁loading	-11368
▁mediter	-11369
▁methods	-11370
▁midterm	-11371
▁millenn	-11372
▁monster	-11373
▁mystery	-11374
▁nanette	-11375
▁neglect	-11376
▁nominee	-11377
▁origins	-11378
▁outcome	-11379
▁partial	-11380
▁patrick	-11381
▁percept	-11382
▁pleased	-11383
▁polling	-11384
▁posting	-11385
▁praised	-11386
▁premier	-11387
▁preview	-11388
▁procure	-11389
▁profits	-11390
▁reconst	-11391
▁reforms	-11392
▁reveals	-11393
▁ronaldo	-11394
▁rulings	-11395
▁scaling	-11396
▁session	-11397
▁sincere	-11398
▁stagger	-11399
▁staging	-11400
▁startup	-11401
▁strikes	-11402
▁sylwest	-11403
▁testnet	-11404
▁trailer	-11405
▁tribune	-11406
▁vibrant	-11407
▁vincent	-11408
▁welfare	-11409
▁wermuth	-11410
▁wharton	-11411
▁whoever	-11412
▁worried	-11413
/2017/11/	-11414
hezbollah	-11415
▁accusing	-11416
▁airliner	-11417
▁annually	-11418
▁atlantic	-11419
▁backlash	-11420
▁barriers	-11421
▁battered	-11422
▁broadway	-11423
▁brooklyn	-11424
▁browsers	-11425
▁certific	-11426
▁columbia	-11427
▁convince	-11428
▁daylight	-11429
▁describe	-11430
▁designer	-11431
▁deviants	-11432
▁dialogue	-11433
▁distract	-11434
▁dominant	-11435
▁dynamics	-11436
▁emotions	-11437
▁engulfed	-11438
▁feminist	-11439
▁firmware	-11440
▁founding	-11441
▁franklin	-11442
▁frequent	-11443
▁holidays	-11444
▁informal	-11445
▁inherent	-11446
▁inspired	-11447
▁leverage	-11448
▁lorestan	-11449
▁mentions	-11450
▁mistakes	-11451
▁mushroom	-11452
▁operated	-11453
▁particle	-11454
▁partisan	-11455
▁performs	-11456
▁phonemes	-11457
▁playoffs	-11458
▁rankings	-11459
▁reaching	-11460
▁recruits	-11461
▁referred	-11462
▁registry	-11463
▁restored	-11464
▁reviewed	-11465
▁rewarded	-11466
▁scarcity	-11467
▁searches	-11468
▁sequence	-11469
▁shouting	-11470
▁slightly	-11471
▁slowdown	-11472
▁spectrum	-11473
▁stations	-11474
▁steering	-11475
▁stepdown	-11476
▁stereoty	-11477
▁striking	-11478
▁studying	-11479
▁sturgeon	-11480
▁suddenly	-11481
▁thailand	-11482
▁tomorrow	-11483
▁trumpgop	-11484
▁tweeting	-11485
▁underway	-11486
▁unveiled	-11487
▁updating	-11488
▁velocity	-11489
▁versions	-11490
▁warnings	-11491
eurekalert	-11492
▁aftermath	-11493
▁afterward	-11494
▁ambitious	-11495
▁analytics	-11496
▁anonymity	-11497
▁augmented	-11498
▁automated	-11499
▁ballistic	-11500
▁boulevard	-11501
▁brilliant	-11502
▁condemned	-11503
▁convicted	-11504
▁convinced	-11505
▁declaring	-11506
▁diagnosed	-11507
▁disappear	-11508
▁discredit	-11509
▁displayed	-11510
▁donations	-11511
▁editorial	-11512
▁exception	-11513
▁excessive	-11514
▁explosion	-11515
▁extension	-11516
▁factories	-11517
▁followers	-11518
▁guardians	-11519
▁homicides	-11520
▁immigrant	-11521
▁inclusive	-11522
▁infection	-11523
▁integrate	-11524
▁jefferson	-11525
▁judiciary	-11526
▁liquidity	-11527
▁marijuana	-11528
▁materials	-11529
▁mechanics	-11530
▁minnesota	-11531
▁notorious	-11532
▁objective	-11533
▁pakistani	-11534
▁preparing	-11535
▁principle	-11536
▁privately	-11537
▁recalling	-11538
▁recording	-11539
▁residence	-11540
▁resisting	-11541
▁revellers	-11542
▁reviewers	-11543
▁sacrifice	-11544
▁sanctuary	-11545
▁satellite	-11546
▁scientist	-11547
▁shootings	-11548
▁stuttgart	-11549
▁successor	-11550
▁survivors	-11551
▁synagogue	-11552
▁technique	-11553
▁testifies	-11554
▁tottenham	-11555
▁traumatic	-11556
▁triggered	-11557
▁warhammer	-11558
▁acceptance	-11559
▁advocating	-11560
▁bundesliga	-11561
▁capability	-11562
▁charleston	-11563
▁compliance	-11564
▁distribute	-11565
▁efficiency	-11566
▁encourages	-11567
▁frameworks	-11568
▁gymnastics	-11569
▁integrated	-11570
▁interstate	-11571
▁literature	-11572
▁manchester	-11573
▁objectives	-11574
▁organizers	-11575
▁preventing	-11576
▁prosperity	-11577
▁recognized	-11578
▁sanctioned	-11579
▁skepticism	-11580
▁sutherland	-11581
▁tensorflow	-11582
▁undermined	-11583
▁université	-11584
▁visibility	-11585
intelligence	-11586
iranprotests	-11587
▁ahmadinejad	-11588
▁billionaire	-11589
▁centralized	-11590
▁connecticut	-11591
▁consumption	-11592
▁empowerment	-11593
▁festivities	-11594
▁functioning	-11595
▁influential	-11596
▁interagency	-11597
▁legislature	-11598
▁limitations	-11599
▁mississippi	-11600
▁newsletters	-11601
▁perspective	-11602
▁predictions	-11603
▁prosecution	-11604
▁represented	-11605
▁shareholder	-11606
▁technocrats	-11607
▁transported	-11608
▁appreciation	-11609
▁environments	-11610
▁humanitarian	-11611
▁philadelphia	-11612
▁championships	-11613
▁consideration	-11614
▁mediterranean	-11615
▁organisations	-11616
▁traditionally	-11617
▁transitioning	-11618
!'	-11619
);	-11620
-8	-11621
.(	-11622
.1	-11623
.8	-11624
01	-11625
7/	-11626
]"	-11627
aq	-11628
bd	-11629
bn	-11630
eu	-11631
hz	-11632
ji	-11633
jn	-11634
mc	-11635
np	-11636
sd	-11637
uh	-11638
vs	-11639
wk	-11640
yy	-11641
óg	-11642
śn	-11643
ει	-11644
ρα	-11645
τα	-11646
اب	-11647
دا	-11648
شك	-11649
مي	-11650
هر	-11651
ود	-11652
وم	-11653
▁ó	-11654
-24	-11655
-45	-11656
-76	-11657
.).	-11658
00,	-11659
106	-11660
117	-11661
18-	-11662
180	-11663
184	-11664
260	-11665
270	-11666
303	-11667
329	-11668
34-	-11669
375	-11670
456	-11671
525	-11672
600	-11673
706	-11674
76,	-11675
793	-11676
840	-11677
866	-11678
904	-11679
919	-11680
955	-11681
959	-11682
990	-11683
afa	-11684
ako	-11685
aky	-11686
arn	-11687
asp	-11688
ava	-11689
bol	-11690
cna	-11691
cru	-11692
dav	-11693
edy	-11694
ekt	-11695
enf	-11696
err	-11697
eta	-11698
fig	-11699
fil	-11700
fla	-11701
flo	-11702
fta	-11703
gel	-11704
gon	-11705
hey	-11706
hez	-11707
hra	-11708
imo	-11709
kan	-11710
lah	-11711
len	-11712
mal	-11713
map	-11714
max	-11715
nia	-11716
niz	-11717
nob	-11718
nor	-11719
npr	-11720
omp	-11721
pan	-11722
pit	-11723
pix	-11724
pur	-11725
ras	-11726
rex	-11727
rog	-11728
rop	-11729
rss	-11730
saf	-11731
sco	-11732
shr	-11733
tex	-11734
tha	-11735
thy	-11736
tré	-11737
upp	-11738
urd	-11739
vol	-11740
wah	-11741
xiv	-11742
zig	-11743
äld	-11744
ían	-11745
وني	-11746
▁1-	-11747
▁5-	-11748
▁68	-11749
▁9:	-11750
▁ct	-11751
▁dt	-11752
▁dú	-11753
▁fc	-11754
▁hi	-11755
▁mn	-11756
▁nc	-11757
▁ol	-11758
▁pd	-11759
▁rb	-11760
▁sr	-11761
▁ét	-11762
▁öğ	-11763
▁ελ	-11764
▁مع	-11765
2018	-11766
acha	-11767
ahaw	-11768
ahoe	-11769
alvo	-11770
anto	-11771
arab	-11772
arat	-11773
arta	-11774
aser	-11775
asia	-11776
aten	-11777
avin	-11778
awor	-11779
ayeb	-11780
azdi	-11781
bean	-11782
bron	-11783
cali	-11784
cand	-11785
clam	-11786
doch	-11787
erer	-11788
etts	-11789
fron	-11790
gard	-11791
glob	-11792
guns	-11793
hara	-11794
hate	-11795
heim	-11796
hero	-11797
hrat	-11798
iary	-11799
iche	-11800
icho	-11801
icks	-11802
icsc	-11803
icts	-11804
idia	-11805
iffs	-11806
igor	-11807
ilst	-11808
imag	-11809
imil	-11810
imir	-11811
info	-11812
isch	-11813
iser	-11814
izon	-11815
lern	-11816
lics	-11817
link	-11818
lymp	-11819
mare	-11820
mint	-11821
mitt	-11822
mund	-11823
norm	-11824
note	-11825
olan	-11826
olve	-11827
once	-11828
oned	-11829
opic	-11830
opol	-11831
orks	-11832
past	-11833
phob	-11834
poll	-11835
priv	-11836
prop	-11837
rain	-11838
ream	-11839
renz	-11840
reza	-11841
rior	-11842
rooz	-11843
rown	-11844
show	-11845
shut	-11846
sole	-11847
stri	-11848
stru	-11849
test	-11850
ulip	-11851
urov	-11852
usdt	-11853
vens	-11854
wall	-11855
waśn	-11856
xual	-11857
york	-11858
íomh	-11859
▁$23	-11860
▁$34	-11861
▁(3.	-11862
▁101	-11863
▁112	-11864
▁120	-11865
▁122	-11866
▁193	-11867
▁196	-11868
▁24-	-11869
▁30.	-11870
▁5.0	-11871
▁___	-11872
▁abb	-11873
▁abr	-11874
▁apk	-11875
▁ath	-11876
▁bip	-11877
▁biz	-11878
▁bog	-11879
▁być	-11880
▁chi	-11881
▁cit	-11882
▁cjf	-11883
▁cla	-11884
▁ctr	-11885
▁dak	-11886
▁dal	-11887
▁dez	-11888
▁eti	-11889
▁eug	-11890
▁fec	-11891
▁foo	-11892
▁gib	-11893
▁gle	-11894
▁gpu	-11895
▁ich	-11896
▁ina	-11897
▁kho	-11898
▁lau	-11899
▁mie	-11900
▁moa	-11901
▁mol	-11902
▁méd	-11903
▁nad	-11904
▁oxy	-11905
▁pag	-11906
▁ras	-11907
▁rex	-11908
▁roz	-11909
▁rpg	-11910
▁rud	-11911
▁sed	-11912
▁sic	-11913
▁sir	-11914
▁sne	-11915
▁spu	-11916
▁spy	-11917
▁sta	-11918
▁sue	-11919
▁uno	-11920
▁vez	-11921
▁vio	-11922
▁vip	-11923
▁wur	-11924
▁xrp	-11925
▁zsl	-11926
████	-11927
."")"	-11928
agwat	-11929
andal	-11930
annia	-11931
appro	-11932
ardon	-11933
arest	-11934
aretz	-11935
asses	-11936
aware	-11937
ayeby	-11938
brand	-11939
chers	-11940
coins	-11941
dding	-11942
depth	-11943
derer	-11944
eared	-11945
ecoin	-11946
ector	-11947
ellen	-11948
emiss	-11949
faces	-11950
games	-11951
grade	-11952
hetic	-11953
ibles	-11954
icion	-11955
ieren	-11956
ifact	-11957
ipher	-11958
islam	-11959
istle	-11960
japan	-11961
keley	-11962
lords	-11963
metry	-11964
ochta	-11965
ograf	-11966
omery	-11967
onial	-11968
ounce	-11969
oving	-11970
peace	-11971
porte	-11972
pract	-11973
priet	-11974
reach	-11975
recks	-11976
relig	-11977
techn	-11978
track	-11979
treas	-11980
uffed	-11981
ungen	-11982
usive	-11983
uting	-11984
utiny	-11985
views	-11986
vised	-11987
wered	-11988
wield	-11989
write	-11990
yahoo	-11991
yssey	-11992
zeige	-11993
zione	-11994
ência	-11995
úinte	-11996
▁$0.0	-11997
▁(117	-11998
▁10-0	-11999
▁1900	-12000
▁1985	-12001
▁1986	-12002
▁9/11	-12003
▁abst	-12004
▁aclu	-12005
▁aims	-12006
▁anne	-12007
▁asks	-12008
▁bede	-12009
▁beta	-12010
▁bras	-12011
▁cali	-12012
▁cann	-12013
▁colo	-12014
▁cord	-12015
▁dann	-12016
▁dave	-12017
▁dedu	-12018
▁dick	-12019
▁dome	-12020
▁eleg	-12021
▁ense	-12022
▁erad	-12023
▁erst	-12024
▁este	-12025
▁farm	-12026
▁fars	-12027
▁fide	-12028
▁flew	-12029
▁folk	-12030
▁grim	-12031
▁guit	-12032
▁hass	-12033
▁hike	-12034
▁hole	-12035
▁iowa	-12036
▁kali	-12037
▁kens	-12038
▁kern	-12039
▁khor	-12040
▁kiev	-12041
▁knee	-12042
▁koch	-12043
▁leon	-12044
▁leur	-12045
▁llev	-12046
▁lley	-12047
▁luis	-12048
▁maas	-12049
▁mick	-12050
▁mowa	-12051
▁nada	-12052
▁nats	-12053
▁nell	-12054
▁noch	-12055
▁odds	-12056
▁okay	-12057
▁oreg	-12058
▁oreo	-12059
▁pink	-12060
▁plum	-12061
▁pray	-12062
▁psol	-12063
▁pund	-12064
▁rape	-12065
▁robb	-12066
▁rodr	-12067
▁roof	-12068
▁ruth	-12069
▁sach	-12070
▁scar	-12071
▁seal	-12072
▁slot	-12073
▁spam	-12074
▁stap	-12075
▁sued	-12076
▁surg	-12077
▁swim	-12078
▁tape	-12079
▁tecn	-12080
▁thor	-12081
▁trab	-12082
▁tras	-12083
▁ucla	-12084
▁unse	-12085
▁unst	-12086
▁vert	-12087
▁viel	-12088
▁viet	-12089
▁vlad	-12090
▁wily	-12091
▁zack	-12092
advant	-12093
afford	-12094
ahawks	-12095
alling	-12096
angelo	-12097
antley	-12098
anyahu	-12099
aworld	-12100
bronze	-12101
burial	-12102
commer	-12103
config	-12104
denver	-12105
design	-12106
double	-12107
estone	-12108
follow	-12109
iating	-12110
ifacts	-12111
imient	-12112
itical	-12113
itudes	-12114
lahoma	-12115
living	-12116
marine	-12117
mirror	-12118
onesia	-12119
online	-12120
passed	-12121
posure	-12122
regard	-12123
renced	-12124
rition	-12125
russia	-12126
second	-12127
seller	-12128
spread	-12129
stones	-12130
tering	-12131
things	-12132
turkey	-12133
usters	-12134
videos	-12135
wahati	-12136
wealth	-12137
widdie	-12138
winter	-12139
▁2011;	-12140
▁2017:	-12141
▁2018?	-12142
▁2334-	-12143
▁abdel	-12144
▁abdol	-12145
▁acted	-12146
▁adequ	-12147
▁adult	-12148
▁alert	-12149
▁ammun	-12150
▁arbit	-12151
▁array	-12152
▁assam	-12153
▁autor	-12154
▁berry	-12155
▁billy	-12156
▁bites	-12157
▁bread	-12158
▁britt	-12159
▁bully	-12160
▁burns	-12161
▁chaos	-12162
▁chase	-12163
▁chili	-12164
▁chttp	-12165
▁civic	-12166
▁clang	-12167
▁compr	-12168
▁consc	-12169
▁coron	-12170
▁crews	-12171
▁crown	-12172
▁dance	-12173
▁daugh	-12174
▁deity	-12175
▁ditch	-12176
▁divid	-12177
▁drove	-12178
▁durov	-12179
▁einen	-12180
▁emigr	-12181
▁empir	-12182
▁entre	-12183
▁epoch	-12184
▁fails	-12185
▁fazli	-12186
▁frost	-12187
▁gavin	-12188
▁genet	-12189
▁genie	-12190
▁grade	-12191
▁greek	-12192
▁hague	-12193
▁harsh	-12194
▁hasta	-12195
▁highs	-12196
▁hijab	-12197
▁hypot	-12198
▁innoc	-12199
▁jesse	-12200
▁joaqu	-12201
▁kebab	-12202
▁keith	-12203
▁leeds	-12204
▁lewis	-12205
▁lists	-12206
▁logan	-12207
▁luxor	-12208
▁magic	-12209
▁males	-12210
▁meets	-12211
▁meses	-12212
▁nayeb	-12213
▁obser	-12214
▁olymp	-12215
▁opera	-12216
▁orche	-12217
▁osama	-12218
▁otros	-12219
▁ought	-12220
▁parce	-12221
▁patch	-12222
▁peaks	-12223
▁pearl	-12224
▁peers	-12225
▁phill	-12226
▁pione	-12227
▁pleas	-12228
▁pregn	-12229
▁realm	-12230
▁repet	-12231
▁reset	-12232
▁reson	-12233
▁restr	-12234
▁retro	-12235
▁reven	-12236
▁revis	-12237
▁risky	-12238
▁rolls	-12239
▁rosen	-12240
▁sandw	-12241
▁scram	-12242
▁sheep	-12243
▁ships	-12244
▁shops	-12245
▁sidel	-12246
▁silly	-12247
▁skill	-12248
▁slate	-12249
▁slave	-12250
▁slide	-12251
▁smear	-12252
▁smile	-12253
▁spear	-12254
▁stagn	-12255
▁storj	-12256
▁suits	-12257
▁swast	-12258
▁swept	-12259
▁swift	-12260
▁tanks	-12261
▁teeth	-12262
▁tempt	-12263
▁texts	-12264
▁toile	-12265
▁toxic	-12266
▁tribe	-12267
▁tuism	-12268
▁tuned	-12269
▁undoc	-12270
▁vocal	-12271
▁voxel	-12272
▁wound	-12273
▁yazdi	-12274
▁zhang	-12275
▁الاما	-12276
aborate	-12277
detroit	-12278
ductive	-12279
fecture	-12280
freedom	-12281
growing	-12282
hettino	-12283
holding	-12284
illions	-12285
iranian	-12286
itement	-12287
justice	-12288
maryamn	-12289
medical	-12290
oration	-12291
pacific	-12292
pendent	-12293
rection	-12294
rington	-12295
russian	-12296
springs	-12297
timesof	-12298
uggling	-12299
umented	-12300
▁abroad	-12301
▁advers	-12302
▁anchor	-12303
▁antiqu	-12304
▁barbie	-12305
▁behavi	-12306
▁borrow	-12307
▁bosses	-12308
▁breath	-12309
▁browns	-12310
▁buoyed	-12311
▁carved	-12312
▁charts	-12313
▁chiefs	-12314
▁colour	-12315
▁consol	-12316
▁delays	-12317
▁democr	-12318
▁depict	-12319
▁destro	-12320
▁diabet	-12321
▁dispro	-12322
▁dollar	-12323
▁dubbed	-12324
▁eating	-12325
▁eltern	-12326
▁entity	-12327
▁ermitt	-12328
▁eugene	-12329
▁europa	-12330
▁exempl	-12331
▁fisher	-12332
▁foster	-12333
▁fought	-12334
▁franco	-12335
▁fuller	-12336
▁grande	-12337
▁graphs	-12338
▁hazard	-12339
▁hearts	-12340
▁hiding	-12341
▁hybrid	-12342
▁incumb	-12343
▁inject	-12344
▁injust	-12345
▁intrig	-12346
▁ishrat	-12347
▁jailed	-12348
▁johnny	-12349
▁killer	-12350
▁komodo	-12351
▁ladies	-12352
▁leaked	-12353
▁legend	-12354
▁lesson	-12355
▁lineup	-12356
▁loving	-12357
▁maryam	-12358
▁masons	-12359
▁median	-12360
▁minder	-12361
▁minors	-12362
▁montré	-12363
▁morgan	-12364
▁motors	-12365
▁nicely	-12366
▁nvidia	-12367
▁oswald	-12368
▁output	-12369
▁pedest	-12370
▁permit	-12371
▁pledge	-12372
▁pocket	-12373
▁poised	-12374
▁poison	-12375
▁poland	-12376
▁precar	-12377
▁puerto	-12378
▁rachel	-12379
▁reader	-12380
▁relied	-12381
▁relies	-12382
▁repeat	-12383
▁repris	-12384
▁resent	-12385
▁revolt	-12386
▁ripped	-12387
▁ripple	-12388
▁rivals	-12389
▁rohrab	-12390
▁sabres	-12391
▁safely	-12392
▁salary	-12393
▁sculpt	-12394
▁shapes	-12395
▁silent	-12396
▁simone	-12397
▁snatch	-12398
▁streak	-12399
▁stroud	-12400
▁sweden	-12401
▁swings	-12402
▁tested	-12403
▁traded	-12404
▁trench	-12405
▁tribun	-12406
▁triple	-12407
▁upside	-12408
▁urging	-12409
▁versus	-12410
▁walker	-12411
▁waters	-12412
▁watson	-12413
▁whilst	-12414
▁worlds	-12415
ayebyazd	-12416
campaign	-12417
colorado	-12418
confront	-12419
december	-12420
downtown	-12421
emissary	-12422
entrevue	-12423
etheless	-12424
gressive	-12425
itheoirí	-12426
ographer	-12427
original	-12428
possible	-12429
reported	-12430
roozmand	-12431
waśniews	-12432
▁abating	-12433
▁alphago	-12434
▁amnesty	-12435
▁analyze	-12436
▁anytime	-12437
▁arguing	-12438
▁artwork	-12439
▁awarded	-12440
▁barford	-12441
▁bhagwat	-12442
▁blasted	-12443
▁blowing	-12444
▁breathe	-12445
▁briefly	-12446
▁broadly	-12447
▁cameron	-12448
▁candles	-12449
▁chaotic	-12450
▁cheaper	-12451
▁citylab	-12452
▁closest	-12453
▁colours	-12454
▁columns	-12455
▁combust	-12456
▁console	-12457
▁convert	-12458
▁damaged	-12459
▁declare	-12460
▁deepest	-12461
▁disalvo	-12462
▁downing	-12463
▁durante	-12464
▁empress	-12465
▁encount	-12466
▁enfants	-12467
▁equipos	-12468
▁eriksen	-12469
▁escaped	-12470
▁extinct	-12471
▁falcons	-12472
▁fastest	-12473
▁forming	-12474
▁fulfill	-12475
▁gardens	-12476
▁gilbert	-12477
▁glamour	-12478
▁hacking	-12479
▁handled	-12480
▁harmful	-12481
▁hatcher	-12482
▁heights	-12483
▁hewlett	-12484
▁immense	-12485
▁insults	-12486
▁jinping	-12487
▁kitchen	-12488
▁lleyton	-12489
▁lobbied	-12490
▁lowered	-12491
▁manages	-12492
▁minimal	-12493
▁mohamed	-12494
▁mothers	-12495
▁murdoch	-12496
▁natsume	-12497
▁navalny	-12498
▁notably	-12499
▁observe	-12500
▁persons	-12501
▁philipp	-12502
▁phrases	-12503
▁pirates	-12504
▁policía	-12505
▁posters	-12506
▁priorit	-12507
▁proclam	-12508
▁rahmani	-12509
▁ratings	-12510
▁recalls	-12511
▁recover	-12512
▁resolve	-12513
▁respite	-12514
▁scandal	-12515
▁sharply	-12516
▁shifted	-12517
▁signals	-12518
▁skilled	-12519
▁smoking	-12520
▁soldier	-12521
▁stating	-12522
▁studied	-12523
▁suffers	-12524
▁sunrise	-12525
▁trained	-12526
▁turismo	-12527
▁vermont	-12528
▁vietnam	-12529
▁wanting	-12530
▁whistle	-12531
▁writers	-12532
americans	-12533
ancements	-12534
companied	-12535
companies	-12536
criptions	-12537
generated	-12538
monastery	-12539
protected	-12540
qualified	-12541
▁accurate	-12542
▁aircraft	-12543
▁alternet	-12544
▁analyzed	-12545
▁answered	-12546
▁backbone	-12547
▁brantley	-12548
▁briefing	-12549
▁charging	-12550
▁cheating	-12551
▁commonly	-12552
▁constitu	-12553
▁contrary	-12554
▁demanded	-12555
▁dictator	-12556
▁disputed	-12557
▁divisive	-12558
▁earnings	-12559
▁elicited	-12560
▁embraced	-12561
▁epidemic	-12562
▁erickson	-12563
▁everyday	-12564
▁exceeded	-12565
▁failures	-12566
▁feminism	-12567
▁founders	-12568
▁gateways	-12569
▁genitals	-12570
▁grateful	-12571
▁guwahati	-12572
▁hamilton	-12573
▁harassed	-12574
▁hardline	-12575
▁harrison	-12576
▁horrible	-12577
▁incompet	-12578
▁intermed	-12579
▁landmark	-12580
▁lawsuits	-12581
▁lectures	-12582
▁licensed	-12583
▁limbaugh	-12584
▁litecoin	-12585
▁manually	-12586
▁massacre	-12587
▁meddling	-12588
▁medicare	-12589
▁midfield	-12590
▁mistaken	-12591
▁mortgage	-12592
▁navigate	-12593
▁nonsense	-12594
▁offender	-12595
▁operates	-12596
▁opponent	-12597
▁optional	-12598
▁ordering	-12599
▁overdose	-12600
▁painting	-12601
▁paranoia	-12602
▁patriots	-12603
▁pipeline	-12604
▁predomin	-12605
▁premiere	-12606
▁professe	-12607
▁propriet	-12608
▁pushback	-12609
▁regulate	-12610
▁relation	-12611
▁resigned	-12612
▁reversed	-12613
▁scrutiny	-12614
▁segments	-12615
▁shelters	-12616
▁shooters	-12617
▁spontane	-12618
▁startups	-12619
▁tourists	-12620
▁verified	-12621
▁vladimir	-12622
▁warriors	-12623
▁woodward	-12624
callernews	-12625
conference	-12626
generation	-12627
ographical	-12628
university	-12629
▁amplitude	-12630
▁appearing	-12631
▁armstrong	-12632
▁attacking	-12633
▁attorneys	-12634
▁barricade	-12635
▁bilateral	-12636
▁bloomberg	-12637
▁breakdown	-12638
▁britannia	-12639
▁canadians	-12640
▁chronicle	-12641
▁collector	-12642
▁colombian	-12643
▁countless	-12644
▁crackdown	-12645
▁criticize	-12646
▁daughters	-12647
▁departure	-12648
▁designers	-12649
▁designing	-12650
▁diagnosis	-12651
▁directing	-12652
▁disadvant	-12653
▁disclosed	-12654
▁displaced	-12655
▁dissatisf	-12656
▁dominance	-12657
▁dominated	-12658
▁economics	-12659
▁elaborate	-12660
▁extending	-12661
▁favorable	-12662
▁favorites	-12663
▁favourite	-12664
▁happiness	-12665
▁intensity	-12666
▁irregular	-12667
▁jurisdict	-12668
▁liberties	-12669
▁lifestyle	-12670
▁littleton	-12671
▁memorable	-12672
▁mortgages	-12673
▁netanyahu	-12674
▁nightmare	-12675
▁nominated	-12676
▁perceived	-12677
▁policemen	-12678
▁realistic	-12679
▁receivers	-12680
▁reopening	-12681
▁secondary	-12682
▁seemingly	-12683
▁sidelines	-12684
▁socialism	-12685
▁southeast	-12686
▁superstar	-12687
▁tolerance	-12688
▁travelers	-12689
▁travelled	-12690
▁unusually	-12691
▁variables	-12692
▁victories	-12693
▁voluntary	-12694
authorities	-12695
independent	-12696
stitutional	-12697
threatening	-12698
▁accomplish	-12699
▁aggressive	-12700
▁ammunition	-12701
▁amphibians	-12702
▁artificial	-12703
▁attempting	-12704
▁bureaucrat	-12705
▁chilliwack	-12706
▁coalfields	-12707
▁comparable	-12708
▁concerning	-12709
▁condemning	-12710
▁confronted	-12711
▁congestion	-12712
▁conviction	-12713
▁councillor	-12714
▁critically	-12715
▁deductions	-12716
▁disability	-12717
▁discounted	-12718
▁documented	-12719
▁electronic	-12720
▁elementary	-12721
▁evaluation	-12722
▁explorator	-12723
▁extinguish	-12724
▁eyewitness	-12725
▁harrington	-12726
▁indictment	-12727
▁instrument	-12728
▁kensington	-12729
▁likelihood	-12730
▁ministério	-12731
▁motivation	-12732
▁necropolis	-12733
▁nomination	-12734
▁oppression	-12735
▁peacefully	-12736
▁peppermint	-12737
▁persistent	-12738
▁pochettino	-12739
▁prefecture	-12740
▁presumably	-12741
▁recognizes	-12742
▁reductions	-12743
▁reelection	-12744
▁repression	-12745
▁snowballed	-12746
▁staggering	-12747
▁starfinder	-12748
▁sufficient	-12749
▁thankfully	-12750
/2017/12/28/	-12751
organization	-12752
▁agriculture	-12753
▁businessman	-12754
▁contractors	-12755
▁coordinator	-12756
▁differently	-12757
▁disappeared	-12758
▁documentary	-12759
▁electronics	-12760
▁elimination	-12761
▁encountered	-12762
▁encouraging	-12763
▁highlighted	-12764
▁maintaining	-12765
▁nonetheless	-12766
▁photography	-12767
▁populations	-12768
▁resolutions	-12769
▁retaliatory	-12770
▁rohrabacher	-12771
▁sovereignty	-12772
▁suppression	-12773
▁unnecessary	-12774
confrontation	-12775
international	-12776
▁accomplished	-12777
▁aggressively	-12778
▁appointments	-12779
▁capabilities	-12780
▁contributing	-12781
▁counterparts	-12782
▁difficulties	-12783
▁disabilities	-12784
▁indefinitely	-12785
▁individually	-12786
▁marginalized	-12787
▁resurrection	-12788
▁undocumented	-12789
archaeological	-12790
▁architectural	-12791
▁comprehensive	-12792
▁extraordinary	-12793
▁parliamentary	-12794
▁tuismitheoirí	-12795
maryamnayebyazd	-12796
▁archaeologists	-12797
▁representation	-12798
▁characteristics	-12799
▁criminalization	-12800
':	-12801
.:	-12802
2:	-12803
4-	-12804
8+	-12805
bf	-12806
rg	-12807
tı	-12808
uj	-12809
vr	-12810
wd	-12811
zh	-12812
äs	-12813
ów	-12814
ος	-12815
اس	-12816
بر	-12817
فة	-12818
نس	-12819
▁á	-12820
▁ο	-12821
▁ن	-12822
-""	-12823
.11	-12824
.56	-12825
/35	-12826
104	-12827
190	-12828
207	-12829
224	-12830
23.	-12831
240	-12832
250	-12833
256	-12834
28-	-12835
30,	-12836
330	-12837
475	-12838
481	-12839
505	-12840
513	-12841
623	-12842
745	-12843
752	-12844
854	-12845
944	-12846
956	-12847
960	-12848
abb	-12849
agr	-12850
akh	-12851
apa	-12852
avi	-12853
awn	-12854
bak	-12855
bay	-12856
bbi	-12857
bud	-12858
bye	-12859
cbc	-12860
chi	-12861
cop	-12862
cpp	-12863
deb	-12864
dev	-12865
dib	-12866
did	-12867
dig	-12868
dna	-12869
ecd	-12870
enz	-12871
esh	-12872
eze	-12873
fix	-12874
gwc	-12875
hni	-12876
huk	-12877
ibl	-12878
iga	-12879
igm	-12880
iii	-12881
imi	-12882
inf	-12883
ixo	-12884
iya	-12885
izw	-12886
jas	-12887
kad	-12888
kee	-12889
lav	-12890
low	-12891
mac	-12892
mah	-12893
mel	-12894
mik	-12895
nis	-12896
obh	-12897
occ	-12898
oil	-12899
olo	-12900
oly	-12901
orf	-12902
pak	-12903
plo	-12904
rne	-12905
rov	-12906
rus	-12907
sab	-12908
say	-12909
ses	-12910
sol	-12911
sta	-12912
try	-12913
uum	-12914
whe	-12915
yeh	-12916
yro	-12917
yst	-12918
zer	-12919
zzo	-12920
écn	-12921
önn	-12922
últ	-12923
دور	-12924
شكل	-12925
كون	-12926
يور	-12927
▁##	-12928
▁->	-12929
▁1)	-12930
▁3:	-12931
▁59	-12932
▁62	-12933
▁79	-12934
▁88	-12935
▁99	-12936
▁ci	-12937
▁fó	-12938
▁gb	-12939
▁mj	-12940
▁má	-12941
▁nj	-12942
▁rs	-12943
▁sf	-12944
▁sá	-12945
▁tn	-12946
▁wi	-12947
▁κα	-12948
▁με	-12949
▁στ	-12950
▁با	-12951
++11	-12952
-26.	-12953
/04/	-12954
/1.9	-12955
/149	-12956
/15/	-12957
/164	-12958
adan	-12959
adox	-12960
agle	-12961
agne	-12962
akut	-12963
anqu	-12964
asas	-12965
atha	-12966
aths	-12967
band	-12968
bank	-12969
bash	-12970
belt	-12971
bill	-12972
bite	-12973
bull	-12974
cash	-12975
chec	-12976
clar	-12977
coff	-12978
cook	-12979
cott	-12980
crow	-12981
ctic	-12982
dzie	-12983
edas	-12984
edes	-12985
eers	-12986
ektu	-12987
enem	-12988
eria	-12989
erpt	-12990
essa	-12991
esus	-12992
fake	-12993
fare	-12994
feld	-12995
food	-12996
gill	-12997
glom	-12998
gone	-12999
hama	-13000
haul	-13001
hein	-13002
hire	-13003
horn	-13004
http	-13005
icon	-13006
idos	-13007
igma	-13008
iker	-13009
impi	-13010
inho	-13011
inqu	-13012
iong	-13013
ioni	-13014
ipad	-13015
iras	-13016
isen	-13017
iste	-13018
ixby	-13019
izza	-13020
jeto	-13021
kana	-13022
kart	-13023
laim	-13024
lake	-13025
leib	-13026
lict	-13027
mess	-13028
mins	-13029
miss	-13030
muer	-13031
ncnp	-13032
neck	-13033
nung	-13034
ogun	-13035
omes	-13036
omot	-13037
opin	-13038
orch	-13039
otes	-13040
otta	-13041
ouds	-13042
ouga	-13043
prin	-13044
reen	-13045
risk	-13046
rows	-13047
rypt	-13048
sand	-13049
seld	-13050
sens	-13051
shek	-13052
surv	-13053
swns	-13054
tuls	-13055
type	-13056
uced	-13057
ulsa	-13058
umbr	-13059
umed	-13060
undo	-13061
upid	-13062
vict	-13063
vino	-13064
walk	-13065
weap	-13066
ymar	-13067
yrus	-13068
zeit	-13069
älde	-13070
íodo	-13071
▁"20	-13072
▁###	-13073
▁$12	-13074
▁$16	-13075
▁$26	-13076
▁$27	-13077
▁$40	-13078
▁(76	-13079
▁1.6	-13080
▁11-	-13081
▁14-	-13082
▁16.	-13083
▁160	-13084
▁188	-13085
▁19.	-13086
▁195	-13087
▁240	-13088
▁3.5	-13089
▁60-	-13090
▁600	-13091
▁aqu	-13092
▁atm	-13093
▁bsc	-13094
▁cel	-13095
▁cir	-13096
▁dia	-13097
▁dol	-13098
▁doo	-13099
▁dpa	-13100
▁ecu	-13101
▁egg	-13102
▁eid	-13103
▁eli	-13104
▁erg	-13105
▁fda	-13106
▁gat	-13107
▁gmt	-13108
▁gör	-13109
▁ifm	-13110
▁iot	-13111
▁kat	-13112
▁kns	-13113
▁lid	-13114
▁lod	-13115
▁luk	-13116
▁mha	-13117
▁mia	-13118
▁mok	-13119
▁nhs	-13120
▁nun	-13121
▁nyt	-13122
▁odo	-13123
▁owl	-13124
▁piv	-13125
▁pon	-13126
▁pse	-13127
▁pst	-13128
▁péd	-13129
▁qin	-13130
▁qué	-13131
▁rss	-13132
▁sci	-13133
▁seo	-13134
▁soo	-13135
▁sou	-13136
▁tri	-13137
▁tug	-13138
▁uns	-13139
▁vie	-13140
▁vik	-13141
▁wir	-13142
▁wre	-13143
▁yoy	-13144
▁yui	-13145
▁zap	-13146
▁الف	-13147
-2334	-13148
achta	-13149
achus	-13150
addum	-13151
adesh	-13152
adily	-13153
agent	-13154
aires	-13155
alive	-13156
alone	-13157
ambém	-13158
anein	-13159
arity	-13160
astes	-13161
atist	-13162
azole	-13163
brien	-13164
brook	-13165
chair	-13166
charl	-13167
chell	-13168
david	-13169
dream	-13170
drive	-13171
eling	-13172
enzie	-13173
erred	-13174
erset	-13175
erted	-13176
estab	-13177
eters	-13178
ettle	-13179
exist	-13180
faced	-13181
floor	-13182
fonts	-13183
fting	-13184
gence	-13185
giant	-13186
ginia	-13187
grace	-13188
grees	-13189
hello	-13190
heran	-13191
hlken	-13192
hoide	-13193
iates	-13194
ifics	-13195
inery	-13196
insky	-13197
ipzig	-13198
ishes	-13199
ismus	-13200
itate	-13201
large	-13202
liers	-13203
liter	-13204
maroc	-13205
mikem	-13206
month	-13207
mouth	-13208
oding	-13209
orate	-13210
ouses	-13211
overn	-13212
oween	-13213
owski	-13214
paper	-13215
pling	-13216
princ	-13217
radio	-13218
ranny	-13219
ratri	-13220
rente	-13221
rific	-13222
roned	-13223
round	-13224
shows	-13225
sized	-13226
sling	-13227
spect	-13228
stake	-13229
stedt	-13230
still	-13231
stock	-13232
table	-13233
uhito	-13234
unged	-13235
until	-13236
urred	-13237
vests	-13238
words	-13239
would	-13240
zouga	-13241
▁$11.	-13242
▁(1),	-13243
▁(113	-13244
▁(116	-13245
▁(118	-13246
▁1000	-13247
▁1993	-13248
▁2003	-13249
▁2007	-13250
▁9:00	-13251
▁aged	-13252
▁ages	-13253
▁aion	-13254
▁alan	-13255
▁alar	-13256
▁ange	-13257
▁anos	-13258
▁atop	-13259
▁aviv	-13260
▁bach	-13261
▁bags	-13262
▁bard	-13263
▁bass	-13264
▁beau	-13265
▁beds	-13266
▁beef	-13267
▁behr	-13268
▁bicy	-13269
▁bona	-13270
▁bram	-13271
▁brid	-13272
▁buen	-13273
▁bulk	-13274
▁buys	-13275
▁cada	-13276
▁calm	-13277
▁carp	-13278
▁carr	-13279
▁clay	-13280
▁cone	-13281
▁copa	-13282
▁cuba	-13283
▁daem	-13284
▁dale	-13285
▁dens	-13286
▁detr	-13287
▁dias	-13288
▁dife	-13289
▁dort	-13290
▁drum	-13291
▁dune	-13292
▁eins	-13293
▁enab	-13294
▁espn	-13295
▁feds	-13296
▁fing	-13297
▁flee	-13298
▁foal	-13299
▁fond	-13300
▁fool	-13301
▁foul	-13302
▁frag	-13303
▁fres	-13304
▁gaia	-13305
▁gary	-13306
▁geld	-13307
▁gest	-13308
▁gnar	-13309
▁gulf	-13310
▁hann	-13311
▁harb	-13312
▁hats	-13313
▁haul	-13314
▁holl	-13315
▁hood	-13316
▁icsc	-13317
▁ihre	-13318
▁jest	-13319
▁kcna	-13320
▁kfar	-13321
▁khoj	-13322
▁kolk	-13323
▁labs	-13324
▁ling	-13325
▁lion	-13326
▁maha	-13327
▁mamm	-13328
▁mant	-13329
▁mast	-13330
▁muit	-13331
▁nang	-13332
▁nash	-13333
▁nuls	-13334
▁nurs	-13335
▁oath	-13336
▁olig	-13337
▁outf	-13338
▁owen	-13339
▁owns	-13340
▁pays	-13341
▁pero	-13342
▁pine	-13343
▁pitt	-13344
▁pizz	-13345
▁podr	-13346
▁przy	-13347
▁puck	-13348
▁puja	-13349
▁pump	-13350
▁quds	-13351
▁rale	-13352
▁rams	-13353
▁reps	-13354
▁seam	-13355
▁slap	-13356
▁sudo	-13357
▁tang	-13358
▁tate	-13359
▁tath	-13360
▁tomb	-13361
▁touc	-13362
▁tube	-13363
▁técn	-13364
▁verb	-13365
▁wabi	-13366
▁wart	-13367
▁wenn	-13368
▁whit	-13369
▁yale	-13370
▁ying	-13371
accord	-13372
acious	-13373
acular	-13374
aratus	-13375
ardhan	-13376
asasif	-13377
ashore	-13378
asters	-13379
asthan	-13380
camera	-13381
centre	-13382
crisis	-13383
ensual	-13384
eração	-13385
estria	-13386
forces	-13387
guided	-13388
halten	-13389
hammad	-13390
happen	-13391
height	-13392
hniyeh	-13393
ifting	-13394
illery	-13395
import	-13396
inmate	-13397
ipedia	-13398
isible	-13399
ivated	-13400
locked	-13401
london	-13402
master	-13403
medium	-13404
minute	-13405
muerte	-13406
murder	-13407
orable	-13408
oucair	-13409
oxford	-13410
piring	-13411
player	-13412
rahorn	-13413
reilly	-13414
reveal	-13415
roller	-13416
rotain	-13417
shares	-13418
social	-13419
spoken	-13420
states	-13421
storey	-13422
street	-13423
strike	-13424
strual	-13425
ulator	-13426
usions	-13427
yellow	-13428
íticas	-13429
▁1,500	-13430
▁1.414	-13431
▁19-16	-13432
▁2002,	-13433
▁2002.	-13434
▁2004,	-13435
▁2008,	-13436
▁28-21	-13437
▁3-26.	-13438
▁5,000	-13439
▁aedes	-13440
▁ajmer	-13441
▁arxiv	-13442
▁audit	-13443
▁avant	-13444
▁backs	-13445
▁baker	-13446
▁banco	-13447
▁bands	-13448
▁basra	-13449
▁biles	-13450
▁bixby	-13451
▁blanc	-13452
▁bones	-13453
▁brick	-13454
▁byrne	-13455
▁cares	-13456
▁cargo	-13457
▁carib	-13458
▁cette	-13459
▁cheer	-13460
▁chips	-13461
▁choke	-13462
▁clone	-13463
▁colma	-13464
▁craft	-13465
▁crush	-13466
▁curry	-13467
▁datas	-13468
▁dealt	-13469
▁delic	-13470
▁delle	-13471
▁derek	-13472
▁dohuk	-13473
▁donde	-13474
▁donor	-13475
▁enact	-13476
▁energ	-13477
▁ether	-13478
▁excav	-13479
▁exits	-13480
▁fairy	-13481
▁farms	-13482
▁fence	-13483
▁fixes	-13484
▁fleet	-13485
▁flesh	-13486
▁flour	-13487
▁fount	-13488
▁geset	-13489
▁gifts	-13490
▁grove	-13491
▁grows	-13492
▁habib	-13493
▁halle	-13494
▁havoc	-13495
▁heath	-13496
▁heels	-13497
▁henry	-13498
▁hilar	-13499
▁homet	-13500
▁idiot	-13501
▁imbal	-13502
▁immer	-13503
▁indie	-13504
▁inhab	-13505
▁intim	-13506
▁invit	-13507
▁jason	-13508
▁jokes	-13509
▁keane	-13510
▁kerry	-13511
▁kyodo	-13512
▁lagos	-13513
▁leurs	-13514
▁lined	-13515
▁linux	-13516
▁loans	-13517
▁lucas	-13518
▁madan	-13519
▁manip	-13520
▁marce	-13521
▁marks	-13522
▁masks	-13523
▁meyer	-13524
▁minus	-13525
▁monet	-13526
▁nafta	-13527
▁nixon	-13528
▁nobel	-13529
▁opted	-13530
▁oswiu	-13531
▁paese	-13532
▁parte	-13533
▁paula	-13534
▁persu	-13535
▁polka	-13536
▁prima	-13537
▁rated	-13538
▁recur	-13539
▁remin	-13540
▁retal	-13541
▁ridge	-13542
▁rings	-13543
▁rocks	-13544
▁sachs	-13545
▁sauce	-13546
▁saves	-13547
▁serge	-13548
▁sjvbu	-13549
▁skull	-13550
▁socia	-13551
▁solar	-13552
▁steal	-13553
▁tamil	-13554
▁teret	-13555
▁tinha	-13556
▁trein	-13557
▁trent	-13558
▁tyres	-13559
▁usern	-13560
▁vague	-13561
▁vally	-13562
▁votto	-13563
▁wilds	-13564
▁xiong	-13565
▁yield	-13566
▁zebra	-13567
▁ägypt	-13568
against	-13569
annakut	-13570
appoint	-13571
appropr	-13572
artisan	-13573
assault	-13574
attacks	-13575
austral	-13576
central	-13577
changed	-13578
changes	-13579
chicago	-13580
cutting	-13581
forward	-13582
funding	-13583
general	-13584
grounds	-13585
haaretz	-13586
icating	-13587
ingshot	-13588
israeli	-13589
jadpour	-13590
keeping	-13591
leading	-13592
leibniz	-13593
leridge	-13594
located	-13595
ocratic	-13596
odyssey	-13597
ointing	-13598
orealis	-13599
osexual	-13600
parents	-13601
players	-13602
portion	-13603
project	-13604
ranging	-13605
rapping	-13606
redited	-13607
request	-13608
ressing	-13609
ributes	-13610
seldorf	-13611
shelved	-13612
special	-13613
umbling	-13614
vention	-13615
version	-13616
wachung	-13617
welcome	-13618
▁10,013	-13619
▁absurd	-13620
▁abuses	-13621
▁agrees	-13622
▁alaska	-13623
▁apenas	-13624
▁ballot	-13625
▁bancor	-13626
▁bodily	-13627
▁bomber	-13628
▁cannon	-13629
▁carter	-13630
▁chairs	-13631
▁chebbi	-13632
▁chemer	-13633
▁cinema	-13634
▁clampk	-13635
▁clouds	-13636
▁coffin	-13637
▁colony	-13638
▁commod	-13639
▁conced	-13640
▁convoy	-13641
▁costly	-13642
▁cousin	-13643
▁crispr	-13644
▁culmin	-13645
▁dakota	-13646
▁deeper	-13647
▁defect	-13648
▁disper	-13649
▁douche	-13650
▁duties	-13651
▁elites	-13652
▁empres	-13653
▁encomp	-13654
▁endure	-13655
▁enrich	-13656
▁exclus	-13657
▁expend	-13658
▁favors	-13659
▁filing	-13660
▁flavor	-13661
▁forged	-13662
▁freixo	-13663
▁fusion	-13664
▁futbol	-13665
▁gallup	-13666
▁gamers	-13667
▁grupos	-13668
▁gurley	-13669
▁handre	-13670
▁heaven	-13671
▁heroes	-13672
▁hertha	-13673
▁holder	-13674
▁indoor	-13675
▁intact	-13676
▁jacoby	-13677
▁jalapa	-13678
▁kirche	-13679
▁kosher	-13680
▁lament	-13681
▁larson	-13682
▁lasers	-13683
▁layers	-13684
▁lethal	-13685
▁liskhq	-13686
▁maasai	-13687
▁malala	-13688
▁masako	-13689
▁mattel	-13690
▁mercer	-13691
▁mihama	-13692
▁misman	-13693
▁modest	-13694
▁multip	-13695
▁needle	-13696
▁newegg	-13697
▁neymar	-13698
▁occurs	-13699
▁ooster	-13700
▁oppose	-13701
▁oxygen	-13702
▁paektu	-13703
▁paired	-13704
▁palais	-13705
▁panama	-13706
▁parker	-13707
▁philip	-13708
▁phrase	-13709
▁picard	-13710
▁posing	-13711
▁purple	-13712
▁páistí	-13713
▁pédiat	-13714
▁públic	-13715
▁qaddum	-13716
▁recess	-13717
▁rental	-13718
▁replic	-13719
▁retain	-13720
▁revive	-13721
▁rhodes	-13722
▁ritual	-13723
▁sahara	-13724
▁saints	-13725
▁sample	-13726
▁seinen	-13727
▁seized	-13728
▁serial	-13729
▁shadow	-13730
▁shells	-13731
▁sigmar	-13732
▁sindic	-13733
▁slaves	-13734
▁stored	-13735
▁stupid	-13736
▁sunset	-13737
▁sylmar	-13738
▁também	-13739
▁tended	-13740
▁therap	-13741
▁timing	-13742
▁tories	-13743
▁tranqu	-13744
▁trophy	-13745
▁vacuum	-13746
▁vastly	-13747
▁violet	-13748
▁waited	-13749
▁waiver	-13750
▁wooden	-13751
▁zucker	-13752
▁öğrenc	-13753
/2017/11	-13754
accounts	-13755
atorship	-13756
business	-13757
children	-13758
economic	-13759
errorism	-13760
exposure	-13761
fighting	-13762
function	-13763
heritage	-13764
historic	-13765
incident	-13766
inspired	-13767
iranians	-13768
neapolis	-13769
nicholas	-13770
ordinate	-13771
ortality	-13772
partisan	-13773
problems	-13774
security	-13775
specific	-13776
standard	-13777
violence	-13778
virginia	-13779
wielding	-13780
zubeidat	-13781
íomhoide	-13782
▁acevedo	-13783
▁admired	-13784
▁anxiety	-13785
▁authors	-13786
▁ballard	-13787
▁balogun	-13788
▁bardney	-13789
▁bargain	-13790
▁beloved	-13791
▁bicycle	-13792
▁bizarre	-13793
▁boasted	-13794
▁borders	-13795
▁budgets	-13796
▁calvino	-13797
▁careers	-13798
▁cassock	-13799
▁ceiling	-13800
▁checked	-13801
▁cluster	-13802
▁combine	-13803
▁concess	-13804
▁condemn	-13805
▁congres	-13806
▁constit	-13807
▁contrad	-13808
▁cowboys	-13809
▁crowded	-13810
▁cynical	-13811
▁damages	-13812
▁daytime	-13813
▁decides	-13814
▁default	-13815
▁degrees	-13816
▁deleted	-13817
▁delight	-13818
▁demoted	-13819
▁density	-13820
▁denying	-13821
▁devoted	-13822
▁devotee	-13823
▁direita	-13824
▁dismant	-13825
▁distant	-13826
▁dungeon	-13827
▁easiest	-13828
▁ecuador	-13829
▁edwards	-13830
▁elderly	-13831
▁elegant	-13832
▁endless	-13833
▁essence	-13834
▁ethical	-13835
▁evident	-13836
▁exagger	-13837
▁excerpt	-13838
▁expropr	-13839
▁fighter	-13840
▁figured	-13841
▁filling	-13842
▁findler	-13843
▁fintech	-13844
▁flagged	-13845
▁funeral	-13846
▁gaining	-13847
▁gallery	-13848
▁graphic	-13849
▁handgun	-13850
▁helipad	-13851
▁helpful	-13852
▁innings	-13853
▁insider	-13854
▁intrins	-13855
▁issuing	-13856
▁jakarta	-13857
▁jenkins	-13858
▁justine	-13859
▁kilomet	-13860
▁knocked	-13861
▁kolkata	-13862
▁lacking	-13863
▁larkana	-13864
▁leipzig	-13865
▁loyalty	-13866
▁mansour	-13867
▁mapimpi	-13868
▁marking	-13869
▁materia	-13870
▁mindset	-13871
▁modules	-13872
▁momento	-13873
▁murders	-13874
▁muskrat	-13875
▁papyrus	-13876
▁paradox	-13877
▁parnell	-13878
▁periods	-13879
▁persona	-13880
▁persone	-13881
▁período	-13882
▁pockets	-13883
▁pollard	-13884
▁primera	-13885
▁prisons	-13886
▁proving	-13887
▁publish	-13888
▁quantum	-13889
▁raleigh	-13890
▁reclaim	-13891
▁refuses	-13892
▁regency	-13893
▁rehears	-13894
▁robbins	-13895
▁rodgers	-13896
▁samples	-13897
▁servers	-13898
▁shaking	-13899
▁singles	-13900
▁spencer	-13901
▁sponsor	-13902
▁stalled	-13903
▁statute	-13904
▁stephan	-13905
▁sticker	-13906
▁stuffed	-13907
▁suppose	-13908
▁tathair	-13909
▁toppled	-13910
▁torches	-13911
▁traders	-13912
▁transit	-13913
▁travels	-13914
▁tripoli	-13915
▁tyranny	-13916
▁upgrade	-13917
▁utilize	-13918
▁vatican	-13919
▁vendors	-13920
▁venture	-13921
▁visions	-13922
▁warming	-13923
▁warrior	-13924
▁whereas	-13925
▁winston	-13926
▁wishing	-13927
▁wrapped	-13928
achusetts	-13929
agreement	-13930
artifacts	-13931
delivered	-13932
govardhan	-13933
important	-13934
overnight	-13935
sponsored	-13936
territory	-13937
terrorist	-13938
umberland	-13939
uncharted	-13940
▁abortion	-13941
▁animated	-13942
▁artworks	-13943
▁assigned	-13944
▁assorted	-13945
▁avoiding	-13946
▁backfire	-13947
▁berkeley	-13948
▁blending	-13949
▁borealis	-13950
▁branches	-13951
▁bushfire	-13952
▁canister	-13953
▁causeway	-13954
▁cautious	-13955
▁chilling	-13956
▁choosing	-13957
▁choucair	-13958
▁compares	-13959
▁counting	-13960
▁credited	-13961
▁devotees	-13962
▁diabetes	-13963
▁dirigent	-13964
▁displays	-13965
▁elephant	-13966
▁endanger	-13967
▁enhanced	-13968
▁ensuring	-13969
▁episodes	-13970
▁equipped	-13971
▁erklärte	-13972
▁exploded	-13973
▁feculent	-13974
▁finanças	-13975
▁formerly	-13976
▁fountain	-13977
▁globally	-13978
▁greening	-13979
▁hartford	-13980
▁hometown	-13981
▁hypothes	-13982
▁impunity	-13983
▁inciting	-13984
▁indicate	-13985
▁ingested	-13986
▁insights	-13987
▁instinct	-13988
▁isolated	-13989
▁jemalloc	-13990
▁lowering	-13991
▁makazole	-13992
▁matching	-13993
▁measured	-13994
▁merzouga	-13995
▁michelle	-13996
▁missions	-13997
▁montréal	-13998
▁moroccan	-13999
▁muhammad	-14000
▁nacional	-14001
▁naruhito	-14002
▁navratri	-14003
▁obsessed	-14004
▁oklahoma	-14005
▁optimism	-14006
▁organism	-14007
▁overhead	-14008
▁pittston	-14009
▁populist	-14010
▁princess	-14011
▁proceeds	-14012
▁protagon	-14013
▁referend	-14014
▁reflects	-14015
▁removing	-14016
▁reserves	-14017
▁resolved	-14018
▁revelers	-14019
▁russians	-14020
▁salaries	-14021
▁scholars	-14022
▁seahawks	-14023
▁seashore	-14024
▁sections	-14025
▁securing	-14026
▁sharpton	-14027
▁shedding	-14028
▁sinkhole	-14029
▁staffing	-14030
▁steadily	-14031
▁stressed	-14032
▁superior	-14033
▁symmetry	-14034
▁sympathe	-14035
▁tailored	-14036
▁template	-14037
▁touching	-14038
▁traveled	-14039
▁villages	-14040
▁warrants	-14041
▁wildfire	-14042
▁workflow	-14043
▁wormhole	-14044
mikemearls	-14045
muerteadas	-14046
surprising	-14047
tulsaworld	-14048
violations	-14049
waśniewski	-14050
▁accompany	-14051
▁achieving	-14052
▁alliances	-14053
▁apparatus	-14054
▁arbitrary	-14055
▁argentina	-14056
▁arresting	-14057
▁artillery	-14058
▁assaulted	-14059
▁assembled	-14060
▁atheisten	-14061
▁attending	-14062
▁attribute	-14063
▁basefonts	-14064
▁beginners	-14065
▁behaviour	-14066
▁benefited	-14067
▁bramstedt	-14068
▁brazilian	-14069
▁bushfires	-14070
▁calculate	-14071
▁centuries	-14072
▁certified	-14073
▁chemicals	-14074
▁collision	-14075
▁contested	-14076
▁continent	-14077
▁countdown	-14078
▁creatures	-14079
▁defendant	-14080
▁defenders	-14081
▁defending	-14082
▁depicting	-14083
▁detective	-14084
▁dinwiddie	-14085
▁dispersed	-14086
▁disregard	-14087
▁embracing	-14088
▁enthroned	-14089
▁equestria	-14090
▁escalator	-14091
▁excluding	-14092
▁exploited	-14093
▁exploring	-14094
▁fantastic	-14095
▁forecasts	-14096
▁frequency	-14097
▁halloween	-14098
▁hassanein	-14099
▁hilarious	-14100
▁holocaust	-14101
▁inclusion	-14102
▁indicator	-14103
▁indonesia	-14104
▁instantly	-14105
▁interface	-14106
▁introduce	-14107
▁justified	-14108
▁manhattan	-14109
▁menstrual	-14110
▁merchants	-14111
▁misguided	-14112
▁motivated	-14113
▁mughniyeh	-14114
▁nationals	-14115
▁northumbr	-14116
▁northwest	-14117
▁obstacles	-14118
▁palestine	-14119
▁passenger	-14120
▁portrayed	-14121
▁premature	-14122
▁preserved	-14123
▁privilege	-14124
▁processed	-14125
▁protested	-14126
▁protocols	-14127
▁rajasthan	-14128
▁releasing	-14129
▁repressed	-14130
▁robertson	-14131
▁sceneries	-14132
▁shattered	-14133
▁sidelined	-14134
▁signature	-14135
▁slingshot	-14136
▁sophomore	-14137
▁southwest	-14138
▁spearhead	-14139
▁specifics	-14140
▁subjected	-14141
▁submitted	-14142
▁subpoenas	-14143
▁subsidies	-14144
▁surviving	-14145
▁tillerson	-14146
▁translate	-14147
▁traveller	-14148
▁undermine	-14149
▁unsuccess	-14150
▁violently	-14151
überwachung	-14152
▁adventures	-14153
▁aggression	-14154
▁announcing	-14155
▁applicants	-14156
▁architects	-14157
▁automobile	-14158
▁bipartisan	-14159
▁cardassian	-14160
▁catalonian	-14161
▁challenged	-14162
▁chevrotain	-14163
▁christians	-14164
▁collisions	-14165
▁commentary	-14166
▁commenting	-14167
▁compelling	-14168
▁consultant	-14169
▁continuous	-14170
▁contractor	-14171
▁convenient	-14172
▁convincing	-14173
▁cornerback	-14174
▁correlated	-14175
▁definitive	-14176
▁demolition	-14177
▁difficulty	-14178
▁diminished	-14179
▁discontent	-14180
▁disruptive	-14181
▁dusseldorf	-14182
▁emphasized	-14183
▁excitement	-14184
▁expressing	-14185
▁federalist	-14186
▁fourteenth	-14187
▁freemasons	-14188
▁generating	-14189
▁habibollah	-14190
▁importante	-14191
▁incentives	-14192
▁injunction	-14193
▁innovative	-14194
▁legalising	-14195
▁linebacker	-14196
▁monitoring	-14197
▁moratorium	-14198
▁oosterbeek	-14199
▁optimistic	-14200
▁overlooked	-14201
▁powershell	-14202
▁precarious	-14203
▁prediction	-14204
▁presenting	-14205
▁profitable	-14206
▁promotions	-14207
▁psychiatry	-14208
▁remarkably	-14209
▁separatist	-14210
▁solidarity	-14211
▁squandered	-14212
▁storefront	-14213
▁supportive	-14214
▁torrential	-14215
▁traditions	-14216
▁trilingual	-14217
▁unofficial	-14218
▁validation	-14219
▁vestrahorn	-14220
▁virginians	-14221
▁witnessing	-14222
▁abdelrahman	-14223
▁adversaries	-14224
▁behroozmand	-14225
▁calculation	-14226
▁campaigners	-14227
▁campaigning	-14228
▁chemerinsky	-14229
▁commitments	-14230
▁communicate	-14231
▁complaining	-14232
▁computation	-14233
▁contributor	-14234
▁cooperating	-14235
▁coordinated	-14236
▁desperation	-14237
▁destination	-14238
▁destructive	-14239
▁electricity	-14240
▁enterprises	-14241
▁enthusiasts	-14242
▁experiments	-14243
▁exploratory	-14244
▁firefighter	-14245
▁furthermore	-14246
▁geyserville	-14247
▁interviewed	-14248
▁marketplace	-14249
▁neighboring	-14250
▁notoriously	-14251
▁obstruction	-14252
▁outstanding	-14253
▁prohibition	-14254
▁recommended	-14255
▁restricting	-14256
▁saddleridge	-14257
▁settlements	-14258
▁specialized	-14259
▁statistical	-14260
▁supervisors	-14261
▁sustainable	-14262
▁theoretical	-14263
▁trespassing	-14264
▁underscores	-14265
▁alternatives	-14266
▁authenticity	-14267
▁catastrophic	-14268
▁commercially	-14269
▁continuously	-14270
▁economically	-14271
▁inconsistent	-14272
▁manufacturer	-14273
▁southeastern	-14274
▁videographer	-14275
▁authorization	-14276
▁commissioners	-14277
▁confrontation	-14278
▁disappointing	-14279
▁disproportion	-14280
▁expropriation	-14281
▁interestingly	-14282
▁investigative	-14283
▁playerunknown	-14284
▁topographical	-14285
▁uncomfortable	-14286
dailycallernews	-14287
▁administrative	-14288
▁advertisements	-14289
▁overwhelmingly	-14290
▁reconstruction	-14291
▁administrations	-14292
▁recommendations	-14293
▁vulnerabilities	-14294
%,	-14295
')	-14296
**	-14297
.2	-14298
05	-14299
72	-14300
@5	-14301
_)	-14302
bh	-14303
ea	-14304
ej	-14305
fm	-14306
hk	-14307
hm	-14308
ję	-14309
kc	-14310
km	-14311
kü	-14312
lh	-14313
ml	-14314
nf	-14315
pc	-14316
pf	-14317
rt	-14318
rz	-14319
sf	-14320
sg	-14321
uo	-14322
uu	-14323
vt	-14324
wy	-14325
xi	-14326
zc	-14327
}}	-14328
ße	-14329
äd	-14330
ób	-14331
öt	-14332
ğı	-14333
ıl	-14334
ły	-14335
ść	-14336
με	-14337
ον	-14338
تر	-14339
فا	-14340
لي	-14341
مر	-14342
نا	-14343
ول	-14344
ير	-14345
ید	-14346
00.	-14347
10%	-14348
11.	-14349
115	-14350
12,	-14351
136	-14352
14%	-14353
14)	-14354
145	-14355
153	-14356
16,	-14357
160	-14358
182	-14359
20,	-14360
20-	-14361
228	-14362
25)	-14363
25.	-14364
285	-14365
300	-14366
310	-14367
325	-14368
360	-14369
379	-14370
380	-14371
424	-14372
45.	-14373
50.	-14374
574	-14375
594	-14376
650	-14377
690	-14378
710	-14379
774	-14380
778	-14381
787	-14382
830	-14383
85,	-14384
962	-14385
966	-14386
967	-14387
978	-14388
993	-14389
994	-14390
agt	-14391
ają	-14392
akt	-14393
asi	-14394
aya	-14395
bek	-14396
bes	-14397
bin	-14398
bir	-14399
bli	-14400
buy	-14401
cav	-14402
cov	-14403
dez	-14404
doc	-14405
dow	-14406
edi	-14407
ems	-14408
eur	-14409
fbi	-14410
fed	-14411
fol	-14412
fps	-14413
gal	-14414
ghz	-14415
gic	-14416
gir	-14417
hah	-14418
hat	-14419
hod	-14420
hua	-14421
iam	-14422
ieg	-14423
iji	-14424
isa	-14425
isi	-14426
iva	-14427
jac	-14428
jar	-14429
jer	-14430
kid	-14431
lek	-14432
lif	-14433
log	-14434
mhz	-14435
mis	-14436
mss	-14437
nat	-14438
nev	-14439
obs	-14440
oid	-14441
osé	-14442
oyd	-14443
pie	-14444
pps	-14445
rix	-14446
ryn	-14447
sal	-14448
saw	-14449
sha	-14450
ssa	-14451
tal	-14452
tat	-14453
tml	-14454
tte	-14455
tun	-14456
uka	-14457
url	-14458
vor	-14459
web	-14460
wes	-14461
wik	-14462
wit	-14463
yan	-14464
zal	-14465
zcz	-14466
zeh	-14467
zia	-14468
zou	-14469
ári	-14470
äch	-14471
çuk	-14472
ígh	-14473
ück	-14474
λου	-14475
های	-14476
وات	-14477
▁#1	-14478
▁),	-14479
▁00	-14480
▁2%	-14481
▁2)	-14482
▁2:	-14483
▁4:	-14484
▁61	-14485
▁66	-14486
▁69	-14487
▁6:	-14488
▁73	-14489
▁77	-14490
▁7:	-14491
▁81	-14492
▁98	-14493
▁aí	-14494
▁bc	-14495
▁iç	-14496
▁jc	-14497
▁mü	-14498
▁nm	-14499
▁ov	-14500
▁pq	-14501
▁sd	-14502
▁sj	-14503
▁ux	-14504
▁{{	-14505
▁ún	-14506
▁απ	-14507
▁تج	-14508
▁عل	-14509
▁ما	-14510
▁مو	-14511
▁يت	-14512
-12-	-14513
/05/	-14514
/10/	-14515
/100	-14516
/160	-14517
/170	-14518
/175	-14519
167.	-14520
="""	-14521
abic	-14522
abul	-14523
acao	-14524
acas	-14525
acer	-14526
achi	-14527
ahan	-14528
anet	-14529
antz	-14530
aper	-14531
ardi	-14532
arse	-14533
ayın	-14534
bage	-14535
bahn	-14536
bern	-14537
blow	-14538
bole	-14539
burn	-14540
came	-14541
card	-14542
cele	-14543
conc	-14544
coup	-14545
ctor	-14546
dade	-14547
dcnf	-14548
does	-14549
doll	-14550
edge	-14551
edly	-14552
egas	-14553
emer	-14554
enen	-14555
enza	-14556
erte	-14557
eser	-14558
esin	-14559
eten	-14560
eton	-14561
give	-14562
greg	-14563
gust	-14564
hall	-14565
hang	-14566
heit	-14567
hift	-14568
hosp	-14569
huge	-14570
iare	-14571
iasm	-14572
iber	-14573
icol	-14574
igte	-14575
inav	-14576
inch	-14577
ingo	-14578
init	-14579
inth	-14580
irer	-14581
iron	-14582
itas	-14583
ität	-14584
izia	-14585
ição	-14586
jail	-14587
josh	-14588
late	-14589
laun	-14590
laze	-14591
leep	-14592
lene	-14593
llar	-14594
lmaw	-14595
mich	-14596
mile	-14597
mode	-14598
much	-14599
nine	-14600
nych	-14601
obit	-14602
ogyn	-14603
oled	-14604
omed	-14605
ompe	-14606
opez	-14607
orum	-14608
orus	-14609
otal	-14610
otos	-14611
owal	-14612
phil	-14613
phis	-14614
pins	-14615
prov	-14616
purs	-14617
rank	-14618
rawn	-14619
rels	-14620
reno	-14621
rice	-14622
rics	-14623
rodu	-14624
rout	-14625
seek	-14626
sein	-14627
shad	-14628
sold	-14629
sten	-14630
tell	-14631
tian	-14632
tomb	-14633
tons	-14634
torn	-14635
trak	-14636
tted	-14637
uart	-14638
uded	-14639
ugos	-14640
urie	-14641
utch	-14642
virt	-14643
weak	-14644
weet	-14645
were	-14646
wife	-14647
yers	-14648
yson	-14649
zone	-14650
ário	-14651
érie	-14652
être	-14653
ücht	-14654
▁$28	-14655
▁$4.	-14656
▁$50	-14657
▁$6.	-14658
▁$64	-14659
▁$75	-14660
▁$8,	-14661
▁$9,	-14662
▁$9.	-14663
▁(--	-14664
▁(1,	-14665
▁(13	-14666
▁(16	-14667
▁(18	-14668
▁(93	-14669
▁)),	-14670
▁***	-14671
▁12%	-14672
▁128	-14673
▁14.	-14674
▁140	-14675
▁2.5	-14676
▁40%	-14677
▁400	-14678
▁abc	-14679
▁agu	-14680
▁ain	-14681
▁alc	-14682
▁aly	-14683
▁amy	-14684
▁ard	-14685
▁arn	-14686
▁até	-14687
▁bac	-14688
▁bau	-14689
▁bhr	-14690
▁bun	-14691
▁cad	-14692
▁cig	-14693
▁cox	-14694
▁dah	-14695
▁dum	-14696
▁déc	-14697
▁eos	-14698
▁erc	-14699
▁ffg	-14700
▁gcu	-14701
▁gig	-14702
▁gul	-14703
▁hey	-14704
▁hou	-14705
▁irr	-14706
▁jum	-14707
▁kad	-14708
▁kob	-14709
▁kop	-14710
▁kör	-14711
▁lig	-14712
▁liv	-14713
▁lur	-14714
▁mck	-14715
▁mim	-14716
▁naz	-14717
▁nos	-14718
▁nue	-14719
▁osc	-14720
▁pam	-14721
▁pep	-14722
▁pes	-14723
▁pig	-14724
▁poo	-14725
▁ruh	-14726
▁ses	-14727
▁sli	-14728
▁slo	-14729
▁sox	-14730
▁suv	-14731
▁tat	-14732
▁tav	-14733
▁ted	-14734
▁tir	-14735
▁umd	-14736
▁utc	-14737
▁vcs	-14738
▁voy	-14739
▁wol	-14740
▁wür	-14741
▁zac	-14742
▁zwe	-14743
▁últ	-14744
▁الس	-14745
▁بال	-14746
,000.	-14747
3,000	-14748
9,000	-14749
?'"""	-14750
abila	-14751
adium	-14752
affir	-14753
ahram	-14754
akelh	-14755
akkad	-14756
apers	-14757
apore	-14758
apped	-14759
asgow	-14760
aults	-14761
avery	-14762
beach	-14763
bells	-14764
berry	-14765
block	-14766
broad	-14767
bronx	-14768
cause	-14769
chase	-14770
citiz	-14771
clean	-14772
close	-14773
comed	-14774
contr	-14775
coran	-14776
doors	-14777
dress	-14778
ecute	-14779
eding	-14780
emple	-14781
endum	-14782
enode	-14783
ensio	-14784
ernal	-14785
esses	-14786
estar	-14787
estro	-14788
falls	-14789
griff	-14790
hawks	-14791
heart	-14792
holds	-14793
hored	-14794
iação	-14795
icaid	-14796
ichel	-14797
ician	-14798
icked	-14799
idden	-14800
idity	-14801
ieder	-14802
ieval	-14803
ilere	-14804
iller	-14805
impse	-14806
india	-14807
inner	-14808
iolek	-14809
ische	-14810
issed	-14811
ixton	-14812
keted	-14813
labor	-14814
leave	-14815
lehem	-14816
leton	-14817
liked	-14818
lived	-14819
locks	-14820
maker	-14821
match	-14822
medic	-14823
metro	-14824
minor	-14825
nacle	-14826
naiss	-14827
named	-14828
neath	-14829
nered	-14830
ocket	-14831
onews	-14832
onies	-14833
oning	-14834
opard	-14835
orers	-14836
osing	-14837
ostic	-14838
perez	-14839
phets	-14840
polic	-14841
prove	-14842
raham	-14843
resse	-14844
rical	-14845
ridge	-14846
rieve	-14847
rique	-14848
roads	-14849
ronom	-14850
santa	-14851
shots	-14852
speed	-14853
stead	-14854
stell	-14855
stice	-14856
storp	-14857
strug	-14858
syria	-14859
thsch	-14860
toler	-14861
truth	-14862
ución	-14863
uerie	-14864
wales	-14865
wesen	-14866
witch	-14867
xinhu	-14868
yclic	-14869
ários	-14870
çuklu	-14871
▁$.15	-14872
▁$.50	-14873
▁$10,	-14874
▁$12.	-14875
▁$13,	-14876
▁$200	-14877
▁(100	-14878
▁1992	-14879
▁1995	-14880
▁2004	-14881
▁5:15	-14882
▁aelf	-14883
▁ande	-14884
▁arce	-14885
▁assh	-14886
▁bail	-14887
▁bain	-14888
▁bait	-14889
▁beac	-14890
▁bele	-14891
▁bere	-14892
▁beth	-14893
▁bien	-14894
▁bild	-14895
▁blew	-14896
▁bong	-14897
▁bort	-14898
▁bour	-14899
▁brag	-14900
▁burd	-14901
▁cafe	-14902
▁cats	-14903
▁cave	-14904
▁chef	-14905
▁cher	-14906
▁chid	-14907
▁conj	-14908
▁corn	-14909
▁cran	-14910
▁ctrl	-14911
▁dear	-14912
▁decr	-14913
▁degr	-14914
▁dent	-14915
▁dive	-14916
▁dmit	-14917
▁dupl	-14918
▁dvip	-14919
▁eile	-14920
▁einw	-14921
▁eles	-14922
▁elks	-14923
▁ende	-14924
▁evan	-14925
▁fios	-14926
▁fixt	-14927
▁ftse	-14928
▁gamb	-14929
▁golf	-14930
▁gord	-14931
▁groc	-14932
▁hadi	-14933
▁halt	-14934
▁horm	-14935
▁horv	-14936
▁html	-14937
▁hugh	-14938
▁irma	-14939
▁jahr	-14940
▁jedi	-14941
▁jett	-14942
▁joan	-14943
▁joey	-14944
▁josé	-14945
▁json	-14946
▁juzg	-14947
▁kenn	-14948
▁krem	-14949
▁könn	-14950
▁laut	-14951
▁lawn	-14952
▁lesb	-14953
▁lidl	-14954
▁lomb	-14955
▁loot	-14956
▁lynn	-14957
▁mega	-14958
▁mish	-14959
▁mold	-14960
▁mont	-14961
▁moss	-14962
▁navy	-14963
▁neat	-14964
▁nest	-14965
▁neue	-14966
▁omar	-14967
▁outs	-14968
▁pena	-14969
▁peng	-14970
▁peru	-14971
▁pess	-14972
▁pets	-14973
▁ping	-14974
▁pits	-14975
▁plut	-14976
▁poly	-14977
▁pron	-14978
▁rage	-14979
▁rebu	-14980
▁reef	-14981
▁reid	-14982
▁reun	-14983
▁roku	-14984
▁rome	-14985
▁rope	-14986
▁scam	-14987
▁seus	-14988
▁shin	-14989
▁siri	-14990
▁snip	-14991
▁soll	-14992
▁spar	-14993
▁sums	-14994
▁tale	-14995
▁thug	-14996
▁tian	-14997
▁todo	-14998
▁toug	-14999
▁trag	-15000
▁tres	-15001
▁turf	-15002
▁ugly	-15003
▁vehe	-15004
▁wash	-15005
▁weil	-15006
▁whar	-15007
▁wine	-15008
▁wink	-15009
▁winn	-15010
▁wolf	-15011
▁woll	-15012
▁worn	-15013
▁zahl	-15014
▁zeal	-15015
▁zeyl	-15016
▁بشكل	-15017
/20170	-15018
30,000	-15019
:30303	-15020
adaily	-15021
advert	-15022
ambush	-15023
arbeit	-15024
arched	-15025
atable	-15026
belief	-15027
better	-15028
budget	-15029
cation	-15030
cities	-15031
cliffe	-15032
coffee	-15033
collar	-15034
columb	-15035
danger	-15036
debate	-15037
derest	-15038
donald	-15039
echnik	-15040
either	-15041
elines	-15042
engers	-15043
erting	-15044
estial	-15045
estors	-15046
evoked	-15047
factor	-15048
fronts	-15049
guards	-15050
handed	-15051
harass	-15052
idated	-15053
idious	-15054
ierung	-15055
ieties	-15056
iffany	-15057
imated	-15058
inking	-15059
integr	-15060
intend	-15061
ispens	-15062
itures	-15063
ladesh	-15064
lected	-15065
member	-15066
mental	-15067
modern	-15068
muslim	-15069
neighb	-15070
oldest	-15071
ologna	-15072
ologue	-15073
oughty	-15074
phoria	-15075
points	-15076
racted	-15077
really	-15078
recent	-15079
reform	-15080
resour	-15081
riello	-15082
ritual	-15083
safety	-15084
scienc	-15085
scopic	-15086
secure	-15087
soever	-15088
speech	-15089
spring	-15090
steria	-15091
stress	-15092
studio	-15093
[...]
