[PAD]	0
[UNK]	0
[SEP]	0
[BOS]	0
[EOS]	0
▁t	-0
▁a	-1
in	-2
he	-3
re	-4
▁the	-5
▁s	-6
on	-7
er	-8
▁w	-9
▁c	-10
en	-11
at	-12
▁o	-13
▁p	-14
it	-15
▁b	-16
an	-17
or	-18
▁f	-19
es	-20
is	-21
▁m	-22
ed	-23
ing	-24
▁d	-25
al	-26
▁in	-27
▁an	-28
ar	-29
▁to	-30
ou	-31
▁h	-32
▁of	-33
ic	-34
as	-35
▁th	-36
▁l	-37
▁and	-38
om	-39
▁n	-40
ion	-41
ent	-42
▁g	-43
ll	-44
▁re	-45
▁e	-46
le	-47
st	-48
""	-49
ro	-50
"""	-51
id	-52
ve	-53
ly	-54
ac	-55
▁be	-56
ut	-57
ot	-58
▁u	-59
▁on	-60
ad	-61
im	-62
et	-63
▁st	-64
▁for	-65
▁that	-66
am	-67
ig	-68
ol	-69
ver	-70
ec	-71
ir	-72
▁is	-73
ow	-74
ay	-75
se	-76
ur	-77
▁he	-78
▁y	-79
ation	-80
▁it	-81
ter	-82
▁we	-83
▁wh	-84
il	-85
▁r	-86
em	-87
▁"""	-88
▁2	-89
▁as	-90
ith	-91
ill	-92
▁with	-93
ce	-94
▁"	-95
ch	-96
▁i	-97
ers	-98
▁j	-99
▁pro	-100
▁con	-101
ld	-102
un	-103
est	-104
▁de	-105
▁v	-106
▁ne	-107
▁was	-108
▁at	-109
ke	-110
ag	-111
um	-112
▁tr	-113
ct	-114
her	-115
▁mo	-116
ist	-117
▁com	-118
res	-119
pp	-120
▁20	-121
▁ha	-122
ate	-123
us	-124
oun	-125
oc	-126
and	-127
op	-128
▁fr	-129
▁1	-130
ort	-131
ies	-132
▁(	-133
▁ch	-134
ul	-135
ain	-136
ht	-137
art	-138
ment	-139
▁un	-140
▁se	-141
▁you	-142
▁are	-143
▁this	-144
oo	-145
▁k	-146
▁ex	-147
▁201	-148
ity	-149
▁al	-150
ant	-151
▁su	-152
th	-153
qu	-154
ess	-155
if	-156
ab	-157
▁by	-158
▁sh	-159
os	-160
▁have	-161
▁or	-162
▁not	-163
ie	-164
▁sa	-165
ear	-166
ive	-167
iv	-168
ice	-169
ould	-170
ber	-171
ial	-172
ect	-173
red	-174
▁sp	-175
▁from	-176
el	-177
com	-178
▁le	-179
▁they	-180
end	-181
▁but	-182
==	-183
▁has	-184
ud	-185
ust	-186
▁ab	-187
ia	-188
ight	-189
ap	-190
all	-191
▁wor	-192
out	-193
▁ad	-194
▁all	-195
▁go	-196
ack	-197
ren	-198
▁ar	-199
ak	-200
▁pl	-201
▁new	-202
▁whe	-203
ast	-204
ard	-205
▁co	-206
▁do	-207
▁said	-208
▁their	-209
ff	-210
ally	-211
▁off	-212
ans	-213
ib	-214
▁ag	-215
▁will	-216
ip	-217
our	-218
▁who	-219
ide	-220
▁int	-221
▁year	-222
▁can	-223
▁more	-224
ace	-225
ome	-226
ich	-227
▁cl	-228
▁en	-229
▁his	-230
▁us	-231
▁pr	-232
▁ac	-233
ge	-234
iz	-235
▁im	-236
▁rep	-237
ther	-238
▁pe	-239
▁out	-240
der	-241
ook	-242
oug	-243
▁am	-244
ime	-245
▁pol	-246
ions	-247
pt	-248
▁af	-249
ure	-250
▁were	-251
ost	-252
one	-253
▁no	-254
."""	-255
▁up	-256
▁so	-257
▁comp	-258
age	-259
ire	-260
act	-261
▁me	-262
ound	-263
ous	-264
▁cont	-265
ub	-266
▁one	-267
ne	-268
tt	-269
▁had	-270
,"""	-271
ame	-272
og	-273
ine	-274
ident	-275
ump	-276
ople	-277
ry	-278
ass	-279
▁man	-280
▁pres	-281
ian	-282
ong	-283
▁li	-284
▁res	-285
▁3	-286
▁about	-287
ore	-288
ign	-289
ount	-290
▁people	-291
ite	-292
▁qu	-293
ated	-294
ations	-295
▁part	-296
▁ro	-297
so	-298
▁work	-299
▁would	-300
ra	-301
per	-302
ake	-303
▁rec	-304
▁te	-305
▁dec	-306
▁$	-307
▁sc	-308
ary	-309
own	-310
the	-311
ue	-312
▁fe	-313
for	-314
▁ev	-315
▁been	-316
ind	-317
▁over	-318
▁there	-319
▁other	-320
00	-321
▁some	-322
pl	-323
▁trump	-324
au	-325
▁app	-326
very	-327
▁per	-328
▁which	-329
//	-330
cl	-331
ws	-332
ence	-333
://	-334
we	-335
▁2017	-336
====	-337
ttp	-338
▁br	-339
ical	-340
▁when	-341
ach	-342
▁la	-343
▁also	-344
▁http	-345
▁after	-346
ord	-347
▁gr	-348
ough	-349
▁what	-350
ens	-351
▁dis	-352
▁than	-353
ory	-354
▁bl	-355
▁act	-356
▁just	-357
▁em	-358
ose	-359
de	-360
▁like	-361
▁get	-362
lic	-363
▁my	-364
▁prot	-365
ile	-366
▁comm	-367
▁ir	-368
▁if	-369
ts	-370
vern	-371
are	-372
ks	-373
te	-374
able	-375
▁them	-376
▁acc	-377
▁fir	-378
ail	-379
ru	-380
oll	-381
▁time	-382
ase	-383
▁its	-384
▁dem	-385
ress	-386
50	-387
▁tw	-388
▁—	-389
oin	-390
▁our	-391
ond	-392
ings	-393
▁she	-394
ors	-395
fe	-396
av	-397
uc	-398
▁into	-399
▁how	-400
ates	-401
▁mar	-402
man	-403
wn	-404
▁her	-405
▁govern	-406
▁des	-407
ree	-408
▁imp	-409
ood	-410
ade	-411
ays	-412
ang	-413
▁pre	-414
ult	-415
▁first	-416
day	-417
▁sec	-418
ents	-419
reat	-420
▁inter	-421
ved	-422
vers	-423
▁inv	-424
vel	-425
ah	-426
ww	-427
ild	-428
▁any	-429
▁offic	-430
www	-431
ick	-432
20	-433
ep	-434
od	-435
▁cr	-436
▁again	-437
▁ser	-438
▁president	-439
▁iran	-440
▁face	-441
▁most	-442
▁fl	-443
ition	-444
▁could	-445
ict	-446
rat	-447
hing	-448
▁min	-449
▁don	-450
ational	-451
ance	-452
ities	-453
con	-454
old	-455
▁att	-456
▁bec	-457
▁count	-458
ock	-459
ning	-460
▁government	-461
▁-	-462
ink	-463
▁your	-464
ied	-465
▁reg	-466
ause	-467
ublic	-468
/1	-469
ember	-470
ob	-471
▁4	-472
eric	-473
ction	-474
▁'	-475
sh	-476
hed	-477
enc	-478
book	-479
▁dep	-480
▁play	-481
by	-482
clud	-483
▁now	-484
▁two	-485
anc	-486
▁even	-487
▁supp	-488
oot	-489
illed	-490
▁back	-491
form	-492
uring	-493
▁may	-494
amp	-495
itt	-496
pect	-497
ters	-498
▁ph	-499
▁par	-500
▁ke	-501
▁kn	-502
▁sy	-503
ious	-504
li	-505
pol	-506
▁car	-507
▁did	-508
▁cons	-509
ement	-510
▁ob	-511
uch	-512
ual	-513
▁ass	-514
▁report	-515
igh	-516
ited	-517
▁only	-518
ons	-519
▁bu	-520
oy	-521
eral	-522
ty	-523
news	-524
gr	-525
min	-526
▁because	-527
▁down	-528
ech	-529
▁bet	-530
▁cent	-531
rent	-532
get	-533
ish	-534
▁mon	-535
▁facebook	-536
▁these	-537
▁add	-538
▁under	-539
ax	-540
▁right	-541
▁recent	-542
▁him	-543
▁lead	-544
▁many	-545
▁want	-546
▁years	-547
17	-548
ration	-549
▁state	-550
ise	-551
iss	-552
▁2019	-553
▁every	-554
▁see	-555
▁includ	-556
▁ent	-557
▁form	-558
0.	-559
ath	-560
ull	-561
▁gu	-562
ily	-563
▁med	-564
▁against	-565
▁americ	-566
▁fin	-567
▁those	-568
▁ind	-569
/50	-570
ting	-571
▁world	-572
▁where	-573
▁thr	-574
▁polit	-575
▁19	-576
be	-577
▁gen	-578
▁rem	-579
▁–	-580
▁call	-581
========	-582
pr	-583
▁make	-584
ash	-585
olog	-586
ale	-587
▁look	-588
rest	-589
ork	-590
police	-591
▁during	-592
imes	-593
▁need	-594
aking	-595
▁op	-596
▁bel	-597
ton	-598
co	-599
ok	-600
up	-601
ince	-602
ating	-603
row	-604
▁spe	-605
ible	-606
▁own	-607
▁stud	-608
ased	-609
▁z	-610
▁end	-611
ution	-612
sel	-613
▁police	-614
gan	-615
xt	-616
▁through	-617
les	-618
und	-619
cr	-620
▁str	-621
▁while	-622
▁pos	-623
▁oct	-624
ft	-625
▁war	-626
urn	-627
▁being	-628
▁rel	-629
ics	-630
oup	-631
▁inst	-632
▁inte	-633
▁support	-634
ss	-635
als	-636
ject	-637
ands	-638
▁news	-639
▁invest	-640
▁dr	-641
▁trans	-642
ouse	-643
▁well	-644
io	-645
ober	-646
).	-647
ower	-648
▁inc	-649
▁def	-650
▁october	-651
▁aut	-652
▁know	-653
az	-654
▁el	-655
▁wom	-656
▁think	-657
▁compan	-658
ene	-659
▁show	-660
osts	-661
▁5	-662
du	-663
ife	-664
▁then	-665
killed	-666
▁official	-667
arly	-668
▁cor	-669
▁much	-670
▁sm	-671
erson	-672
ner	-673
▁fed	-674
▁big	-675
▁say	-676
▁last	-677
▁protest	-678
ph	-679
▁recently	-680
▁sim	-681
ior	-682
ont	-683
cess	-684
▁prov	-685
▁such	-686
▁commun	-687
ism	-688
ater	-689
▁sen	-690
▁public	-691
way	-692
▁cour	-693
▁made	-694
▁very	-695
▁exp	-696
ocrat	-697
▁hel	-698
▁still	-699
its	-700
ange	-701
fore	-702
ists	-703
ward	-704
ket	-705
uss	-706
atch	-707
ix	-708
ek	-709
▁accord	-710
▁way	-711
other	-712
iew	-713
ug	-714
000	-715
▁ter	-716
▁start	-717
ble	-718
▁ele	-719
ives	-720
oint	-721
▁bro	-722
▁loc	-723
▁states	-724
),	-725
ians	-726
▁adv	-727
ific	-728
▁use	-729
▁take	-730
▁pa	-731
▁che	-732
ility	-733
▁sign	-734
▁since	-735
▁should	-736
ral	-737
ivers	-738
ient	-739
▁cap	-740
ative	-741
▁6	-742
ments	-743
pe	-744
hip	-745
▁fam	-746
▁num	-747
ually	-748
▁national	-749
▁dire	-750
▁econ	-751
▁dif	-752
▁democrat	-753
▁wr	-754
arch	-755
▁eff	-756
▁high	-757
▁long	-758
▁team	-759
▁econom	-760
▁https	-761
▁law	-762
minist	-763
▁help	-764
▁sur	-765
ys	-766
▁mem	-767
▁soc	-768
▁post	-769
med	-770
cent	-771
▁according	-772
..	-773
ert	-774
ful	-775
ger	-776
▁ed	-777
▁country	-778
▁administ	-779
▁ins	-780
▁day	-781
▁run	-782
aj	-783
▁happ	-784
led	-785
▁200	-786
▁tax	-787
▁char	-788
▁serv	-789
▁sl	-790
ices	-791
mber	-792
▁going	-793
air	-794
▁conf	-795
ces	-796
ages	-797
gest	-798
▁cur	-799
▁city	-800
ollow	-801
▁good	-802
▁open	-803
vember	-804
▁december	-805
read	-806
ween	-807
▁game	-808
▁house	-809
▁sub	-810
ues	-811
▁november	-812
ason	-813
posts	-814
▁group	-815
che	-816
ize	-817
▁dat	-818
▁white	-819
▁contin	-820
ama	-821
off	-822
▁does	-823
▁real	-824
bypolice	-825
▁between	-826
killedbypolice	-827
▁bus	-828
▁set	-829
▁month	-830
iol	-831
illion	-832
wh	-833
▁es	-834
ants	-835
▁fire	-836
▁gl	-837
omet	-838
stem	-839
▁women	-840
▁7	-841
▁rev	-842
itter	-843
▁before	-844
ought	-845
▁here	-846
ures	-847
iving	-848
▁2018	-849
ms	-850
oth	-851
bers	-852
▁ret	-853
▁federal	-854
▁follow	-855
tern	-856
▁media	-857
ten	-858
ital	-859
ving	-860
▁child	-861
▁cre	-862
▁resp	-863
▁really	-864
inal	-865
▁ce	-866
alth	-867
▁top	-868
▁few	-869
gy	-870
▁camp	-871
▁stat	-872
▁found	-873
▁administration	-874
ins	-875
king	-876
▁bar	-877
to	-878
▁10	-879
▁read	-880
ked	-881
2017	-882
▁art	-883
▁put	-884
,000	-885
▁ref	-886
▁former	-887
▁$1	-888
ized	-889
▁used	-890
ooting	-891
...	-892
ave	-893
▁three	-894
▁lot	-895
▁same	-896
▁direct	-897
ced	-898
rem	-899
▁ann	-900
▁pass	-901
▁told	-902
▁polic	-903
go	-904
▁er	-905
▁let	-906
▁spec	-907
pa	-908
▁coll	-909
▁great	-910
▁person	-911
orth	-912
▁including	-913
▁lo	-914
▁somet	-915
▁political	-916
aff	-917
ged	-918
ief	-919
ploy	-920
▁vis	-921
▁another	-922
▁0.	-923
come	-924
▁sex	-925
▁vot	-926
▁data	-927
▁next	-928
▁iss	-929
▁head	-930
att	-931
work	-932
▁hist	-933
▁plan	-934
▁requ	-935
ically	-936
▁organ	-937
▁ext	-938
▁lar	-939
▁opp	-940
ald	-941
ves	-942
ames	-943
ired	-944
▁col	-945
▁system	-946
▁united	-947
▁8	-948
▁mil	-949
▁tal	-950
▁block	-951
br	-952
▁ca	-953
▁det	-954
land	-955
▁got	-956
▁stre	-957
ier	-958
▁inf	-959
▁party	-960
▁depart	-961
▁av	-962
ross	-963
self	-964
▁far	-965
velop	-966
▁partic	-967
▁investig	-968
▁power	-969
▁--	-970
▁ve	-971
▁leg	-972
▁sch	-973
ollah	-974
▁sun	-975
▁week	-976
▁never	-977
▁around	-978
hor	-979
ency	-980
▁come	-981
12	-982
ular	-983
▁both	-984
ather	-985
▁9	-986
gress	-987
▁viol	-988
▁things	-989
gram	-990
▁dist	-991
▁develop	-992
eth	-993
▁ra	-994
▁bre	-995
▁fact	-996
▁hard	-997
▁diffe	-998
▁intern	-999
ned	-1000
▁30	-1001
▁bo	-1002
▁jo	-1003
urity	-1004
▁life	-1005
pro	-1006
akes	-1007
▁coal	-1008
▁find	-1009
▁har	-1010
▁office	-1011
▁val	-1012
ially	-1013
olved	-1014
▁best	-1015
gin	-1016
ror	-1017
▁each	-1018
ying	-1019
▁expl	-1020
▁says	-1021
ety	-1022
▁without	-1023
son	-1024
▁bit	-1025
▁move	-1026
▁net	-1027
▁que	-1028
▁percent	-1029
▁po	-1030
/2017	-1031
▁prom	-1032
▁univers	-1033
ik	-1034
ody	-1035
▁men	-1036
iness	-1037
▁free	-1038
▁tech	-1039
han	-1040
cept	-1041
ever	-1042
thing	-1043
▁exper	-1044
▁protests	-1045
iting	-1046
▁care	-1047
▁build	-1048
▁inform	-1049
▁number	-1050
ajor	-1051
▁oper	-1052
▁allow	-1053
▁times	-1054
▁officials	-1055
================	-1056
onst	-1057
▁incre	-1058
▁import	-1059
ute	-1060
▁ide	-1061
ology	-1062
▁market	-1063
▁security	-1064
1,	-1065
bt	-1066
ina	-1067
rug	-1068
▁ban	-1069
▁ste	-1070
▁contro	-1071
▁ا	-1072
ines	-1073
▁prof	-1074
▁might	-1075
▁social	-1076
▁ap	-1077
▁company	-1078
▁working	-1079
ling	-1080
▁main	-1081
ck	-1082
▁won	-1083
▁members	-1084
aign	-1085
oney	-1086
▁pat	-1087
▁point	-1088
▁quest	-1089
▁project	-1090
10	-1091
of	-1092
▁hum	-1093
ision	-1094
▁list	-1095
els	-1096
ases	-1097
▁home	-1098
▁vide	-1099
ention	-1100
▁belie	-1101
▁protes	-1102
no	-1103
pped	-1104
olution	-1105
▁second	-1106
zb	-1107
inv	-1108
ains	-1109
osed	-1110
ering	-1111
▁major	-1112
uge	-1113
ared	-1114
▁poss	-1115
▁prev	-1116
▁techn	-1117
▁demonst	-1118
▁department	-1119
icle	-1120
less	-1121
▁eng	-1122
ience	-1123
▁fore	-1124
▁full	-1125
▁obama	-1126
zbollah	-1127
▁something	-1128
▁beh	-1129
▁pay	-1130
▁didn	-1131
▁rest	-1132
▁program	-1133
▁american	-1134
▁campaign	-1135
ham	-1136
isk	-1137
▁gre	-1138
▁feat	-1139
▁four	-1140
▁rele	-1141
ization	-1142
18	-1143
ric	-1144
rence	-1145
▁fund	-1146
▁author	-1147
▁15	-1148
▁why	-1149
▁win	-1150
▁hand	-1151
▁place	-1152
ised	-1153
line	-1154
▁seem	-1155
▁money	-1156
▁employ	-1157
▁however	-1158
wer	-1159
▁cle	-1160
▁red	-1161
▁step	-1162
▁iranian	-1163
▁business	-1164
rib	-1165
▁ant	-1166
ained	-1167
▁miss	-1168
▁republic	-1169
ri	-1170
ets	-1171
ered	-1172
▁chr	-1173
▁den	-1174
▁local	-1175
▁current	-1176
▁hezbollah	-1177
ness	-1178
▁bor	-1179
▁keep	-1180
aw	-1181
aim	-1182
▁disc	-1183
▁appro	-1184
▁reported	-1185
▁aff	-1186
▁russ	-1187
▁interest	-1188
51	-1189
erv	-1190
iven	-1191
▁rese	-1192
▁(@	-1193
▁12	-1194
ably	-1195
▁less	-1196
▁mod	-1197
ott	-1198
ret	-1199
year	-1200
▁var	-1201
ately	-1202
▁milit	-1203
atur	-1204
ecut	-1205
ured	-1206
▁cut	-1207
▁jan	-1208
▁mus	-1209
▁pop	-1210
▁able	-1211
▁deal	-1212
▁left	-1213
▁proble	-1214
▁sunday	-1215
30	-1216
my	-1217
▁[	-1218
ready	-1219
▁speech	-1220
ae	-1221
hn	-1222
ern	-1223
ung	-1224
▁sw	-1225
▁est	-1226
▁too	-1227
ality	-1228
offic	-1229
▁manag	-1230
ven	-1231
outh	-1232
▁fre	-1233
▁2016	-1234
▁near	-1235
▁rece	-1236
▁q	-1237
▁dev	-1238
▁case	-1239
▁better	-1240
▁health	-1241
oss	-1242
here	-1243
▁job	-1244
ising	-1245
ister	-1246
▁design	-1247
▁different	-1248
af	-1249
▁turn	-1250
▁economic	-1251
iff	-1252
ract	-1253
htm	-1254
ool	-1255
▁sit	-1256
▁yet	-1257
veral	-1258
▁least	-1259
▁already	-1260
▁cal	-1261
▁away	-1262
▁press	-1263
▁expect	-1264
▁america	-1265
▁important	-1266
ield	-1267
ived	-1268
▁cond	-1269
▁attack	-1270
▁process	-1271
▁community	-1272
uck	-1273
▁da	-1274
▁coun	-1275
▁activ	-1276
▁million	-1277
▁several	-1278
▁information	-1279
eg	-1280
gle	-1281
rael	-1282
side	-1283
▁eas	-1284
▁small	-1285
▁using	-1286
▁though	-1287
sc	-1288
ird	-1289
ator	-1290
ided	-1291
uters	-1292
▁court	-1293
▁change	-1294
▁del	-1295
▁ear	-1296
▁non	-1297
▁class	-1298
▁comple	-1299
tr	-1300
"".	-1301
hes	-1302
back	-1303
▁die	-1304
▁central	-1305
▁protect	-1306
hen	-1307
ued	-1308
▁ty	-1309
duct	-1310
ense	-1311
ified	-1312
▁lear	-1313
▁claim	-1314
▁human	-1315
▁across	-1316
▁called	-1317
▁record	-1318
cc	-1319
aph	-1320
app	-1321
oci	-1322
▁der	-1323
ittle	-1324
▁often	-1325
▁leaders	-1326
▁workers	-1327
15	-1328
inc	-1329
▁dro	-1330
▁once	-1331
▁phot	-1332
▁email	-1333
▁force	-1334
▁stand	-1335
▁little	-1336
ado	-1337
aug	-1338
wor	-1339
▁mat	-1340
▁suc	-1341
▁wal	-1342
▁took	-1343
▁story	-1344
▁commit	-1345
▁democrats	-1346
▁x	-1347
par	-1348
ished	-1349
▁rights	-1350
ends	-1351
▁mid	-1352
▁meet	-1353
,"	-1354
bs	-1355
ruct	-1356
▁youn	-1357
▁const	-1358
▁level	-1359
▁general	-1360
ges	-1361
html	-1362
▁met	-1363
▁bill	-1364
▁conc	-1365
▁shot	-1366
▁west	-1367
▁making	-1368
.,	-1369
24	-1370
por	-1371
uro	-1372
urs	-1373
▁ال	-1374
most	-1375
▁access	-1376
▁policy	-1377
▁thought	-1378
▁protesters	-1379
ex	-1380
hr	-1381
ada	-1382
▁fac	-1383
▁fut	-1384
ories	-1385
▁crit	-1386
▁york	-1387
▁among	-1388
▁deput	-1389
▁university	-1390
acy	-1391
lin	-1392
ony	-1393
▁di	-1394
vert	-1395
▁ever	-1396
▁early	-1397
hington	-1398
▁donald	-1399
ban	-1400
used	-1401
▁came	-1402
▁feel	-1403
▁line	-1404
▁order	-1405
▁leader	-1406
26	-1407
""."	-1408
▁vir	-1409
▁past	-1410
▁simp	-1411
▁family	-1412
▁companies	-1413
▁fun	-1414
▁mean	-1415
ending	-1416
▁night	-1417
▁north	-1418
▁effort	-1419
que	-1420
▁lim	-1421
▁pot	-1422
▁sug	-1423
itions	-1424
▁months	-1425
shooting	-1426
▁international	-1427
3,	-1428
ury	-1429
▁17	-1430
ened	-1431
hers	-1432
ults	-1433
▁grow	-1434
▁video	-1435
tw	-1436
ann	-1437
▁saf	-1438
▁san	-1439
▁inde	-1440
uspect	-1441
▁chang	-1442
86	-1443
une	-1444
▁old	-1445
▁cost	-1446
▁history	-1447
ees	-1448
use	-1449
reme	-1450
▁anti	-1451
▁star	-1452
▁enough	-1453
▁interv	-1454
enn	-1455
ove	-1456
▁ge	-1457
uary	-1458
ways	-1459
▁hal	-1460
▁pal	-1461
▁hold	-1462
▁prop	-1463
▁tell	-1464
ertain	-1465
mer	-1466
org	-1467
orn	-1468
▁days	-1469
▁land	-1470
▁death	-1471
▁later	-1472
▁intell	-1473
▁others	-1474
▁season	-1475
▁getting	-1476
▁twitter	-1477
90	-1478
▁et	-1479
coin	-1480
▁bas	-1481
ondon	-1482
▁john	-1483
▁laun	-1484
ential	-1485
officer	-1486
▁address	-1487
▁control	-1488
14	-1489
arc	-1490
▁18	-1491
ides	-1492
▁mot	-1493
▁based	-1494
▁today	-1495
▁within	-1496
bi	-1497
ico	-1498
▁fil	-1499
stand	-1500
idence	-1501
▁gener	-1502
▁announ	-1503
▁become	-1504
▁future	-1505
▁indust	-1506
▁washington	-1507
▁mor	-1508
ption	-1509
▁anal	-1510
▁ener	-1511
▁sept	-1512
▁associ	-1513
▁actually	-1514
ds	-1515
▁sk	-1516
ards	-1517
crib	-1518
ider	-1519
▁arg	-1520
▁aud	-1521
▁fri	-1522
▁ill	-1523
allen	-1524
▁black	-1525
▁israel	-1526
▁#	-1527
ler	-1528
loc	-1529
ades	-1530
▁cry	-1531
▁lab	-1532
ender	-1533
ortun	-1534
▁live	-1535
▁mess	-1536
▁priv	-1537
▁space	-1538
▁arrest	-1539
▁reuters	-1540
▁question	-1541
16	-1542
▁je	-1543
▁afp	-1544
▁equ	-1545
▁imm	-1546
▁unt	-1547
▁ident	-1548
▁confir	-1549
▁london	-1550
▁started	-1551
▁whether	-1552
▁election	-1553
ask	-1554
▁key	-1555
▁ple	-1556
▁rul	-1557
▁via	-1558
▁give	-1559
▁sure	-1560
▁vict	-1561
▁county	-1562
▁congress	-1563
uk	-1564
ams	-1565
let	-1566
▁foc	-1567
▁hop	-1568
▁pap	-1569
aring	-1570
▁crim	-1571
▁glob	-1572
cement	-1573
▁regul	-1574
ibility	-1575
▁killed	-1576
▁school	-1577
▁account	-1578
new	-1579
down	-1580
▁hig	-1581
▁drug	-1582
▁mult	-1583
▁must	-1584
▁final	-1585
▁16	-1586
aken	-1587
renc	-1588
▁ger	-1589
▁inj	-1590
▁sal	-1591
▁seen	-1592
▁tele	-1593
igence	-1594
▁impro	-1595
▁sound	-1596
▁watch	-1597
▁likely	-1598
▁service	-1599
▁suggest	-1600
sp	-1601
ries	-1602
ring	-1603
▁pub	-1604
heriff	-1605
uation	-1606
▁getty	-1607
▁large	-1608
▁network	-1609
▁military	-1610
▁officers	-1611
▁particip	-1612
ead	-1613
ids	-1614
▁gun	-1615
▁pus	-1616
▁ver	-1617
ament	-1618
▁brit	-1619
▁park	-1620
aining	-1621
▁event	-1622
▁effect	-1623
involved	-1624
▁looking	-1625
▁success	-1626
▁students	-1627
40	-1628
96	-1629
not	-1630
uel	-1631
▁sn	-1632
▁jud	-1633
ument	-1634
▁cele	-1635
iously	-1636
▁tower	-1637
▁images	-1638
▁foreign	-1639
▁september	-1640
13	-1641
2,	-1642
25	-1643
port	-1644
▁bur	-1645
▁occ	-1646
▁test	-1647
▁went	-1648
▁thing	-1649
▁young	-1650
▁energy	-1651
▁blockch	-1652
▁january	-1653
2.	-1654
28	-1655
70	-1656
mar	-1657
ney	-1658
ming	-1659
▁low	-1660
▁syr	-1661
▁wall	-1662
▁close	-1663
▁thous	-1664
▁profess	-1665
▁children	-1666
76	-1667
sy	-1668
▁:	-1669
empt	-1670
▁dom	-1671
▁mom	-1672
▁avail	-1673
▁enfor	-1674
▁inner	-1675
▁compet	-1676
▁course	-1677
▁proper	-1678
▁repres	-1679
▁secret	-1680
▁threat	-1681
▁justice	-1682
▁players	-1683
▁special	-1684
lf	-1685
ze	-1686
▁dou	-1687
ended	-1688
▁desp	-1689
▁sing	-1690
▁view	-1691
▁given	-1692
▁makes	-1693
▁following	-1694
23	-1695
ars	-1696
erc	-1697
▁14	-1698
ones	-1699
▁area	-1700
▁five	-1701
▁pros	-1702
▁road	-1703
▁china	-1704
▁creat	-1705
▁elect	-1706
▁liber	-1707
▁almost	-1708
▁capital	-1709
▁outside	-1710
▁problem	-1711
bc	-1712
yn	-1713
ane	-1714
ape	-1715
▁13	-1716
▁25	-1717
▁uk	-1718
ched	-1719
nect	-1720
ours	-1721
▁ran	-1722
▁tra	-1723
▁upd	-1724
there	-1725
▁bene	-1726
▁along	-1727
▁chief	-1728
▁south	-1729
▁always	-1730
▁conserv	-1731
▁director	-1732
▁♪	-1733
btc	-1734
▁civ	-1735
▁lat	-1736
getty	-1737
▁fail	-1738
verage	-1739
▁crypt	-1740
▁doesn	-1741
▁until	-1742
▁terror	-1743
75	-1744
lo	-1745
▁*	-1746
ify	-1747
▁os	-1748
itor	-1749
▁0.0	-1750
ators	-1751
▁orig	-1752
▁sent	-1753
idents	-1754
▁center	-1755
▁services	-1756
▁intelligence	-1757
aq	-1758
▁fem	-1759
▁tok	-1760
▁tot	-1761
itive	-1762
▁famil	-1763
▁front	-1764
▁speak	-1765
▁christ	-1766
▁execut	-1767
▁return	-1768
▁senate	-1769
▁wanted	-1770
▁criminal	-1771
▁research	-1772
▁employees	-1773
duc	-1774
▁cop	-1775
▁hot	-1776
attle	-1777
ional	-1778
▁dead	-1779
▁dest	-1780
▁gren	-1781
▁mass	-1782
itution	-1783
▁instead	-1784
▁continue	-1785
▁possible	-1786
▁investigation	-1787
na	-1788
▁@	-1789
ley	-1790
ogr	-1791
vir	-1792
▁ju	-1793
ison	-1794
▁air	-1795
▁dra	-1796
▁esp	-1797
▁sum	-1798
▁asked	-1799
▁doing	-1800
▁light	-1801
▁available	-1802
80	-1803
bl	-1804
do	-1805
/51	-1806
era	-1807
orm	-1808
urch	-1809
▁cam	-1810
▁tar	-1811
▁cand	-1812
▁laws	-1813
▁trad	-1814
lement	-1815
▁staff	-1816
▁third	-1817
▁advert	-1818
▁strong	-1819
▁minister	-1820
▁democratic	-1821
lu	-1822
ão	-1823
aps	-1824
▁11	-1825
local	-1826
ensive	-1827
▁begin	-1828
▁break	-1829
▁bring	-1830
▁german	-1831
▁connect	-1832
▁blockchain	-1833
95	-1834
den	-1835
▁mi	-1836
ilar	-1837
this	-1838
▁fur	-1839
▁pit	-1840
▁tre	-1841
▁2015	-1842
selves	-1843
twitter	-1844
▁entire	-1845
▁financ	-1846
▁having	-1847
▁believe	-1848
▁despite	-1849
▁reports	-1850
aces	-1851
▁dav	-1852
▁agre	-1853
▁cult	-1854
▁educ	-1855
▁foot	-1856
▁idea	-1857
▁sour	-1858
▁civil	-1859
▁color	-1860
▁short	-1861
ference	-1862
.5	-1863
ls	-1864
lier	-1865
▁sol	-1866
▁tem	-1867
▁twe	-1868
▁anim	-1869
▁euro	-1870
▁games	-1871
▁share	-1872
▁taken	-1873
▁result	-1874
▁content	-1875
ps	-1876
ites	-1877
oice	-1878
time	-1879
▁hom	-1880
▁cust	-1881
▁deep	-1882
▁kind	-1883
gether	-1884
▁benef	-1885
▁action	-1886
▁challen	-1887
▁shooting	-1888
▁together	-1889
▁thousands	-1890
▁development	-1891
93	-1892
ipt	-1893
nal	-1894
▁ep	-1895
aint	-1896
angu	-1897
ivid	-1898
ully	-1899
aster	-1900
where	-1901
▁book	-1902
▁poll	-1903
▁prob	-1904
▁town	-1905
▁vers	-1906
▁super	-1907
aturday	-1908
▁charac	-1909
▁coming	-1910
▁committe	-1911
++	-1912
11	-1913
9,	-1914
▁...	-1915
▁pic	-1916
istic	-1917
▁half	-1918
▁init	-1919
▁poin	-1920
▁role	-1921
▁added	-1922
▁fight	-1923
ability	-1924
▁behind	-1925
▁russia	-1926
▁results	-1927
▁sheriff	-1928
▁anything	-1929
▁everyone	-1930
45	-1931
bo	-1932
da	-1933
lam	-1934
▁ri	-1935
▁ur	-1936
ster	-1937
▁led	-1938
▁six	-1939
imate	-1940
pping	-1941
▁name	-1942
encies	-1943
▁agency	-1944
ov	-1945
ats	-1946
int	-1947
rict	-1948
ural	-1949
istan	-1950
▁port	-1951
▁publ	-1952
▁self	-1953
ournal	-1954
▁below	-1955
▁issue	-1956
▁global	-1957
fl	-1958
comm	-1959
hern	-1960
iety	-1961
▁$0.	-1962
▁100	-1963
▁goo	-1964
alach	-1965
ample	-1966
asing	-1967
ented	-1968
▁site	-1969
▁comes	-1970
▁happy	-1971
▁traff	-1972
▁cities	-1973
▁histor	-1974
▁reason	-1975
▁street	-1976
▁bitcoin	-1977
▁saturday	-1978
▁violence	-1979
▁authorities	-1980
▁24	-1981
ging	-1982
itted	-1983
▁pict	-1984
▁immig	-1985
▁store	-1986
▁target	-1987
▁building	-1988
ell	-1989
iday	-1990
play	-1991
count	-1992
fully	-1993
ribut	-1994
vered	-1995
viron	-1996
▁capt	-1997
▁apple	-1998
▁focus	-1999
▁create	-2000
▁regime	-2001
▁created	-2002
▁provide	-2003
▁appalach	-2004
▁opportun	-2005
▁relations	-2006
bre	-2007
imp	-2008
▁aw	-2009
▁wa	-2010
apan	-2011
iter	-2012
lear	-2013
like	-2014
okes	-2015
▁epa	-2016
▁body	-2017
▁clin	-2018
▁crow	-2019
▁join	-2020
▁stay	-2021
ection	-2022
icking	-2023
▁espec	-2024
/2017/1	-2025
▁safety	-2026
▁certain	-2027
▁addition	-2028
▁everything	-2029
▁enforcement	-2030
36	-2031
ma	-2032
uf	-2033
aged	-2034
amed	-2035
ches	-2036
fell	-2037
rote	-2038
▁doc	-2039
ively	-2040
works	-2041
▁arch	-2042
▁sens	-2043
▁weap	-2044
▁scott	-2045
ulation	-2046
▁google	-2047
▁please	-2048
▁respond	-2049
▁grenfell	-2050
▁.	-2051
uff	-2052
pend	-2053
▁arr	-2054
▁bad	-2055
ither	-2056
story	-2057
▁repl	-2058
▁wind	-2059
▁langu	-2060
▁total	-2061
▁track	-2062
▁review	-2063
▁officer	-2064
▁similar	-2065
▁increase	-2066
▁probably	-2067
▁committee	-2068
/0	-2069
ee	-2070
▁&	-2071
bur	-2072
hel	-2073
irc	-2074
oke	-2075
▁hy	-2076
ball	-2077
itiz	-2078
▁mill	-2079
▁task	-2080
▁vote	-2081
▁wasn	-2082
▁known	-2083
▁match	-2084
▁price	-2085
▁study	-2086
▁detail	-2087
▁europe	-2088
▁earlier	-2089
▁example	-2090
▁further	-2091
▁evidence	-2092
▁themselves	-2093
35	-2094
97	-2095
kn	-2096
la	-2097
aced	-2098
iple	-2099
▁bal	-2100
▁hit	-2101
▁los	-2102
▁sup	-2103
▁vol	-2104
wards	-2105
▁code	-2106
undred	-2107
▁lives	-2108
▁syria	-2109
▁wrote	-2110
▁strate	-2111
▁economy	-2112
▁environ	-2113
▁especially	-2114
27	-2115
84	-2116
ny	-2117
oud	-2118
ron	-2119
▁1.	-2120
▁log	-2121
▁ball	-2122
▁iraq	-2123
▁jobs	-2124
▁late	-2125
▁page	-2126
▁side	-2127
▁broad	-2128
▁rules	-2129
▁nearly	-2130
▁points	-2131
▁someone	-2132
85	-2133
mas	-2134
▁50	-2135
iews	-2136
▁dig	-2137
▁fav	-2138
▁gir	-2139
▁und	-2140
ences	-2141
ening	-2142
▁done	-2143
▁pred	-2144
govern	-2145
▁corpor	-2146
▁higher	-2147
▁issues	-2148
▁trying	-2149
▁attempt	-2150
▁biggest	-2151
▁discuss	-2152
▁express	-2153
▁nothing	-2154
▁respons	-2155
▁agencies	-2156
▁industry	-2157
ots	-2158
atic	-2159
▁dam	-2160
▁pet	-2161
based	-2162
ecess	-2163
▁suff	-2164
▁began	-2165
▁clear	-2166
▁exist	-2167
▁japan	-2168
ificant	-2169
▁nation	-2170
▁series	-2171
▁advertis	-2172
▁)	-2173
ese	-2174
ift	-2175
ram	-2176
▁28	-2177
"","	-2178
iate	-2179
▁31,	-2180
▁rob	-2181
aging	-2182
ances	-2183
▁hill	-2184
▁plat	-2185
ission	-2186
▁cases	-2187
▁pract	-2188
▁custom	-2189
▁hundred	-2190
▁suspect	-2191
-4	-2192
▁ru	-2193
head	-2194
ises	-2195
iding	-2196
▁circ	-2197
▁club	-2198
▁prior	-2199
▁player	-2200
▁taking	-2201
▁friends	-2202
▁individ	-2203
▁personal	-2204
▁technology	-2205
34	-2206
ark	-2207
cal	-2208
fer	-2209
ners	-2210
▁due	-2211
▁mag	-2212
▁saw	-2213
lling	-2214
▁comb	-2215
▁fall	-2216
▁2017.	-2217
▁citiz	-2218
▁field	-2219
▁image	-2220
▁islam	-2221
duction	-2222
ination	-2223
▁living	-2224
▁senior	-2225
ological	-2226
▁financial	-2227
▁potential	-2228
1.	-2229
ha	-2230
.""	-2231
iod	-2232
omb	-2233
▁na	-2234
cast	-2235
edom	-2236
lish	-2237
▁ago	-2238
▁exc	-2239
▁mis	-2240
ently	-2241
▁base	-2242
▁else	-2243
▁lost	-2244
▁hours	-2245
▁appear	-2246
▁deputy	-2247
▁single	-2248
▁virgin	-2249
▁billion	-2250
▁decision	-2251
▁announced	-2252
▁statement	-2253
3.	-2254
94	-2255
iec	-2256
ilt	-2257
▁26	-2258
unes	-2259
▁bud	-2260
▁june	-2261
▁love	-2262
▁true	-2263
▁webs	-2264
estern	-2265
▁tweet	-2266
▁water	-2267
▁accept	-2268
▁groups	-2269
▁needed	-2270
▁rather	-2271
▁saying	-2272
▁sexual	-2273
▁contact	-2274
▁revolution	-2275
▁significant	-2276
2/	-2277
put	-2278
you	-2279
▁2.	-2280
ored	-2281
that	-2282
they	-2283
▁30,	-2284
▁apr	-2285
icles	-2286
▁kill	-2287
▁reve	-2288
archae	-2289
▁2018.	-2290
▁green	-2291
▁value	-2292
▁border	-2293
▁spokes	-2294
▁comment	-2295
▁himself	-2296
▁running	-2297
▁stories	-2298
▁understand	-2299
▁environment	-2300
.'	-2301
74	-2302
dle	-2303
ica	-2304
tty	-2305
comp	-2306
ires	-2307
▁enj	-2308
▁fbi	-2309
▁mer	-2310
▁try	-2311
▁veh	-2312
ature	-2313
▁stop	-2314
▁vill	-2315
▁mount	-2316
▁seems	-2317
▁woman	-2318
▁impact	-2319
▁moment	-2320
▁worked	-2321
▁british	-2322
▁platform	-2323
▁currently	-2324
▁represent	-2325
60	-2326
dr	-2327
me	-2328
cil	-2329
eng	-2330
ows	-2331
hood	-2332
ined	-2333
lect	-2334
▁opt	-2335
rency	-2336
▁cars	-2337
▁king	-2338
▁mark	-2339
▁mind	-2340
▁repe	-2341
utions	-2342
▁carry	-2343
▁enter	-2344
▁whole	-2345
▁wrong	-2346
▁agents	-2347
▁feature	-2348
▁journal	-2349
▁weapons	-2350
▁movement	-2351
▁confirmed	-2352
▁republican	-2353
▁republicans	-2354
▁advertisement	-2355
eks	-2356
ida	-2357
▁fo	-2358
atal	-2359
ests	-2360
ival	-2361
town	-2362
utes	-2363
▁ali	-2364
▁emb	-2365
▁isn	-2366
estin	-2367
▁alle	-2368
▁cook	-2369
▁prim	-2370
▁risk	-2371
▁above	-2372
▁influ	-2373
▁trade	-2374
▁celebr	-2375
▁period	-2376
▁pretty	-2377
▁include	-2378
▁complete	-2379
▁expected	-2380
▁families	-2381
▁released	-2382
government	-2383
▁americans	-2384
▁conservative	-2385
.)	-2386
mb	-2387
lly	-2388
▁enc	-2389
▁pan	-2390
▁squ	-2391
iment	-2392
usion	-2393
▁cred	-2394
▁east	-2395
▁flag	-2396
▁phys	-2397
▁slow	-2398
▁sout	-2399
ograph	-2400
▁grand	-2401
▁leave	-2402
▁legal	-2403
▁march	-2404
▁sense	-2405
▁shows	-2406
▁candid	-2407
▁forces	-2408
▁inside	-2409
▁produc	-2410
▁resour	-2411
▁supreme	-2412
▁independ	-2413
▁individual	-2414
▁leadership	-2415
fr	-2416
ta	-2417
zy	-2418
ami	-2419
dis	-2420
ogn	-2421
roy	-2422
onse	-2423
▁ang	-2424
▁ben	-2425
▁link	-2426
action	-2427
atives	-2428
▁april	-2429
▁compl	-2430
▁daily	-2431
▁enjoy	-2432
▁demand	-2433
▁friday	-2434
▁online	-2435
▁describ	-2436
▁freedom	-2437
▁popular	-2438
▁countries	-2439
▁secretary	-2440
hl	-2441
ye	-2442
ode	-2443
oul	-2444
ste	-2445
ague	-2446
augh	-2447
▁dea	-2448
▁rat	-2449
▁scr	-2450
itten	-2451
▁appe	-2452
▁diff	-2453
▁path	-2454
▁room	-2455
▁coach	-2456
▁means	-2457
▁wants	-2458
▁anyone	-2459
▁instit	-2460
▁regard	-2461
▁finally	-2462
▁forward	-2463
▁medical	-2464
▁demonstr	-2465
▁happened	-2466
▁position	-2467
▁virginia	-2468
▁/	-2469
hib	-2470
▁(1	-2471
▁mr	-2472
ller	-2473
▁jer	-2474
▁neg	-2475
asons	-2476
iforn	-2477
▁terr	-2478
▁areas	-2479
ifornia	-2480
▁budget	-2481
▁refuge	-2482
▁clinton	-2483
▁meeting	-2484
▁original	-2485
▁received	-2486
▁response	-2487
▁specific	-2488
▁executive	-2489
ij	-2490
ank	-2491
elt	-2492
ium	-2493
oph	-2494
reg	-2495
uit	-2496
body	-2497
▁aug	-2498
▁fig	-2499
▁tin	-2500
estic	-2501
ounds	-2502
▁army	-2503
▁held	-2504
ctions	-2505
uments	-2506
ructure	-2507
▁female	-2508
▁actions	-2509
▁collect	-2510
▁present	-2511
▁product	-2512
▁website	-2513
▁features	-2514
▁implement	-2515
87	-2516
ago	-2517
aut	-2518
mit	-2519
osp	-2520
▁1,	-2521
▁ess	-2522
▁gro	-2523
▁lib	-2524
right	-2525
▁conv	-2526
▁hope	-2527
▁pull	-2528
▁analy	-2529
▁leban	-2530
▁peace	-2531
▁scale	-2532
article	-2533
▁longer	-2534
▁necess	-2535
▁status	-2536
▁wealth	-2537
▁concern	-2538
▁efforts	-2539
▁russian	-2540
▁western	-2541
▁learning	-2542
▁relationship	-2543
19	-2544
29	-2545
sm	-2546
ios	-2547
key	-2548
net	-2549
pre	-2550
▁ic	-2551
ston	-2552
▁ans	-2553
▁div	-2554
▁ham	-2555
▁nuc	-2556
anger	-2557
▁scre	-2558
coming	-2559
orters	-2560
▁colle	-2561
▁needs	-2562
▁photo	-2563
▁weeks	-2564
▁worth	-2565
▁either	-2566
▁middle	-2567
▁recogn	-2568
▁simply	-2569
▁source	-2570
▁improve	-2571
▁private	-2572
▁version	-2573
▁language	-2574
▁palestin	-2575
▁politics	-2576
▁continued	-2577
▁situation	-2578
ió	-2579
iet	-2580
rel	-2581
hani	-2582
oman	-2583
over	-2584
word	-2585
▁ach	-2586
▁bay	-2587
▁cup	-2588
▁dre	-2589
▁hor	-2590
▁mur	-2591
▁obs	-2592
▁tit	-2593
▁tom	-2594
▁unf	-2595
aries	-2596
arter	-2597
▁drop	-2598
▁goal	-2599
▁jack	-2600
▁mich	-2601
▁afric	-2602
▁crowd	-2603
▁oppos	-2604
▁battle	-2605
▁became	-2606
▁brought	-2607
▁council	-2608
▁organiz	-2609
▁remains	-2610
▁writing	-2611
▁arrested	-2612
▁policies	-2613
▁california	-2614
▁conditions	-2615
gu	-2616
lt	-2617
nd	-2618
za	-2619
but	-2620
ota	-2621
yle	-2622
▁mc	-2623
ault	-2624
▁age	-2625
▁mal	-2626
▁nic	-2627
▁sem	-2628
cript	-2629
itect	-2630
▁doug	-2631
▁goes	-2632
▁ment	-2633
▁subs	-2634
▁music	-2635
▁surpr	-2636
▁owners	-2637
▁article	-2638
▁nuclear	-2639
▁release	-2640
▁citizens	-2641
▁residents	-2642
▁organization	-2643
21	-2644
64	-2645
ude	-2646
zen	-2647
▁27	-2648
cont	-2649
ghan	-2650
hran	-2651
imum	-2652
with	-2653
▁mit	-2654
while	-2655
▁food	-2656
▁heav	-2657
▁safe	-2658
▁sold	-2659
▁text	-2660
▁corru	-2661
▁natur	-2662
▁relig	-2663
▁takes	-2664
▁critic	-2665
▁attacks	-2666
▁details	-2667
▁systems	-2668
--	-2669
ba	-2670
las	-2671
men	-2672
ume	-2673
iran	-2674
▁amb	-2675
▁gal	-2676
▁gra	-2677
▁las	-2678
▁sto	-2679
▁tur	-2680
acing	-2681
alled	-2682
atory	-2683
house	-2684
icult	-2685
▁bank	-2686
▁fell	-2687
▁huge	-2688
▁rate	-2689
▁rich	-2690
itting	-2691
▁2017,	-2692
▁amend	-2693
▁david	-2694
▁taxes	-2695
▁advent	-2696
▁decent	-2697
▁region	-2698
▁tehran	-2699
▁message	-2700
▁minutes	-2701
▁require	-2702
▁involved	-2703
▁progress	-2704
▁agreement	-2705
▁education	-2706
37	-2707
sk	-2708
rec	-2709
ille	-2710
▁abs	-2711
▁ein	-2712
▁pur	-2713
▁rou	-2714
▁ten	-2715
▁typ	-2716
after	-2717
crime	-2718
▁emer	-2719
▁gimp	-2720
▁pick	-2721
▁soon	-2722
itness	-2723
▁guard	-2724
▁offer	-2725
▁quick	-2726
▁users	-2727
covered	-2728
▁afghan	-2729
▁canada	-2730
▁decades	-2731
▁morning	-2732
▁consider	-2733
▁interview	-2734
▁experience	-2735
ato	-2736
eme	-2737
ias	-2738
ote	-2739
ref	-2740
▁3.	-2741
▁40	-2742
▁ma	-2743
?"""	-2744
ique	-2745
omas	-2746
rast	-2747
▁cas	-2748
▁eve	-2749
▁hol	-2750
▁deli	-2751
▁firm	-2752
▁gave	-2753
▁gold	-2754
▁phon	-2755
▁sett	-2756
▁teac	-2757
▁cover	-2758
▁career	-2759
▁launch	-2760
▁object	-2761
▁victim	-2762
▁alleged	-2763
▁islamic	-2764
▁streets	-2765
▁hundreds	-2766
▁multiple	-2767
ery	-2768
unt	-2769
▁$5	-2770
aled	-2771
duce	-2772
fort	-2773
▁gas	-2774
▁gop	-2775
▁hur	-2776
▁nom	-2777
ights	-2778
▁card	-2779
▁cash	-2780
▁fear	-2781
▁guys	-2782
▁lack	-2783
▁push	-2784
▁race	-2785
▁wide	-2786
ounded	-2787
rences	-2788
though	-2789
▁defin	-2790
▁immed	-2791
▁paper	-2792
▁reach	-2793
▁scene	-2794
▁smart	-2795
▁token	-2796
▁travel	-2797
▁average	-2798
▁changes	-2799
▁playing	-2800
▁contract	-2801
▁domestic	-2802
▁previous	-2803
▁difficult	-2804
▁demonstrat	-2805
65	-2806
nn	-2807
su	-2808
gen	-2809
nov	-2810
ube	-2811
▁oh	-2812
aves	-2813
ceed	-2814
cons	-2815
ford	-2816
load	-2817
lock	-2818
what	-2819
▁fix	-2820
▁lad	-2821
rants	-2822
▁aust	-2823
▁exch	-2824
▁fast	-2825
▁meas	-2826
▁pers	-2827
▁achie	-2828
▁apart	-2829
▁eight	-2830
▁mater	-2831
▁model	-2832
▁cannot	-2833
▁church	-2834
▁giving	-2835
▁perform	-2836
▁researc	-2837
▁deputies	-2838
▁amendment	-2839
9.	-2840
ai	-2841
gh	-2842
ett	-2843
lex	-2844
lls	-2845
▁ut	-2846
airs	-2847
last	-2848
part	-2849
ware	-2850
▁buy	-2851
▁oil	-2852
▁por	-2853
arily	-2854
izing	-2855
▁cass	-2856
▁clos	-2857
▁easy	-2858
▁fair	-2859
▁flor	-2860
▁july	-2861
▁knew	-2862
▁lisk	-2863
▁piec	-2864
▁poor	-2865
▁shut	-2866
▁user	-2867
ground	-2868
iation	-2869
▁andro	-2870
▁exact	-2871
▁heart	-2872
▁maybe	-2873
▁spent	-2874
▁trust	-2875
▁veter	-2876
▁amount	-2877
▁forced	-2878
▁matter	-2879
▁reform	-2880
▁search	-2881
▁consist	-2882
▁counter	-2883
▁decided	-2884
▁mention	-2885
▁numbers	-2886
▁quality	-2887
▁approach	-2888
▁governor	-2889
▁included	-2890
ana	-2891
▁29	-2892
▁um	-2893
erve	-2894
ette	-2895
gypt	-2896
hold	-2897
ocur	-2898
sych	-2899
▁eth	-2900
▁pow	-2901
▁son	-2902
ients	-2903
oring	-2904
verse	-2905
▁kids	-2906
▁nine	-2907
▁nort	-2908
▁paid	-2909
▁saud	-2910
▁estab	-2911
▁fired	-2912
▁kelly	-2913
▁phone	-2914
▁quite	-2915
▁separ	-2916
▁treat	-2917
▁works	-2918
ruction	-2919
▁august	-2920
▁chance	-2921
▁played	-2922
▁showed	-2923
ications	-2924
▁android	-2925
▁calling	-2926
▁society	-2927
▁function	-2928
▁includes	-2929
▁majority	-2930
▁property	-2931
▁beginning	-2932
▁christmas	-2933
▁cryptocur	-2934
▁resources	-2935
ho	-2936
▁31	-2937
ecil	-2938
ighb	-2939
just	-2940
▁bey	-2941
▁feb	-2942
▁mel	-2943
▁web	-2944
power	-2945
▁coup	-2946
▁epis	-2947
▁fans	-2948
▁grud	-2949
▁rule	-2950
▁tren	-2951
▁trip	-2952
▁built	-2953
▁prime	-2954
ilities	-2955
▁latest	-2956
▁letter	-2957
▁levels	-2958
▁thomas	-2959
▁defense	-2960
▁predict	-2961
▁rouhani	-2962
▁student	-2963
▁comments	-2964
▁iranians	-2965
▁problems	-2966
▁strategy	-2967
▁attention	-2968
4,	-2969
ev	-2970
gs	-2971
/15	-2972
/18	-2973
ien	-2974
arth	-2975
chen	-2976
icit	-2977
ills	-2978
oose	-2979
unch	-2980
▁ber	-2981
▁mad	-2982
▁obv	-2983
aving	-2984
inese	-2985
▁decl	-2986
▁male	-2987
ursday	-2988
▁looks	-2989
▁moder	-2990
▁strug	-2991
▁caecil	-2992
▁member	-2993
▁simple	-2994
▁thanks	-2995
▁turned	-2996
▁conduct	-2997
▁douglas	-2998
▁extreme	-2999
▁quarter	-3000
▁designed	-3001
▁powerful	-3002
▁thinking	-3003
▁appalachia	-3004
▁throughout	-3005
73	-3006
gl	-3007
ino	-3008
isl	-3009
lim	-3010
ush	-3011
acht	-3012
aine	-3013
dead	-3014
fect	-3015
izes	-3016
▁adm	-3017
▁ded	-3018
▁flow	-3019
▁note	-3020
▁pack	-3021
▁spot	-3022
▁vice	-3023
forman	-3024
▁board	-3025
▁check	-3026
▁heard	-3027
▁james	-3028
▁nunes	-3029
▁thank	-3030
eration	-3031
▁ground	-3032
▁itself	-3033
▁remain	-3034
entially	-3035
▁funding	-3036
▁although	-3037
▁southern	-3038
▁published	-3039
▁immigration	-3040
▁interesting	-3041
.0	-3042
2)	-3043
nb	-3044
axy	-3045
ips	-3046
ple	-3047
raw	-3048
sey	-3049
val	-3050
▁23	-3051
▁du	-3052
▁ok	-3053
lled	-3054
ties	-3055
▁das	-3056
▁deb	-3057
▁guy	-3058
▁hat	-3059
▁hon	-3060
▁lay	-3061
▁tim	-3062
▁tor	-3063
iring	-3064
▁amaz	-3065
▁door	-3066
▁loss	-3067
▁type	-3068
▁ways	-3069
▁deter	-3070
▁princ	-3071
imately	-3072
▁analys	-3073
▁beyond	-3074
▁consid	-3075
▁events	-3076
▁galaxy	-3077
▁gender	-3078
▁helped	-3079
▁climate	-3080
▁germany	-3081
▁israeli	-3082
▁phoneme	-3083
▁politic	-3084
▁password	-3085
▁remember	-3086
▁thursday	-3087
▁character	-3088
▁tradition	-3089
▁increasing	-3090
▁palestinian	-3091
▁researchers	-3092
▁constitution	-3093
1-	-3094
ür	-3095
▁ب	-3096
eda	-3097
nes	-3098
win	-3099
▁tv	-3100
▁vs	-3101
iers	-3102
imin	-3103
ocol	-3104
pres	-3105
ried	-3106
term	-3107
usal	-3108
▁fal	-3109
▁nar	-3110
▁wil	-3111
ached	-3112
aming	-3113
andra	-3114
aught	-3115
▁beat	-3116
▁blog	-3117
▁font	-3118
▁hosp	-3119
▁item	-3120
▁meth	-3121
▁perm	-3122
▁talk	-3123
▁advis	-3124
▁advoc	-3125
▁calls	-3126
▁franc	-3127
▁plans	-3128
▁psych	-3129
/2017/0	-3130
ancient	-3131
suspect	-3132
▁income	-3133
▁growing	-3134
▁studies	-3135
▁village	-3136
▁witness	-3137
▁downtown	-3138
▁programs	-3139
▁performan	-3140
▁production	-3141
▁communities	-3142
7.	-3143
8,	-3144
mo	-3145
ux	-3146
vo	-3147
har	-3148
iar	-3149
mag	-3150
ona	-3151
uth	-3152
▁ps	-3153
enda	-3154
fire	-3155
idge	-3156
▁avo	-3157
▁lin	-3158
▁mob	-3159
▁pak	-3160
▁yes	-3161
field	-3162
ureau	-3163
world	-3164
▁blue	-3165
▁prem	-3166
▁tool	-3167
ements	-3168
iately	-3169
▁attor	-3170
▁behav	-3171
▁cross	-3172
▁favor	-3173
▁rates	-3174
▁shoot	-3175
▁visit	-3176
▁willi	-3177
▁adding	-3178
▁affect	-3179
▁couple	-3180
▁expand	-3181
▁growth	-3182
▁neighb	-3183
▁passed	-3184
▁spring	-3185
▁update	-3186
▁wouldn	-3187
▁florida	-3188
▁respect	-3189
▁material	-3190
▁cassandra	-3191
▁contribut	-3192
▁influence	-3193
archaeology	-3194
▁demonstration	-3195
bu	-3196
▁,	-3197
ael	-3198
ele	-3199
fin	-3200
was	-3201
▁22	-3202
anch	-3203
enei	-3204
enez	-3205
haps	-3206
ibly	-3207
▁bow	-3208
▁buc	-3209
▁hus	-3210
▁mic	-3211
class	-3212
erved	-3213
iance	-3214
ously	-3215
▁calc	-3216
▁cold	-3217
▁hall	-3218
▁imag	-3219
▁surv	-3220
▁upon	-3221
▁virt	-3222
▁wish	-3223
▁angel	-3224
▁brows	-3225
▁chair	-3226
▁learn	-3227
▁overt	-3228
▁words	-3229
enezuel	-3230
hamenei	-3231
ighters	-3232
▁choice	-3233
▁austral	-3234
▁digital	-3235
▁episode	-3236
▁largest	-3237
▁managed	-3238
▁written	-3239
▁benefits	-3240
▁district	-3241
▁pakistan	-3242
▁required	-3243
▁decentral	-3244
▁questions	-3245
▁associated	-3246
99	-3247
any	-3248
inn	-3249
met	-3250
set	-3251
▁"(	-3252
▁21	-3253
life	-3254
uses	-3255
▁aim	-3256
▁sym	-3257
ordin	-3258
▁copy	-3259
▁doll	-3260
▁fuel	-3261
▁mond	-3262
▁para	-3263
▁qash	-3264
▁size	-3265
▁soft	-3266
▁wild	-3267
▁alleg	-3268
▁drive	-3269
▁goals	-3270
▁highl	-3271
▁india	-3272
▁named	-3273
▁rally	-3274
▁terms	-3275
▁throw	-3276
ication	-3277
ression	-3278
▁applic	-3279
▁bureau	-3280
▁credit	-3281
▁gruden	-3282
▁harass	-3283
▁legisl	-3284
▁signed	-3285
▁injured	-3286
▁limited	-3287
▁natural	-3288
▁repeated	-3289
▁speaking	-3290
▁activists	-3291
▁challenge	-3292
▁sometimes	-3293
▁operations	-3294
▁opportunity	-3295
▁participants	-3296
39	-3297
-12	-3298
apt	-3299
car	-3300
ero	-3301
gun	-3302
ocr	-3303
vey	-3304
orge	-3305
shot	-3306
wide	-3307
▁bir	-3308
▁mex	-3309
▁rad	-3310
trump	-3311
▁"(""	-3312
▁arab	-3313
▁hous	-3314
▁opin	-3315
▁send	-3316
▁stra	-3317
▁trib	-3318
▁posts	-3319
▁teams	-3320
▁whose	-3321
▁consum	-3322
▁failed	-3323
▁happen	-3324
▁prices	-3325
▁unrest	-3326
▁attract	-3327
▁perhaps	-3328
▁serious	-3329
▁creating	-3330
▁document	-3331
▁millions	-3332
▁venezuel	-3333
▁continues	-3334
▁eventually	-3335
▁independent	-3336
▁trafficking	-3337
▁demonstrators	-3338
/6	-3339
sl	-3340
/17	-3341
how	-3342
iel	-3343
iqu	-3344
pap	-3345
str	-3346
ção	-3347
▁il	-3348
ante	-3349
bell	-3350
resh	-3351
stre	-3352
▁ren	-3353
ander	-3354
anted	-3355
ruary	-3356
▁cast	-3357
▁felt	-3358
▁host	-3359
▁plus	-3360
▁sand	-3361
▁shel	-3362
invest	-3363
isions	-3364
ularly	-3365
▁canad	-3366
▁crime	-3367
▁ended	-3368
▁hands	-3369
▁illeg	-3370
▁lower	-3371
▁annual	-3372
▁camera	-3373
▁centre	-3374
▁common	-3375
▁editor	-3376
▁gather	-3377
▁method	-3378
▁mother	-3379
▁shared	-3380
▁century	-3381
▁chinese	-3382
▁complex	-3383
▁minimum	-3384
▁related	-3385
▁request	-3386
▁smaller	-3387
▁analysis	-3388
▁believed	-3389
▁colorado	-3390
▁compared	-3391
▁provided	-3392
▁province	-3393
▁certainly	-3394
▁corporate	-3395
▁professor	-3396
▁reporting	-3397
▁commission	-3398
▁conference	-3399
▁particular	-3400
▁considering	-3401
4.	-3402
dy	-3403
sa	-3404
▁|	-3405
▁م	-3406
/16	-3407
200	-3408
ión	-3409
nel	-3410
och	-3411
ops	-3412
rad	-3413
see	-3414
ugh	-3415
urb	-3416
iant	-3417
itch	-3418
resp	-3419
ucky	-3420
▁box	-3421
▁era	-3422
▁sus	-3423
▁ult	-3424
anced	-3425
iders	-3426
phone	-3427
stein	-3428
useum	-3429
▁burn	-3430
▁bush	-3431
▁coat	-3432
▁kore	-3433
▁nice	-3434
▁norm	-3435
ouston	-3436
▁ahead	-3437
▁award	-3438
▁innov	-3439
▁minor	-3440
▁seven	-3441
▁stage	-3442
▁league	-3443
▁summer	-3444
▁allowed	-3445
▁exactly	-3446
▁picture	-3447
▁various	-3448
▁hospital	-3449
▁location	-3450
▁partners	-3451
▁prosecut	-3452
▁spending	-3453
▁training	-3454
▁experiment	-3455
mon	-3456
rew	-3457
▁fu	-3458
bert	-3459
face	-3460
oted	-3461
▁bat	-3462
▁bin	-3463
▁sad	-3464
lined	-3465
night	-3466
rents	-3467
times	-3468
▁2010	-3469
▁aren	-3470
▁film	-3471
▁ones	-3472
▁rare	-3473
uction	-3474
▁meant	-3475
▁occup	-3476
▁probe	-3477
▁saudi	-3478
▁tried	-3479
▁union	-3480
▁africa	-3481
▁integr	-3482
▁perman	-3483
▁prison	-3484
▁voters	-3485
▁claimed	-3486
▁cookies	-3487
▁section	-3488
▁victory	-3489
/2017/12/	-3490
▁february	-3491
▁physical	-3492
▁architect	-3493
▁protester	-3494
▁characters	-3495
▁corruption	-3496
▁foundation	-3497
▁reportedly	-3498
▁immediately	-3499
▁presidential	-3500
1/	-3501
ady	-3502
cle	-3503
ipp	-3504
▁ho	-3505
anta	-3506
more	-3507
room	-3508
sequ	-3509
▁cab	-3510
▁mac	-3511
▁roy	-3512
▁tex	-3513
isted	-3514
ufact	-3515
▁band	-3516
▁died	-3517
▁mort	-3518
▁tend	-3519
▁thro	-3520
atever	-3521
county	-3522
refuge	-3523
▁brief	-3524
▁maint	-3525
▁stuff	-3526
▁voice	-3527
▁altern	-3528
▁engine	-3529
▁friend	-3530
▁modern	-3531
▁places	-3532
▁posted	-3533
▁secure	-3534
▁ability	-3535
▁cutting	-3536
▁devices	-3537
▁display	-3538
▁francis	-3539
▁leaving	-3540
▁massive	-3541
▁reasons	-3542
▁science	-3543
▁usually	-3544
▁violent	-3545
▁attorney	-3546
▁directly	-3547
▁exchange	-3548
▁starting	-3549
▁teachers	-3550
▁condition	-3551
▁meanwhile	-3552
▁institutions	-3553
▁particularly	-3554
33	-3555
wa	-3556
arm	-3557
des	-3558
oti	-3559
rer	-3560
rev	-3561
ted	-3562
umb	-3563
yes	-3564
▁60	-3565
▁fa	-3566
athe	-3567
hest	-3568
obby	-3569
post	-3570
rant	-3571
rary	-3572
well	-3573
▁arm	-3574
▁dyn	-3575
▁flo	-3576
▁ign	-3577
▁lif	-3578
▁pen	-3579
▁sil	-3580
▁wel	-3581
going	-3582
ledge	-3583
▁husb	-3584
▁scen	-3585
gender	-3586
people	-3587
▁cause	-3588
▁costs	-3589
▁graph	-3590
▁hotel	-3591
▁intro	-3592
▁invol	-3593
▁lands	-3594
▁parts	-3595
▁talks	-3596
▁agenda	-3597
▁allies	-3598
▁couldn	-3599
▁encour	-3600
▁myself	-3601
▁opened	-3602
▁tinder	-3603
investig	-3604
▁leading	-3605
▁lebanon	-3606
▁manager	-3607
▁subject	-3608
▁towards	-3609
▁victims	-3610
▁concerns	-3611
▁manufact	-3612
▁networks	-3613
▁refugees	-3614
▁necessary	-3615
22	-3616
▁`	-3617
ati	-3618
can	-3619
dec	-3620
pos	-3621
▁cy	-3622
ania	-3623
ares	-3624
ilit	-3625
pper	-3626
west	-3627
▁$1,	-3628
▁cra	-3629
▁joe	-3630
▁nav	-3631
▁roc	-3632
comes	-3633
state	-3634
uries	-3635
ville	-3636
▁bern	-3637
▁draw	-3638
▁file	-3639
▁lawy	-3640
▁mach	-3641
person	-3642
▁alone	-3643
▁brand	-3644
▁celeb	-3645
▁funds	-3646
▁haven	-3647
▁refer	-3648
aughter	-3649
▁answer	-3650
▁choose	-3651
▁issued	-3652
▁monday	-3653
▁unlike	-3654
▁commerc	-3655
▁confirm	-3656
▁driving	-3657
▁dropped	-3658
▁infrast	-3659
▁michael	-3660
▁patient	-3661
▁prevent	-3662
▁princip	-3663
▁quickly	-3664
▁talking	-3665
▁internet	-3666
▁launched	-3667
lastrefuge	-3668
▁described	-3669
▁sanctions	-3670
▁association	-3671
▁demonstrations	-3672
▁infrastructure	-3673
)"	-3674
7,	-3675
dd	-3676
df	-3677
yl	-3678
zz	-3679
▁0	-3680
amb	-3681
aud	-3682
dom	-3683
had	-3684
ken	-3685
lle	-3686
rep	-3687
▁""	-3688
▁35	-3689
▁pu	-3690
idel	-3691
orry	-3692
wise	-3693
▁(10	-3694
▁anc	-3695
▁lic	-3696
▁mov	-3697
▁ord	-3698
ensus	-3699
using	-3700
white	-3701
▁fest	-3702
▁girl	-3703
▁lock	-3704
▁paul	-3705
ressed	-3706
▁2016,	-3707
▁autom	-3708
▁blood	-3709
▁champ	-3710
▁clash	-3711
▁frame	-3712
▁motor	-3713
▁parks	-3714
thereum	-3715
▁afford	-3716
▁mining	-3717
▁scient	-3718
▁brother	-3719
▁culture	-3720
▁destroy	-3721
▁perfect	-3722
▁planned	-3723
▁telling	-3724
stitution	-3725
▁cultural	-3726
▁ethereum	-3727
▁interact	-3728
▁khamenei	-3729
▁watching	-3730
▁whatever	-3731
▁candidate	-3732
▁coalition	-3733
▁communist	-3734
▁management	-3735
▁population	-3736
▁organizations	-3737
79	-3738
8.	-3739
▁+	-3740
cur	-3741
hol	-3742
ike	-3743
kes	-3744
pet	-3745
she	-3746
▁ms	-3747
iles	-3748
prof	-3749
ucks	-3750
uing	-3751
▁ens	-3752
▁les	-3753
▁lou	-3754
▁map	-3755
▁rac	-3756
▁ron	-3757
akers	-3758
istry	-3759
itely	-3760
order	-3761
▁""""	-3762
▁2009	-3763
▁cris	-3764
▁exam	-3765
▁iota	-3766
▁prec	-3767
▁rise	-3768
▁sect	-3769
▁shar	-3770
▁sort	-3771
▁asher	-3772
▁basic	-3773
▁brain	-3774
▁piece	-3775
▁table	-3776
▁worst	-3777
ounding	-3778
▁active	-3779
▁comput	-3780
▁decade	-3781
▁figure	-3782
▁larger	-3783
▁looked	-3784
▁spread	-3785
▁square	-3786
ologists	-3787
▁achieve	-3788
▁changed	-3789
▁college	-3790
▁concept	-3791
▁conflic	-3792
▁mission	-3793
▁reading	-3794
▁station	-3795
▁willing	-3796
▁followed	-3797
▁protocol	-3798
▁committed	-3799
▁documents	-3800
▁suggested	-3801
▁caecilians	-3802
▁previously	-3803
▁performance	-3804
):	-3805
7-	-3806
83	-3807
nc	-3808
po	-3809
▁à	-3810
▁و	-3811
bed	-3812
col	-3813
ito	-3814
mad	-3815
sia	-3816
tre	-3817
▁id	-3818
▁py	-3819
ador	-3820
oved	-3821
rial	-3822
▁atl	-3823
▁cat	-3824
▁cnn	-3825
▁dir	-3826
▁fly	-3827
▁ker	-3828
▁mas	-3829
▁nor	-3830
▁ram	-3831
▁shi	-3832
agram	-3833
death	-3834
eries	-3835
itory	-3836
▁cell	-3837
▁diss	-3838
▁hack	-3839
▁mart	-3840
▁none	-3841
▁riot	-3842
▁runs	-3843
▁save	-3844
▁sind	-3845
▁tenn	-3846
▁tens	-3847
▁wage	-3848
americ	-3849
ishing	-3850
uchsia	-3851
▁avoid	-3852
▁fatal	-3853
▁metal	-3854
▁moved	-3855
▁multi	-3856
▁ready	-3857
▁shown	-3858
▁speed	-3859
▁telev	-3860
atively	-3861
▁advant	-3862
▁assist	-3863
▁concer	-3864
▁crypto	-3865
▁george	-3866
▁indeed	-3867
▁moving	-3868
▁sounds	-3869
▁assault	-3870
▁initial	-3871
▁liberal	-3872
▁meaning	-3873
▁opening	-3874
▁reality	-3875
▁sensory	-3876
▁incident	-3877
▁interior	-3878
▁practice	-3879
▁solution	-3880
▁vehicles	-3881
▁increased	-3882
▁permanent	-3883
▁spokesman	-3884
▁terrorist	-3885
▁transform	-3886
▁protection	-3887
▁regulations	-3888
▁opportunities	-3889
▁responsibility	-3890
6,	-3891
ya	-3892
ano	-3893
bro	-3894
equ	-3895
ope	-3896
pir	-3897
uct	-3898
xit	-3899
▁70	-3900
▁si	-3901
ione	-3902
onom	-3903
oper	-3904
rupt	-3905
unte	-3906
zens	-3907
▁abd	-3908
▁ask	-3909
▁etc	-3910
▁gar	-3911
▁jon	-3912
▁nur	-3913
▁pun	-3914
▁swe	-3915
▁tro	-3916
icial	-3917
polit	-3918
tered	-3919
▁adop	-3920
▁kept	-3921
▁phil	-3922
▁sket	-3923
▁snow	-3924
▁abuse	-3925
▁beaut	-3926
▁brown	-3927
▁domin	-3928
▁draft	-3929
▁firms	-3930
▁indic	-3931
▁liter	-3932
▁miami	-3933
▁purch	-3934
▁raise	-3935
▁serve	-3936
▁touch	-3937
▁trial	-3938
▁allows	-3939
▁closed	-3940
▁denver	-3941
▁disapp	-3942
▁double	-3943
▁dozens	-3944
▁experi	-3945
▁labour	-3946
▁mexico	-3947
▁presid	-3948
▁strugg	-3949
▁toward	-3950
▁warned	-3951
ferences	-3952
▁accused	-3953
▁affairs	-3954
▁appoint	-3955
▁audible	-3956
▁browser	-3957
▁charges	-3958
▁comfort	-3959
▁greater	-3960
▁happens	-3961
▁newslet	-3962
▁parents	-3963
▁wearing	-3964
▁behavior	-3965
▁pictures	-3966
▁revealed	-3967
▁expensive	-3968
▁expressed	-3969
▁religious	-3970
▁activities	-3971
▁afghanistan	-3972
▁politicians	-3973
,'	-3974
46	-3975
aks	-3976
don	-3977
kel	-3978
nam	-3979
oty	-3980
war	-3981
▁ak	-3982
▁ay	-3983
▁ze	-3984
dies	-3985
long	-3986
▁auf	-3987
▁bab	-3988
▁bed	-3989
▁din	-3990
▁ice	-3991
▁jun	-3992
▁usa	-3993
antis	-3994
enced	-3995
known	-3996
woman	-3997
▁alex	-3998
▁jeff	-3999
▁load	-4000
▁mist	-4001
▁pain	-4002
▁sess	-4003
▁ship	-4004
▁surr	-4005
▁uses	-4006
▁wife	-4007
▁corre	-4008
▁firef	-4009
▁girls	-4010
▁names	-4011
▁sites	-4012
▁withd	-4013
▁charge	-4014
▁claims	-4015
▁crimes	-4016
▁danger	-4017
▁elimin	-4018
▁except	-4019
▁highly	-4020
▁option	-4021
▁ancient	-4022
▁fuchsia	-4023
▁shelter	-4024
▁tweeted	-4025
ification	-4026
▁football	-4027
▁restrict	-4028
▁separate	-4029
▁veterans	-4030
▁childhood	-4031
▁businesses	-4032
▁investment	-4033
▁allegations	-4034
▁individuals	-4035
▁transgender	-4036
▁cryptocurrency	-4037
-1	-4038
-5	-4039
tc	-4040
ua	-4041
▁é	-4042
bnb	-4043
lla	-4044
▁ec	-4045
▁ga	-4046
▁ko	-4047
!"""	-4048
adop	-4049
inte	-4050
▁sho	-4051
▁sie	-4052
▁van	-4053
arent	-4054
ashes	-4055
burgh	-4056
deput	-4057
iling	-4058
oulos	-4059
place	-4060
▁amid	-4061
▁apps	-4062
▁bowl	-4063
▁coin	-4064
▁cuts	-4065
▁date	-4066
▁dism	-4067
▁doct	-4068
▁gone	-4069
▁lots	-4070
▁spur	-4071
▁whom	-4072
commun	-4073
▁chann	-4074
▁click	-4075
▁drugs	-4076
▁frequ	-4077
▁ideas	-4078
▁meals	-4079
▁spoke	-4080
▁sport	-4081
▁stock	-4082
▁weren	-4083
▁caught	-4084
▁circum	-4085
▁miners	-4086
▁raised	-4087
▁seeing	-4088
▁sketch	-4089
▁values	-4090
▁dollars	-4091
▁footage	-4092
▁highest	-4093
▁reached	-4094
▁vehicle	-4095
▁volunte	-4096
▁activity	-4097
▁breaking	-4098
▁desantis	-4099
▁entirely	-4100
▁northern	-4101
▁proposed	-4102
▁resident	-4103
▁software	-4104
▁interests	-4105
▁operation	-4106
▁positions	-4107
▁responded	-4108
▁commercial	-4109
▁generation	-4110
▁harassment	-4111
▁supporters	-4112
-0	-4113
/4	-4114
88	-4115
ki	-4116
yt	-4117
500	-4118
aco	-4119
het	-4120
iat	-4121
pay	-4122
ris	-4123
ros	-4124
run	-4125
▁80	-4126
aeda	-4127
ancy	-4128
city	-4129
emen	-4130
star	-4131
▁cia	-4132
▁esc	-4133
▁eye	-4134
▁sle	-4135
▁tun	-4136
dered	-4137
found	-4138
itude	-4139
olute	-4140
▁auto	-4141
▁fine	-4142
▁hate	-4143
▁trek	-4144
▁unit	-4145
idered	-4146
stream	-4147
▁2018,	-4148
▁agree	-4149
▁broke	-4150
▁carol	-4151
▁chant	-4152
▁fresh	-4153
▁knows	-4154
▁labor	-4155
▁limit	-4156
▁nicht	-4157
▁quant	-4158
▁sched	-4159
▁valid	-4160
actions	-4161
clusion	-4162
▁asking	-4163
▁deaths	-4164
▁resist	-4165
▁studio	-4166
▁convers	-4167
▁enterpr	-4168
▁experts	-4169
▁hillary	-4170
▁newspap	-4171
▁offense	-4172
▁putting	-4173
▁records	-4174
▁canadian	-4175
▁coverage	-4176
▁critical	-4177
▁direction	-4178
▁locations	-4179
▁providing	-4180
▁interviews	-4181
▁presidency	-4182
▁increasingly	-4183
▁environmental	-4184
49	-4185
89	-4186
bit	-4187
bon	-4188
ini	-4189
san	-4190
who	-4191
▁32	-4192
▁45	-4193
▁bi	-4194
▁ta	-4195
ales	-4196
enue	-4197
isko	-4198
omen	-4199
week	-4200
wood	-4201
▁aid	-4202
▁bes	-4203
▁boy	-4204
▁cru	-4205
▁vac	-4206
▁wat	-4207
ables	-4208
aches	-4209
▁doub	-4210
▁fort	-4211
▁hear	-4212
▁iron	-4213
▁mine	-4214
▁rain	-4215
▁rick	-4216
▁rock	-4217
▁semi	-4218
▁song	-4219
▁term	-4220
istics	-4221
usalem	-4222
▁2016.	-4223
▁cheap	-4224
▁crack	-4225
▁fully	-4226
▁lobby	-4227
▁owned	-4228
▁pitch	-4229
▁recre	-4230
▁tough	-4231
▁write	-4232
▁bigger	-4233
▁brexit	-4234
▁caused	-4235
▁mobile	-4236
▁models	-4237
▁promot	-4238
▁prompt	-4239
▁seemed	-4240
▁wonder	-4241
▁becomes	-4242
▁inspect	-4243
▁markets	-4244
▁papadop	-4245
▁primary	-4246
▁receive	-4247
▁showing	-4248
▁allowing	-4249
▁european	-4250
▁positive	-4251
▁prospect	-4252
▁standing	-4253
▁apartment	-4254
▁fundament	-4255
▁jerusalem	-4256
▁regarding	-4257
▁additional	-4258
▁commitment	-4259
▁completely	-4260
▁considered	-4261
▁opposition	-4262
▁ultimately	-4263
',	-4264
1%	-4265
▁{	-4266
-17	-4267
800	-4268
dem	-4269
gor	-4270
hal	-4271
▁);	-4272
▁bh	-4273
▁eu	-4274
iful	-4275
oked	-4276
ores	-4277
rich	-4278
ship	-4279
supp	-4280
vere	-4281
▁aus	-4282
▁bra	-4283
▁fis	-4284
▁fit	-4285
▁mig	-4286
▁rie	-4287
▁wed	-4288
abled	-4289
athan	-4290
onson	-4291
▁asse	-4292
▁exce	-4293
▁fill	-4294
▁hasn	-4295
▁lose	-4296
▁mary	-4297
▁susp	-4298
▁tour	-4299
▁walk	-4300
▁wars	-4301
icient	-4302
onents	-4303
▁basis	-4304
▁boris	-4305
▁dynam	-4306
▁false	-4307
▁heavy	-4308
▁homel	-4309
▁magaz	-4310
▁mayor	-4311
▁memor	-4312
▁occas	-4313
▁qaeda	-4314
ossible	-4315
▁island	-4316
▁motion	-4317
▁nature	-4318
▁offers	-4319
▁planet	-4320
▁powers	-4321
▁reject	-4322
▁rocket	-4323
▁stepup	-4324
▁unless	-4325
▁videos	-4326
▁appropr	-4327
▁charged	-4328
▁conclud	-4329
▁disturb	-4330
▁husband	-4331
▁learned	-4332
▁missing	-4333
▁apparent	-4334
▁existing	-4335
▁identity	-4336
▁pressure	-4337
▁projects	-4338
▁standard	-4339
▁adventure	-4340
▁champions	-4341
▁transport	-4342
▁successful	-4343
▁investigate	-4344
▁traditional	-4345
▁decentralized	-4346
rs	-4347
ás	-4348
agn	-4349
ali	-4350
bec	-4351
fir	-4352
ipl	-4353
ora	-4354
ray	-4355
sex	-4356
tra	-4357
ura	-4358
vin	-4359
vis	-4360
▁34	-4361
▁38	-4362
▁4.	-4363
▁5.	-4364
▁ai	-4365
▁cu	-4366
▁vo	-4367
adem	-4368
ando	-4369
aped	-4370
aron	-4371
enty	-4372
iced	-4373
know	-4374
lets	-4375
ocks	-4376
▁dan	-4377
▁nfl	-4378
▁ris	-4379
▁sam	-4380
▁vul	-4381
arian	-4382
daily	-4383
icago	-4384
ottom	-4385
press	-4386
shoot	-4387
▁2020	-4388
▁bomb	-4389
▁cart	-4390
▁core	-4391
▁mike	-4392
▁mode	-4393
▁nick	-4394
▁pool	-4395
▁purs	-4396
▁reop	-4397
▁roll	-4398
▁sell	-4399
▁wait	-4400
▁wave	-4401
▁wood	-4402
employ	-4403
ribute	-4404
▁assum	-4405
▁books	-4406
▁escal	-4407
▁insur	-4408
▁jones	-4409
▁older	-4410
▁paint	-4411
▁riehl	-4412
▁sales	-4413
▁spend	-4414
▁steps	-4415
▁votes	-4416
▁waves	-4417
ributed	-4418
▁academ	-4419
▁actual	-4420
▁belief	-4421
▁indian	-4422
▁judges	-4423
▁mostly	-4424
▁muslim	-4425
▁propos	-4426
▁pushed	-4427
▁appears	-4428
▁imagine	-4429
▁nations	-4430
▁partner	-4431
▁weekend	-4432
▁wounded	-4433
▁historic	-4434
▁injuries	-4435
▁mountain	-4436
▁promised	-4437
▁speakers	-4438
▁supposed	-4439
▁transfer	-4440
▁celebrate	-4441
▁offensive	-4442
▁ownership	-4443
▁protected	-4444
▁reporters	-4445
▁therefore	-4446
▁specifically	-4447
47	-4448
ga	-4449
ko	-4450
mi	-4451
sw	-4452
wr	-4453
▁ت	-4454
ari	-4455
eff	-4456
ili	-4457
lev	-4458
sec	-4459
sen	-4460
▁1:	-4461
▁2,	-4462
▁ii	-4463
▁lg	-4464
▁xi	-4465
"")"	-4466
agon	-4467
auld	-4468
cher	-4469
ding	-4470
gers	-4471
iger	-4472
irts	-4473
pose	-4474
prot	-4475
rist	-4476
▁(20	-4477
▁cro	-4478
▁dog	-4479
▁pix	-4480
antly	-4481
eline	-4482
erous	-4483
orter	-4484
rench	-4485
▁appl	-4486
▁arms	-4487
▁asia	-4488
▁feed	-4489
▁grad	-4490
▁guar	-4491
▁impl	-4492
▁onto	-4493
▁resc	-4494
▁sich	-4495
▁skin	-4496
▁soph	-4497
▁stor	-4498
ivered	-4499
ocracy	-4500
▁cabin	-4501
▁movie	-4502
▁occur	-4503
▁roads	-4504
▁shout	-4505
▁steel	-4506
▁strip	-4507
▁texas	-4508
▁turns	-4509
atollah	-4510
content	-4511
respond	-4512
▁chrome	-4513
▁compil	-4514
▁easier	-4515
▁joined	-4516
▁lowest	-4517
▁merkel	-4518
▁placed	-4519
▁prohib	-4520
▁stress	-4521
▁tokens	-4522
▁voting	-4523
/2017/12	-4524
cription	-4525
election	-4526
▁amazing	-4527
▁analyst	-4528
▁animals	-4529
▁contain	-4530
▁england	-4531
▁helping	-4532
▁houston	-4533
▁illegal	-4534
▁install	-4535
▁johnson	-4536
▁offered	-4537
▁ongoing	-4538
▁regular	-4539
▁seconds	-4540
▁strateg	-4541
▁virtual	-4542
▁absolute	-4543
▁familiar	-4544
▁magazine	-4545
▁products	-4546
▁requires	-4547
▁soldiers	-4548
▁civilians	-4549
▁copyright	-4550
▁elections	-4551
▁establish	-4552
▁evolution	-4553
▁knowledge	-4554
▁obviously	-4555
▁otherwise	-4556
▁supported	-4557
▁definitely	-4558
▁discovered	-4559
▁mainstream	-4560
▁percentage	-4561
▁universities	-4562
fa	-4563
afp	-4564
awa	-4565
bal	-4566
ben	-4567
ext	-4568
ido	-4569
ita	-4570
lar	-4571
law	-4572
leg	-4573
non	-4574
ulf	-4575
umn	-4576
▁33	-4577
▁iv	-4578
▁ry	-4579
alle	-4580
ario	-4581
clus	-4582
dine	-4583
hips	-4584
iban	-4585
inst	-4586
iver	-4587
▁10,	-4588
▁fol	-4589
▁haw	-4590
▁max	-4591
▁nex	-4592
▁rus	-4593
▁von	-4594
▁wis	-4595
astic	-4596
gency	-4597
ijing	-4598
ograp	-4599
point	-4600
watch	-4601
▁auch	-4602
▁como	-4603
▁disp	-4604
▁dram	-4605
▁gets	-4606
▁mall	-4607
▁merc	-4608
▁mull	-4609
▁ohio	-4610
▁rout	-4611
▁seek	-4612
▁tear	-4613
ayette	-4614
dering	-4615
israel	-4616
itable	-4617
ounder	-4618
rative	-4619
▁atten	-4620
▁clock	-4621
▁exhib	-4622
▁forms	-4623
▁frank	-4624
▁korea	-4625
▁metro	-4626
▁notes	-4627
▁optim	-4628
▁royal	-4629
▁sisko	-4630
▁solid	-4631
▁title	-4632
▁worse	-4633
ieddine	-4634
related	-4635
ressive	-4636
▁acting	-4637
▁arabia	-4638
▁defend	-4639
▁depend	-4640
▁device	-4641
▁embass	-4642
▁father	-4643
▁missed	-4644
▁museum	-4645
▁nearby	-4646
▁negoti	-4647
▁nomine	-4648
▁origin	-4649
▁served	-4650
▁tempor	-4651
▁unique	-4652
iversary	-4653
ribution	-4654
▁arrived	-4655
▁benefit	-4656
▁britain	-4657
▁complic	-4658
▁eastern	-4659
▁housing	-4660
▁opposed	-4661
▁organis	-4662
▁payment	-4663
▁replace	-4664
▁carolina	-4665
▁changing	-4666
▁conflict	-4667
▁greatest	-4668
▁numerous	-4669
▁observed	-4670
▁withdraw	-4671
▁advantage	-4672
▁authority	-4673
▁decisions	-4674
▁extremely	-4675
▁terrorism	-4676
▁consistent	-4677
▁industrial	-4678
▁innovation	-4679
▁newsletter	-4680
▁photograph	-4681
▁properties	-4682
▁supporting	-4683
▁transition	-4684
▁anniversary	-4685
▁attenuation	-4686
▁celebration	-4687
▁potentially	-4688
▁papadopoulos	-4689
%)	-4690
66	-4691
78	-4692
ca	-4693
mp	-4694
tz	-4695
ér	-4696
bel	-4697
hum	-4698
ici	-4699
lig	-4700
now	-4701
oon	-4702
ups	-4703
▁3,	-4704
▁44	-4705
▁tx	-4706
▁zu	-4707
care	-4708
inct	-4709
ipts	-4710
look	-4711
nell	-4712
olly	-4713
onto	-4714
onym	-4715
pict	-4716
size	-4717
wers	-4718
when	-4719
▁$10	-4720
▁dut	-4721
▁fox	-4722
▁fro	-4723
▁gon	-4724
▁jul	-4725
▁ken	-4726
▁pod	-4727
▁rap	-4728
▁ton	-4729
▁unc	-4730
▁une	-4731
▁vig	-4732
aints	-4733
aling	-4734
cover	-4735
cribe	-4736
echan	-4737
ouble	-4738
▁2011	-4739
▁2014	-4740
▁clar	-4741
▁cool	-4742
▁hell	-4743
▁slog	-4744
▁word	-4745
ifying	-4746
ueller	-4747
▁egypt	-4748
▁extra	-4749
▁faces	-4750
▁gathe	-4751
▁leads	-4752
▁prepa	-4753
▁shape	-4754
▁shift	-4755
▁shock	-4756
▁signs	-4757
▁smoke	-4758
▁traum	-4759
liament	-4760
▁assemb	-4761
▁crisis	-4762
▁debate	-4763
▁ensure	-4764
▁fellow	-4765
▁guests	-4766
▁incred	-4767
▁memory	-4768
▁mental	-4769
▁photos	-4770
▁recomm	-4771
▁reduce	-4772
▁rising	-4773
▁screen	-4774
▁volume	-4775
▁wheels	-4776
▁beijing	-4777
▁burning	-4778
▁clearly	-4779
▁demands	-4780
▁killing	-4781
▁lawsuit	-4782
▁overall	-4783
▁pattern	-4784
▁prototy	-4785
▁reflect	-4786
▁targets	-4787
▁traffic	-4788
▁argument	-4789
▁declined	-4790
▁download	-4791
▁fighting	-4792
▁gathered	-4793
▁japanese	-4794
▁jonathan	-4795
▁provides	-4796
▁remained	-4797
▁sessions	-4798
▁straight	-4799
▁animation	-4800
▁australia	-4801
▁concerned	-4802
▁effective	-4803
▁entertain	-4804
▁initially	-4805
▁operating	-4806
▁organized	-4807
▁typically	-4808
▁venezuela	-4809
▁identified	-4810
▁immigrants	-4811
▁safieddine	-4812
▁governments	-4813
68	-4814
gg	-4815
▁=	-4816
▁}	-4817
-18	-4818
aza	-4819
bar	-4820
gas	-4821
gue	-4822
hom	-4823
kin	-4824
odo	-4825
omo	-4826
▁añ	-4827
▁ky	-4828
▁mu	-4829
agan	-4830
apse	-4831
berg	-4832
hand	-4833
mers	-4834
▁$2.	-4835
▁bol	-4836
▁gay	-4837
▁hun	-4838
▁ist	-4839
▁nov	-4840
▁rug	-4841
▁sat	-4842
backs	-4843
ipped	-4844
ivity	-4845
light	-4846
liver	-4847
onent	-4848
party	-4849
▁dark	-4850
▁elig	-4851
▁entr	-4852
▁fees	-4853
▁hong	-4854
▁hurt	-4855
▁outr	-4856
▁ring	-4857
▁sale	-4858
▁thus	-4859
▁2009,	-4860
▁banks	-4861
▁birth	-4862
▁davis	-4863
▁drink	-4864
▁estim	-4865
▁explo	-4866
▁glass	-4867
▁grown	-4868
▁initi	-4869
▁nexus	-4870
▁pence	-4871
▁peter	-4872
▁proud	-4873
▁quiet	-4874
▁reduc	-4875
▁remov	-4876
▁sharp	-4877
▁truth	-4878
issions	-4879
ologies	-4880
▁acknow	-4881
▁census	-4882
▁facing	-4883
▁fourth	-4884
▁mechan	-4885
▁normal	-4886
▁prefer	-4887
▁retail	-4888
▁retire	-4889
▁robert	-4890
▁select	-4891
▁window	-4892
breaking	-4893
▁balance	-4894
▁caption	-4895
▁deliver	-4896
▁english	-4897
▁entered	-4898
▁focused	-4899
▁hearing	-4900
▁library	-4901
▁opinion	-4902
▁screens	-4903
▁seattle	-4904
▁toronto	-4905
▁walking	-4906
▁wepower	-4907
▁believes	-4908
▁chairman	-4909
▁identify	-4910
▁possibly	-4911
▁produced	-4912
▁spurlock	-4913
▁buildings	-4914
▁essential	-4915
▁francisco	-4916
▁standards	-4917
▁candidates	-4918
▁discussion	-4919
▁enterprise	-4920
▁parliament	-4921
▁represents	-4922
▁volunteers	-4923
▁legislation	-4924
▁participate	-4925
▁firefighters	-4926
▁professional	-4927
1)	-4928
55	-4929
92	-4930
dc	-4931
lv	-4932
ات	-4933
adh	-4934
aur	-4935
ela	-4936
htt	-4937
ipe	-4938
oen	-4939
oms	-4940
osh	-4941
sch	-4942
tic	-4943
ula	-4944
▁37	-4945
▁46	-4946
▁48	-4947
▁49	-4948
▁lu	-4949
abil	-4950
abor	-4951
aded	-4952
aker	-4953
aley	-4954
ayer	-4955
cing	-4956
coll	-4957
mann	-4958
oned	-4959
otic	-4960
otus	-4961
page	-4962
reek	-4963
royo	-4964
vide	-4965
▁alt	-4966
▁bid	-4967
▁dar	-4968
▁fan	-4969
▁ing	-4970
▁lit	-4971
▁reb	-4972
etter	-4973
graph	-4974
iplom	-4975
lines	-4976
peror	-4977
rated	-4978
ulate	-4979
▁edge	-4980
▁eyes	-4981
▁fash	-4982
▁guns	-4983
▁hind	-4984
▁hour	-4985
▁infl	-4986
▁kent	-4987
▁kong	-4988
▁mand	-4989
▁sust	-4990
▁tact	-4991
▁tamp	-4992
▁vast	-4993
called	-4994
illing	-4995
terror	-4996
ulture	-4997
▁anger	-4998
▁beach	-4999
▁doubt	-5000
▁earth	-5001
▁error	-5002
▁filed	-5003
▁owner	-5004
▁paris	-5005
▁popul	-5006
▁river	-5007
▁subst	-5008
▁teach	-5009
▁treas	-5010
▁urban	-5011
▁wages	-5012
▁wings	-5013
aulding	-5014
derness	-5015
iveness	-5016
tsburgh	-5017
▁apprec	-5018
▁archae	-5019
▁assess	-5020
▁barack	-5021
▁bottom	-5022
▁damage	-5023
▁diplom	-5024
▁handle	-5025
▁oliver	-5026
▁remove	-5027
▁transl	-5028
▁vulner	-5029
/2017-12	-5030
▁consult	-5031
▁jackson	-5032
▁mueller	-5033
▁promise	-5034
▁removed	-5035
▁sitting	-5036
▁succeed	-5037
▁taliban	-5038
▁trading	-5039
▁audience	-5040
▁computer	-5041
▁instruct	-5042
▁patients	-5043
▁unemploy	-5044
▁williams	-5045
▁ayatollah	-5046
▁criticism	-5047
▁elsewhere	-5048
▁investors	-5049
▁literally	-5050
▁spaulding	-5051
▁suffering	-5052
▁conclusion	-5053
▁controvers	-5054
▁difference	-5055
▁interested	-5056
▁television	-5057
▁appalachian	-5058
-3	-5059
3%	-5060
38	-5061
4/	-5062
42	-5063
ان	-5064
▁;	-5065
██	-5066
100	-5067
bbc	-5068
cel	-5069
ité	-5070
ria	-5071
▁$4	-5072
▁36	-5073
▁6.	-5074
▁jr	-5075
/186	-5076
bart	-5077
dict	-5078
eron	-5079
happ	-5080
hist	-5081
igen	-5082
ikes	-5083
oric	-5084
reng	-5085
stat	-5086
tery	-5087
them	-5088
tree	-5089
uous	-5090
▁$3,	-5091
▁28,	-5092
▁bag	-5093
▁coc	-5094
▁kid	-5095
▁kim	-5096
▁mix	-5097
▁mut	-5098
▁tru	-5099
about	-5100
agues	-5101
enter	-5102
force	-5103
iants	-5104
ifest	-5105
iques	-5106
itors	-5107
level	-5108
nings	-5109
riage	-5110
verty	-5111
▁born	-5112
▁chem	-5113
▁embr	-5114
▁enem	-5115
▁gard	-5116
▁isol	-5117
▁jose	-5118
▁kick	-5119
▁lgbt	-5120
▁mere	-5121
▁plug	-5122
▁rust	-5123
▁trig	-5124
anging	-5125
gorith	-5126
isters	-5127
▁aware	-5128
▁crash	-5129
▁flood	-5130
▁holds	-5131
▁homes	-5132
▁ivory	-5133
▁laden	-5134
▁legit	-5135
▁lines	-5136
▁louis	-5137
▁noted	-5138
▁panel	-5139
▁range	-5140
▁rough	-5141
▁score	-5142
▁shots	-5143
▁smith	-5144
▁tools	-5145
▁trend	-5146
cluding	-5147
country	-5148
rencies	-5149
▁arroyo	-5150
▁assets	-5151
▁berlin	-5152
▁courts	-5153
▁easily	-5154
▁establ	-5155
▁expans	-5156
▁famous	-5157
▁franch	-5158
▁proced	-5159
▁stores	-5160
▁syrian	-5161
▁visual	-5162
▁weekly	-5163
idelines	-5164
▁autonom	-5165
▁bronson	-5166
▁cabinet	-5167
▁chicago	-5168
▁consequ	-5169
▁critics	-5170
▁elected	-5171
▁excited	-5172
▁liberty	-5173
▁poverty	-5174
▁sources	-5175
▁stopped	-5176
▁transpa	-5177
▁updated	-5178
▁warning	-5179
imination	-5180
▁affected	-5181
▁algorith	-5182
▁becoming	-5183
▁bringing	-5184
▁currency	-5185
▁lebanese	-5186
▁presence	-5187
▁requests	-5188
▁deduction	-5189
▁generated	-5190
▁newspaper	-5191
▁personnel	-5192
▁receiving	-5193
▁impossible	-5194
▁surprising	-5195
▁alternative	-5196
▁applications	-5197
▁construction	-5198
▁successfully	-5199
2%	-5200
4%	-5201
dp	-5202
fb	-5203
hs	-5204
ja	-5205
tv	-5206
xy	-5207
ym	-5208
▁ف	-5209
ais	-5210
aze	-5211
box	-5212
gar	-5213
got	-5214
hot	-5215
ige	-5216
iro	-5217
owe	-5218
rid	-5219
rol	-5220
why	-5221
▁7.	-5222
▁``	-5223
▁cp	-5224
aven	-5225
from	-5226
high	-5227
igan	-5228
mine	-5229
noon	-5230
onic	-5231
rene	-5232
some	-5233
thon	-5234
▁15.	-5235
▁26,	-5236
▁```	-5237
▁boo	-5238
▁bug	-5239
▁fif	-5240
▁für	-5241
▁gab	-5242
▁god	-5243
▁jug	-5244
▁obt	-5245
▁pin	-5246
▁pra	-5247
▁seg	-5248
▁tie	-5249
▁ukr	-5250
▁wer	-5251
front	-5252
icted	-5253
igned	-5254
lying	-5255
stone	-5256
▁2013	-5257
▁acqu	-5258
▁anth	-5259
▁bear	-5260
▁bull	-5261
▁cler	-5262
▁jess	-5263
▁liqu	-5264
▁mitt	-5265
▁nach	-5266
▁penn	-5267
▁rand	-5268
▁sees	-5269
▁situ	-5270
▁stan	-5271
▁swed	-5272
ossier	-5273
▁aband	-5274
▁armed	-5275
▁braco	-5276
▁brady	-5277
▁fewer	-5278
▁joint	-5279
▁micro	-5280
▁miles	-5281
▁paths	-5282
▁radio	-5283
▁rugby	-5284
▁seats	-5285
▁sorry	-5286
▁stick	-5287
▁storm	-5288
▁style	-5289
▁trail	-5290
▁voted	-5291
▁yards	-5292
▁yemen	-5293
▁adults	-5294
▁belong	-5295
▁bernie	-5296
▁carbon	-5297
▁closer	-5298
▁column	-5299
▁compar	-5300
▁condem	-5301
▁deploy	-5302
▁excell	-5303
▁france	-5304
▁french	-5305
▁intent	-5306
▁notice	-5307
▁parade	-5308
▁pulled	-5309
▁survey	-5310
▁tennis	-5311
▁throws	-5312
▁writes	-5313
atically	-5314
▁dismiss	-5315
▁embassy	-5316
▁fashion	-5317
▁jessica	-5318
▁kingdom	-5319
▁obvious	-5320
▁paralle	-5321
▁parties	-5322
▁raiders	-5323
▁refugee	-5324
▁removal	-5325
▁restaur	-5326
▁richard	-5327
▁signing	-5328
▁variety	-5329
▁waiting	-5330
▁william	-5331
▁younger	-5332
▁accounts	-5333
▁determin	-5334
▁favorite	-5335
▁improved	-5336
▁judicial	-5337
▁meetings	-5338
▁reaction	-5339
▁suffered	-5340
▁telegram	-5341
▁terrible	-5342
▁unfortun	-5343
▁customers	-5344
▁dangerous	-5345
▁delivered	-5346
▁explained	-5347
▁institute	-5348
▁mentioned	-5349
▁employment	-5350
▁federation	-5351
▁pittsburgh	-5352
▁regulatory	-5353
▁repeatedly	-5354
▁wilderness	-5355
▁competition	-5356
▁surrounding	-5357
▁unemployment	-5358
▁investigators	-5359
'.	-5360
44	-5361
57	-5362
98	-5363
lg	-5364
rl	-5365
vp	-5366
ما	-5367
▁>	-5368
▁£	-5369
ata	-5370
cam	-5371
cor	-5372
def	-5373
gre	-5374
iem	-5375
oto	-5376
owa	-5377
phe	-5378
▁5,	-5379
▁pt	-5380
▁ts	-5381
ados	-5382
char	-5383
cour	-5384
font	-5385
game	-5386
irut	-5387
kins	-5388
onis	-5389
oyal	-5390
pass	-5391
ping	-5392
ples	-5393
remy	-5394
resa	-5395
rish	-5396
whel	-5397
▁ark	-5398
▁aur	-5399
▁dur	-5400
▁jed	-5401
▁kir	-5402
▁mah	-5403
▁mir	-5404
▁ost	-5405
▁pil	-5406
▁ske	-5407
▁spl	-5408
▁syn	-5409
-1712	-5410
ación	-5411
anged	-5412
ansas	-5413
first	-5414
guard	-5415
oenix	-5416
▁barr	-5417
▁buff	-5418
▁cert	-5419
▁chec	-5420
▁chev	-5421
▁deny	-5422
▁dise	-5423
▁eine	-5424
▁emot	-5425
▁eric	-5426
▁feet	-5427
▁gate	-5428
▁harv	-5429
▁isis	-5430
▁lord	-5431
▁loud	-5432
▁reli	-5433
▁rose	-5434
▁symb	-5435
▁tack	-5436
▁warm	-5437
▁zero	-5438
itbart	-5439
ternal	-5440
▁0.01%	-5441
▁capac	-5442
▁chain	-5443
▁expos	-5444
▁genre	-5445
▁gonna	-5446
▁heads	-5447
▁items	-5448
▁loved	-5449
▁mouth	-5450
▁penal	-5451
▁proof	-5452
▁recru	-5453
▁renew	-5454
▁robot	-5455
▁round	-5456
▁tight	-5457
▁truly	-5458
fayette	-5459
▁agreed	-5460
▁andrew	-5461
▁argued	-5462
▁attend	-5463
▁beirut	-5464
▁dreams	-5465
▁emails	-5466
▁engage	-5467
▁graham	-5468
▁recall	-5469
▁skills	-5470
▁subsid	-5471
▁tracks	-5472
▁vision	-5473
▁weight	-5474
▁winter	-5475
▁correct	-5476
▁covered	-5477
▁deficit	-5478
▁finance	-5479
▁holding	-5480
▁largely	-5481
▁parrish	-5482
▁pointed	-5483
▁possess	-5484
▁produce	-5485
▁slogans	-5486
▁visible	-5487
▁winning	-5488
▁anywhere	-5489
▁appeared	-5490
▁chanting	-5491
▁creative	-5492
▁declared	-5493
▁eligible	-5494
▁finished	-5495
▁ministry	-5496
▁prepared	-5497
▁recorded	-5498
▁shopping	-5499
▁treasury	-5500
▁christian	-5501
▁conducted	-5502
▁developed	-5503
▁instagram	-5504
▁sensitive	-5505
▁structure	-5506
▁challenges	-5507
▁confidence	-5508
▁comfortable	-5509
▁manufacture	-5510
▁independence	-5511
▁investigations	-5512
48	-5513
5%	-5514
5.	-5515
62	-5516
63	-5517
?'	-5518
eb	-5519
je	-5520
md	-5521
rc	-5522
tg	-5523
ου	-5524
▁τ	-5525
096	-5526
ads	-5527
ibh	-5528
iev	-5529
irt	-5530
itz	-5531
mus	-5532
ole	-5533
ule	-5534
▁$2	-5535
▁$6	-5536
▁39	-5537
▁6,	-5538
▁90	-5539
----	-5540
arts	-5541
away	-5542
blog	-5543
case	-5544
cond	-5545
fund	-5546
inks	-5547
lete	-5548
onze	-5549
ruck	-5550
stad	-5551
uitt	-5552
viol	-5553
▁$2,	-5554
▁22,	-5555
▁als	-5556
▁awa	-5557
▁bod	-5558
▁ceo	-5559
▁dun	-5560
▁hag	-5561
▁lee	-5562
▁neo	-5563
▁pac	-5564
▁row	-5565
▁sac	-5566
▁wie	-5567
ading	-5568
build	-5569
ested	-5570
fight	-5571
final	-5572
orted	-5573
smith	-5574
urban	-5575
▁bars	-5576
▁brut	-5577
▁chap	-5578
▁clim	-5579
▁dall	-5580
▁debt	-5581
▁fant	-5582
▁flat	-5583
▁harm	-5584
▁heat	-5585
▁hero	-5586
▁inev	-5587
▁moon	-5588
▁porn	-5589
▁reds	-5590
▁root	-5591
▁rush	-5592
▁ryan	-5593
▁scot	-5594
▁ther	-5595
▁unus	-5596
▁wein	-5597
nesday	-5598
orhood	-5599
▁amway	-5600
▁coast	-5601
▁diagn	-5602
▁discl	-5603
▁exerc	-5604
▁files	-5605
▁loyal	-5606
▁motiv	-5607
▁plays	-5608
▁ranch	-5609
▁rapid	-5610
▁ratio	-5611
▁steve	-5612
▁units	-5613
▁vigil	-5614
ecution	-5615
▁advice	-5616
▁authen	-5617
▁casper	-5618
▁colomb	-5619
▁desire	-5620
▁explor	-5621
▁hassan	-5622
▁hiring	-5623
▁jeremy	-5624
▁jersey	-5625
▁licens	-5626
▁martin	-5627
▁minute	-5628
▁plenty	-5629
▁pruitt	-5630
▁publis	-5631
▁signal	-5632
▁starts	-5633
▁theory	-5634
▁assange	-5635
▁beating	-5636
▁dossier	-5637
▁explain	-5638
▁extract	-5639
▁failure	-5640
▁feeling	-5641
▁finding	-5642
▁granted	-5643
▁heavily	-5644
▁manning	-5645
▁measure	-5646
▁purpose	-5647
▁readers	-5648
▁weather	-5649
▁welcome	-5650
▁accident	-5651
▁approval	-5652
▁attended	-5653
▁claiming	-5654
▁lobbying	-5655
▁managers	-5656
▁manifest	-5657
▁messages	-5658
▁politico	-5659
▁priority	-5660
▁returned	-5661
discovered	-5662
▁advocates	-5663
▁beautiful	-5664
▁concluded	-5665
▁destroyed	-5666
▁fireworks	-5667
▁lafayette	-5668
▁messaging	-5669
▁workforce	-5670
▁absolutely	-5671
▁colleagues	-5672
▁correspond	-5673
▁presidente	-5674
▁simulation	-5675
▁situations	-5676
▁differences	-5677
▁corporations	-5678
▁negotiations	-5679
▁revolutionary	-5680
7%	-5681
9/	-5682
gm	-5683
kl	-5684
że	-5685
ها	-5686
▁ي	-5687
00%	-5688
arr	-5689
cho	-5690
cut	-5691
hem	-5692
sub	-5693
▁(5	-5694
▁))	-5695
▁43	-5696
▁ah	-5697
▁ba	-5698
▁dc	-5699
▁gh	-5700
▁pc	-5701
▁vr	-5702
▁ye	-5703
ader	-5704
anti	-5705
aste	-5706
cial	-5707
emet	-5708
foot	-5709
geon	-5710
iors	-5711
isan	-5712
mary	-5713
ogue	-5714
owed	-5715
raft	-5716
ront	-5717
tube	-5718
▁$1.	-5719
▁fue	-5720
▁hay	-5721
▁jav	-5722
▁mvp	-5723
▁nas	-5724
▁nbc	-5725
▁ped	-5726
▁rid	-5727
▁rif	-5728
▁sav	-5729
▁spd	-5730
▁sud	-5731
▁uma	-5732
acted	-5733
agger	-5734
color	-5735
egypt	-5736
ether	-5737
heast	-5738
inent	-5739
media	-5740
ordan	-5741
ovich	-5742
traff	-5743
▁alph	-5744
▁blow	-5745
▁crab	-5746
▁defe	-5747
▁fake	-5748
▁gall	-5749
▁grew	-5750
▁hend	-5751
▁hits	-5752
▁inqu	-5753
▁intr	-5754
▁lapt	-5755
▁musk	-5756
▁myth	-5757
▁opio	-5758
▁pled	-5759
▁qual	-5760
▁ross	-5761
▁sams	-5762
▁unex	-5763
christ	-5764
cision	-5765
ighter	-5766
pected	-5767
sonian	-5768
terior	-5769
▁actor	-5770
▁agent	-5771
▁apply	-5772
▁boost	-5773
▁clean	-5774
▁delay	-5775
▁equip	-5776
▁floor	-5777
▁gives	-5778
▁guess	-5779
▁honor	-5780
▁judge	-5781
▁kevin	-5782
▁print	-5783
▁raibh	-5784
▁recip	-5785
▁tampa	-5786
▁train	-5787
sheriff	-5788
▁angela	-5789
▁crowds	-5790
▁divers	-5791
▁extrad	-5792
▁fallen	-5793
▁flames	-5794
▁flotus	-5795
▁forget	-5796
▁injury	-5797
▁lights	-5798
▁listen	-5799
▁montre	-5800
▁murder	-5801
▁polize	-5802
▁reagan	-5803
▁rescue	-5804
▁ronald	-5805
▁stable	-5806
▁stands	-5807
▁temple	-5808
▁termin	-5809
▁worker	-5810
national	-5811
▁african	-5812
▁angeles	-5813
▁artists	-5814
▁broader	-5815
▁classes	-5816
▁clients	-5817
▁closely	-5818
▁cocaine	-5819
▁context	-5820
▁coordin	-5821
▁effects	-5822
▁guarant	-5823
▁lawyers	-5824
▁machine	-5825
▁melania	-5826
▁offices	-5827
▁outlets	-5828
▁profile	-5829
▁serving	-5830
▁shouldn	-5831
▁updates	-5832
▁veteran	-5833
▁windows	-5834
abilities	-5835
▁admitted	-5836
▁assembly	-5837
▁attempts	-5838
▁capacity	-5839
▁collapse	-5840
▁crabtree	-5841
▁daughter	-5842
▁festival	-5843
▁instance	-5844
▁measures	-5845
▁midnight	-5846
▁nominees	-5847
▁surprise	-5848
▁thoughts	-5849
▁trillion	-5850
▁unlikely	-5851
▁yourself	-5852
▁accepting	-5853
▁afternoon	-5854
▁allegedly	-5855
▁mountaint	-5856
▁treatment	-5857
▁wednesday	-5858
▁witnesses	-5859
▁classified	-5860
▁developers	-5861
▁executives	-5862
▁importance	-5863
▁journalist	-5864
▁relatively	-5865
▁appropriate	-5866
▁combination	-5867
▁connections	-5868
▁departments	-5869
▁established	-5870
▁necessarily	-5871
▁preferences	-5872
▁responsible	-5873
▁spokeswoman	-5874
▁underground	-5875
investigating	-5876
thelastrefuge	-5877
▁architecture	-5878
▁celebrations	-5879
▁significantly	-5880
▁unfortunately	-5881
▁constitutional	-5882
()	-5883
4)	-5884
5,	-5885
8%	-5886
aa	-5887
cn	-5888
fc	-5889
ía	-5890
ون	-5891
00-	-5892
acc	-5893
azi	-5894
die	-5895
far	-5896
has	-5897
isf	-5898
sur	-5899
tch	-5900
tim	-5901
uer	-5902
▁8,	-5903
▁9,	-5904
▁ow	-5905
▁pm	-5906
acks	-5907
adas	-5908
anda	-5909
apes	-5910
flow	-5911
gien	-5912
ials	-5913
iert	-5914
illy	-5915
mind	-5916
mond	-5917
oken	-5918
only	-5919
oust	-5920
rele	-5921
rete	-5922
sour	-5923
tion	-5924
vant	-5925
▁cho	-5926
▁dos	-5927
▁dub	-5928
▁fay	-5929
▁fle	-5930
▁geg	-5931
▁hen	-5932
▁hid	-5933
▁jah	-5934
▁jam	-5935
▁kam	-5936
▁mos	-5937
▁não	-5938
▁pas	-5939
▁raj	-5940
▁sag	-5941
▁sco	-5942
▁una	-5943
▁الا	-5944
-2017	-5945
again	-5946
being	-5947
ellow	-5948
ength	-5949
inger	-5950
ingly	-5951
ithub	-5952
smart	-5953
under	-5954
utral	-5955
which	-5956
▁2008	-5957
▁boom	-5958
▁desc	-5959
▁dict	-5960
▁gang	-5961
▁jump	-5962
▁lake	-5963
▁matt	-5964
▁rely	-5965
▁seat	-5966
▁tail	-5967
▁tory	-5968
▁wire	-5969
ancing	-5970
deputy	-5971
elstad	-5972
gienyt	-5973
icated	-5974
icious	-5975
makers	-5976
▁(2018	-5977
▁bench	-5978
▁breat	-5979
▁catch	-5980
▁cemet	-5981
▁comed	-5982
▁curve	-5983
▁decre	-5984
▁fifth	-5985
▁intel	-5986
▁kings	-5987
▁newly	-5988
▁nomin	-5989
▁param	-5990
▁pixel	-5991
▁pride	-5992
▁sizes	-5993
▁stone	-5994
▁tells	-5995
▁twice	-5996
agement	-5997
winning	-5998
▁adjust	-5999
▁anonym	-6000
▁approx	-6001
▁bright	-6002
▁campus	-6003
▁disney	-6004
▁filled	-6005
▁firing	-6006
▁lawyer	-6007
▁liquid	-6008
▁python	-6009
▁script	-6010
▁streng	-6011
▁symbol	-6012
▁turkey	-6013
itecture	-6014
newsweek	-6015
▁aggress	-6016
▁clashes	-6017
▁defence	-6018
▁disrupt	-6019
▁doctors	-6020
▁dynamic	-6021
▁founder	-6022
▁herself	-6023
▁keeping	-6024
▁koetter	-6025
▁matters	-6026
▁mullins	-6027
▁options	-6028
▁parking	-6029
▁premium	-6030
▁refused	-6031
▁retired	-6032
▁schedul	-6033
▁selling	-6034
▁sharing	-6035
▁threats	-6036
▁unclear	-6037
maggienyt	-6038
▁advanced	-6039
▁announce	-6040
▁consumer	-6041
▁division	-6042
▁dramatic	-6043
▁elements	-6044
▁fighters	-6045
▁lawrence	-6046
▁marriage	-6047
▁michigan	-6048
▁minority	-6049
▁montreal	-6050
▁negative	-6051
▁offering	-6052
▁religion	-6053
▁attempted	-6054
▁confident	-6055
▁generally	-6056
▁highlands	-6057
▁insurance	-6058
▁photograp	-6059
▁platforms	-6060
▁presented	-6061
smithsonian	-6062
▁profession	-6063
▁resolution	-6064
▁statistics	-6065
▁techniques	-6066
architecture	-6067
▁disturbance	-6068
▁possibility	-6069
▁circumcision	-6070
▁neighborhood	-6071
▁technologies	-6072
▁thelastrefuge	-6073
-2	-6074
41	-6075
82	-6076
:"	-6077
cy	-6078
ef	-6079
ni	-6080
zo	-6081
án	-6082
ور	-6083
▁د	-6084
▁ش	-6085
▁ل	-6086
)."	-6087
-11	-6088
asc	-6089
azd	-6090
esy	-6091
hry	-6092
ils	-6093
pop	-6094
pot	-6095
rey	-6096
rie	-6097
uts	-6098
▁($	-6099
▁(3	-6100
▁42	-6101
▁dé	-6102
▁ji	-6103
▁ny	-6104
▁xx	-6105
++17	-6106
aked	-6107
beit	-6108
call	-6109
cape	-6110
even	-6111
gent	-6112
hell	-6113
home	-6114
ixon	-6115
mark	-6116
mont	-6117
onso	-6118
oria	-6119
raid	-6120
rait	-6121
rend	-6122
sapp	-6123
über	-6124
▁23,	-6125
▁ads	-6126
▁bbc	-6127
▁beg	-6128
▁bon	-6129
▁cha	-6130
▁gam	-6131
▁jim	-6132
▁nel	-6133
▁ric	-6134
▁shr	-6135
▁sky	-6136
▁wik	-6137
anges	-6138
asted	-6139
azers	-6140
board	-6141
downs	-6142
etime	-6143
every	-6144
idade	-6145
igent	-6146
never	-6147
ocker	-6148
oston	-6149
poses	-6150
rator	-6151
rehen	-6152
sight	-6153
uable	-6154
▁bell	-6155
▁bone	-6156
▁crew	-6157
▁drew	-6158
▁dual	-6159
▁ford	-6160
▁jail	-6161
▁lift	-6162
▁mism	-6163
▁pair	-6164
▁phen	-6165
▁pond	-6166
▁pure	-6167
▁rail	-6168
▁rall	-6169
▁rein	-6170
▁sony	-6171
▁tent	-6172
▁tick	-6173
▁util	-6174
▁wake	-6175
-18096	-6176
adores	-6177
amente	-6178
covery	-6179
ension	-6180
incinn	-6181
istent	-6182
report	-6183
skirts	-6184
urches	-6185
▁0.00%	-6186
▁accus	-6187
▁allen	-6188
▁aside	-6189
▁disag	-6190
▁drama	-6191
▁femin	-6192
▁flags	-6193
▁guide	-6194
▁helps	-6195
▁hyper	-6196
▁inequ	-6197
▁moves	-6198
▁patri	-6199
▁polls	-6200
▁prove	-6201
▁revol	-6202
▁roles	-6203
▁spons	-6204
▁swing	-6205
▁truck	-6206
▁usage	-6207
▁vegas	-6208
▁wales	-6209
▁worry	-6210
assador	-6211
attered	-6212
entions	-6213
journal	-6214
▁actors	-6215
▁aspect	-6216
▁assert	-6217
▁aurora	-6218
▁broken	-6219
▁cooper	-6220
▁corner	-6221
▁enable	-6222
▁forest	-6223
▁junior	-6224
▁limits	-6225
▁orders	-6226
▁privat	-6227
▁proved	-6228
▁revers	-6229
▁severe	-6230
▁slowly	-6231
▁stream	-6232
▁strike	-6233
▁summit	-6234
▁towers	-6235
▁unable	-6236
▁useful	-6237
ollywood	-6238
▁advance	-6239
▁adviser	-6240
▁anthony	-6241
▁arrests	-6242
▁blocked	-6243
▁carried	-6244
▁charles	-6245
▁conspir	-6246
▁explore	-6247
▁farmers	-6248
▁highway	-6249
▁located	-6250
▁married	-6251
▁moments	-6252
▁monitor	-6253
▁outrage	-6254
▁realize	-6255
▁samsung	-6256
▁shortly	-6257
▁species	-6258
▁testing	-6259
▁ukraine	-6260
▁underst	-6261
ibilities	-6262
incinnati	-6263
including	-6264
president	-6265
▁carrying	-6266
▁channels	-6267
▁chemical	-6268
▁confront	-6269
▁contains	-6270
▁contrast	-6271
▁creation	-6272
▁discount	-6273
▁entrance	-6274
▁introduc	-6275
▁kentucky	-6276
▁maintain	-6277
▁momentum	-6278
▁parallel	-6279
▁phenomen	-6280
▁planning	-6281
▁properly	-6282
▁publicly	-6283
▁purchase	-6284
▁rejected	-6285
▁releases	-6286
▁reporter	-6287
▁suburban	-6288
▁tracking	-6289
▁whatsapp	-6290
▁basically	-6291
▁broadcast	-6292
▁emergency	-6293
▁emissions	-6294
▁expansion	-6295
▁headlines	-6296
▁inflation	-6297
▁intercept	-6298
▁marketing	-6299
▁outskirts	-6300
▁principal	-6301
▁reference	-6302
▁remaining	-6303
▁subscribe	-6304
▁worldwide	-6305
▁apparently	-6306
▁connection	-6307
▁frequently	-6308
▁historical	-6309
▁officially	-6310
▁protecting	-6311
▁scientists	-6312
▁terrorists	-6313
▁violations	-6314
▁effectively	-6315
▁experienced	-6316
▁improvement	-6317
▁journalists	-6318
▁threatening	-6319
▁prostitution	-6320
smithsonianmag	-6321
▁understanding	-6322
43	-6323
59	-6324
67	-6325
ez	-6326
gi	-6327
iq	-6328
kt	-6329
ns	-6330
px	-6331
py	-6332
íd	-6333
ار	-6334
بي	-6335
▁α	-6336
aly	-6337
bor	-6338
boy	-6339
cak	-6340
cas	-6341
hus	-6342
lan	-6343
mes	-6344
oga	-6345
olf	-6346
pod	-6347
rom	-6348
wal	-6349
zed	-6350
▁$3	-6351
▁*/	-6352
▁/*	-6353
▁4,	-6354
▁41	-6355
▁va	-6356
base	-6357
bour	-6358
door	-6359
esse	-6360
free	-6361
gate	-6362
hett	-6363
ibis	-6364
icip	-6365
lich	-6366
mail	-6367
pted	-6368
quar	-6369
roit	-6370
spec	-6371
tech	-6372
than	-6373
uish	-6374
▁19,	-6375
▁20,	-6376
▁ble	-6377
▁bob	-6378
▁fer	-6379
▁kar	-6380
▁kom	-6381
▁mes	-6382
▁odd	-6383
▁phr	-6384
▁qui	-6385
▁rot	-6386
▁sab	-6387
▁sar	-6388
▁tan	-6389
▁ven	-6390
▁vor	-6391
"")."	-6392
acked	-6393
arked	-6394
armed	-6395
compl	-6396
ected	-6397
esome	-6398
https	-6399
ining	-6400
lands	-6401
obile	-6402
polog	-6403
video	-6404
years	-6405
ystem	-6406
▁1990	-6407
▁boss	-6408
▁dust	-6409
▁ends	-6410
▁grey	-6411
▁horr	-6412
▁lens	-6413
▁mais	-6414
▁refe	-6415
▁rhet	-6416
▁salt	-6417
▁sher	-6418
▁shop	-6419
▁span	-6420
▁spir	-6421
▁tues	-6422
▁weak	-6423
▁wear	-6424
cakale	-6425
iction	-6426
market	-6427
ounter	-6428
preced	-6429
rating	-6430
urning	-6431
▁2014,	-6432
▁adapt	-6433
▁alive	-6434
▁asset	-6435
▁catal	-6436
▁chick	-6437
▁datab	-6438
▁entry	-6439
▁faced	-6440
▁fayad	-6441
▁frust	-6442
▁hopes	-6443
▁medic	-6444
▁ordin	-6445
▁queen	-6446
▁rural	-6447
▁santa	-6448
▁sides	-6449
▁sleep	-6450
▁stood	-6451
▁stuck	-6452
▁towns	-6453
▁urged	-6454
▁views	-6455
▁walls	-6456
▁waste	-6457
clusive	-6458
elstadt	-6459
reprene	-6460
▁afraid	-6461
▁appoin	-6462
▁artist	-6463
▁backed	-6464
▁blocks	-6465
▁buying	-6466
▁client	-6467
▁deeply	-6468
▁dengue	-6469
▁deport	-6470
▁desper	-6471
▁devast	-6472
▁dinner	-6473
▁ending	-6474
▁export	-6475
▁favour	-6476
▁frayer	-6477
▁hardly	-6478
▁intens	-6479
▁legacy	-6480
▁length	-6481
▁listed	-6482
▁manual	-6483
▁marvel	-6484
▁noting	-6485
▁opioid	-6486
▁paying	-6487
▁pieces	-6488
▁propag	-6489
▁relief	-6490
▁reveal	-6491
▁spaces	-6492
▁speaks	-6493
▁trucks	-6494
ographic	-6495
▁appeals	-6496
▁atlanta	-6497
▁decline	-6498
▁discour	-6499
▁emperor	-6500
▁engaged	-6501
▁figures	-6502
▁hagibis	-6503
▁heading	-6504
▁healthy	-6505
▁missile	-6506
▁modular	-6507
▁objects	-6508
▁schools	-6509
▁seeking	-6510
▁sending	-6511
▁setting	-6512
▁stephen	-6513
▁tactics	-6514
▁totally	-6515
▁tuesday	-6516
▁akcakale	-6517
▁alliance	-6518
▁articles	-6519
▁auditory	-6520
▁autonomy	-6521
▁billions	-6522
▁detained	-6523
▁directed	-6524
▁distance	-6525
▁external	-6526
▁findings	-6527
▁occurred	-6528
▁replaced	-6529
▁scotland	-6530
▁supports	-6531
▁throwing	-6532
▁breitbart	-6533
▁competing	-6534
▁historian	-6535
▁landscape	-6536
▁monuments	-6537
▁publisher	-6538
▁suspected	-6539
crimination	-6540
precedented	-6541
▁ambassador	-6542
▁australian	-6543
▁background	-6544
▁borisovich	-6545
▁complaints	-6546
▁controlled	-6547
▁diplomatic	-6548
▁entreprene	-6549
▁guidelines	-6550
▁personally	-6551
▁priorities	-6552
▁regulation	-6553
▁statements	-6554
▁unexpected	-6555
▁competitive	-6556
▁complicated	-6557
▁discussions	-6558
▁distributed	-6559
▁fundamental	-6560
▁implemented	-6561
▁confirmation	-6562
▁distribution	-6563
▁congressional	-6564
▁entertainment	-6565
▁relationships	-6566
/2	-6567
06	-6568
58	-6569
6)	-6570
69	-6571
ci	-6572
ka	-6573
ky	-6574
غا	-6575
▁ك	-6576
abc	-6577
alo	-6578
bas	-6579
beh	-6580
css	-6581
gov	-6582
iry	-6583
jam	-6584
jet	-6585
los	-6586
oir	-6587
sky	-6588
yni	-6589
zie	-6590
▁7,	-6591
▁cz	-6592
▁mp	-6593
▁rh	-6594
▁في	-6595
ache	-6596
blic	-6597
burg	-6598
dale	-6599
date	-6600
eras	-6601
hrer	-6602
iano	-6603
iest	-6604
ithe	-6605
list	-6606
mate	-6607
offs	-6608
quer	-6609
roll	-6610
uate	-6611
uine	-6612
will	-6613
ylum	-6614
▁11,	-6615
▁12,	-6616
▁29,	-6617
▁css	-6618
▁deg	-6619
▁dot	-6620
▁fab	-6621
▁fee	-6622
▁ges	-6623
▁más	-6624
▁oce	-6625
▁ont	-6626
▁quo	-6627
▁rub	-6628
▁sea	-6629
▁się	-6630
▁tam	-6631
▁tes	-6632
acher	-6633
antic	-6634
arted	-6635
beral	-6636
hryth	-6637
human	-6638
inals	-6639
irect	-6640
itage	-6641
ivals	-6642
oking	-6643
organ	-6644
pired	-6645
shire	-6646
trans	-6647
▁2000	-6648
▁ally	-6649
▁bash	-6650
▁bath	-6651
▁bucs	-6652
▁bund	-6653
▁cate	-6654
▁coff	-6655
▁empt	-6656
▁eval	-6657
▁fuck	-6658
▁gain	-6659
▁gear	-6660
▁grid	-6661
▁jour	-6662
▁jung	-6663
▁lean	-6664
▁lind	-6665
▁obst	-6666
▁pace	-6667
▁pill	-6668
▁quit	-6669
▁spin	-6670
▁stem	-6671
▁stim	-6672
▁stir	-6673
▁swat	-6674
▁tony	-6675
atally	-6676
profit	-6677
season	-6678
status	-6679
▁2015.	-6680
▁aimed	-6681
▁argue	-6682
▁bound	-6683
▁charl	-6684
▁facts	-6685
▁finds	-6686
▁flash	-6687
▁fraud	-6688
▁giant	-6689
▁grant	-6690
▁greet	-6691
▁harry	-6692
▁hosts	-6693
▁invas	-6694
▁jamie	-6695
▁kinds	-6696
▁knock	-6697
▁latin	-6698
▁nicol	-6699
▁petro	-6700
▁pilot	-6701
▁reput	-6702
▁resol	-6703
▁scand	-6704
▁schul	-6705
▁suppl	-6706
▁surve	-6707
▁toler	-6708
▁uncon	-6709
ascript	-6710
ilitary	-6711
inction	-6712
minster	-6713
ogether	-6714
politan	-6715
▁adonis	-6716
▁begins	-6717
▁causes	-6718
▁detect	-6719
▁driven	-6720
▁exceed	-6721
▁golden	-6722
▁jordan	-6723
▁laptop	-6724
▁linked	-6725
▁losing	-6726
▁overse	-6727
▁scenes	-6728
▁scored	-6729
▁sector	-6730
▁sought	-6731
▁stated	-6732
▁taxpay	-6733
▁viewed	-6734
▁wilson	-6735
▁writer	-6736
officers	-6737
standing	-6738
whelming	-6739
▁applied	-6740
▁awesome	-6741
▁binance	-6742
▁corrupt	-6743
▁disease	-6744
▁exploit	-6745
▁factors	-6746
▁genital	-6747
▁glazers	-6748
▁holders	-6749
▁involve	-6750
▁musical	-6751
▁passing	-6752
▁polizei	-6753
▁precise	-6754
▁raising	-6755
▁reverse	-6756
▁roughly	-6757
▁stretch	-6758
▁theresa	-6759
▁tonight	-6760
▁trouble	-6761
▁violate	-6762
▁visitor	-6763
▁warrant	-6764
▁youtube	-6765
▁academic	-6766
▁activist	-6767
▁adventur	-6768
▁approved	-6769
▁captured	-6770
▁clerical	-6771
▁deployed	-6772
▁disaster	-6773
▁doorbell	-6774
▁exciting	-6775
▁explains	-6776
▁facility	-6777
▁featured	-6778
▁internal	-6779
▁liberals	-6780
▁opposite	-6781
▁producer	-6782
▁purposes	-6783
▁realized	-6784
▁struggle	-6785
▁targeted	-6786
▁acknowled	-6787
▁campaigns	-6788
▁collusion	-6789
▁commander	-6790
▁expanding	-6791
▁languages	-6792
▁launching	-6793
▁ministers	-6794
▁narrative	-6795
▁operators	-6796
▁predicted	-6797
▁procedure	-6798
▁recognize	-6799
▁struggled	-6800
▁technical	-6801
▁affordable	-6802
▁assessment	-6803
▁cincinnati	-6804
▁continuing	-6805
▁impressive	-6806
▁inequality	-6807
▁presidents	-6808
▁regardless	-6809
▁responding	-6810
▁venezuelan	-6811
▁vulnerable	-6812
▁contributed	-6813
▁educational	-6814
▁essentially	-6815
▁generations	-6816
▁mountaintop	-6817
▁announcement	-6818
▁consequences	-6819
▁metropolitan	-6820
▁organisation	-6821
▁transactions	-6822
▁accessibility	-6823
▁communication	-6824
▁unprecedented	-6825
▁communications	-6826
▁implementation	-6827
▁representatives	-6828
,6	-6829
-9	-6830
/3	-6831
7)	-6832
8)	-6833
91	-6834
__	-6835
hd	-6836
hi	-6837
hu	-6838
iu	-6839
mt	-6840
oh	-6841
yo	-6842
ör	-6843
ın	-6844
▁]	-6845
▁ع	-6846
-20	-6847
abs	-6848
ahl	-6849
alf	-6850
anç	-6851
bie	-6852
byn	-6853
ded	-6854
det	-6855
ena	-6856
fam	-6857
haw	-6858
iny	-6859
lyn	-6860
lyp	-6861
oos	-6862
pen	-6863
pes	-6864
two	-6865
uce	-6866
uwa	-6867
wan	-6868
▁$.	-6869
▁$7	-6870
▁(4	-6871
▁(6	-6872
▁(8	-6873
▁51	-6874
▁az	-6875
▁eg	-6876
▁ip	-6877
▁ot	-6878
▁ww	-6879
ager	-6880
aire	-6881
bles	-6882
cles	-6883
empl	-6884
endo	-6885
fash	-6886
hair	-6887
irez	-6888
iten	-6889
llor	-6890
mult	-6891
olis	-6892
rate	-6893
requ	-6894
rett	-6895
rian	-6896
russ	-6897
serv	-6898
spot	-6899
sylv	-6900
▁197	-6901
▁api	-6902
▁arc	-6903
▁bom	-6904
▁bry	-6905
▁btc	-6906
▁fuc	-6907
▁hab	-6908
▁han	-6909
▁hiv	-6910
▁nrc	-6911
▁pip	-6912
▁qrl	-6913
▁vel	-6914
▁الم	-6915
angel	-6916
apeut	-6917
books	-6918
break	-6919
icate	-6920
icide	-6921
ifies	-6922
image	-6923
licop	-6924
north	-6925
riend	-6926
share	-6927
uably	-6928
uster	-6929
uwait	-6930
▁$10.	-6931
▁arts	-6932
▁baby	-6933
▁clot	-6934
▁clyp	-6935
▁cops	-6936
▁dial	-6937
▁diam	-6938
▁hang	-6939
▁jenn	-6940
▁judg	-6941
▁laid	-6942
▁nato	-6943
▁pant	-6944
▁rank	-6945
▁reco	-6946
▁resh	-6947
▁shit	-6948
▁symp	-6949
▁tiny	-6950
▁tree	-6951
▁wore	-6952
/2017/	-6953
apping	-6954
atible	-6955
atures	-6956
backed	-6957
compan	-6958
museum	-6959
phones	-6960
rehens	-6961
review	-6962
rowing	-6963
system	-6964
ynihan	-6965
▁0.02%	-6966
▁2013,	-6967
▁assad	-6968
▁candy	-6969
▁cited	-6970
▁climb	-6971
▁crazy	-6972
▁desde	-6973
▁dress	-6974
▁elite	-6975
▁equal	-6976
▁faith	-6977
▁fears	-6978
▁feels	-6979
▁guest	-6980
▁hired	-6981
▁jihad	-6982
▁links	-6983
▁lived	-6984
▁lucky	-6985
▁moore	-6986
▁moral	-6987
▁noise	-6988
▁notor	-6989
▁ocean	-6990
▁poder	-6991
▁races	-6992
▁ranks	-6993
▁revel	-6994
▁shame	-6995
▁sight	-6996
▁steam	-6997
▁sugar	-6998
▁therm	-6999
english	-7000
history	-7001
illance	-7002
itarian	-7003
ologist	-7004
onsored	-7005
station	-7006
ulating	-7007
▁(2018)	-7008
▁amazon	-7009
▁analyt	-7010
▁appeal	-7011
▁boston	-7012
▁bridge	-7013
▁butler	-7014
▁button	-7015
▁cartel	-7016
▁citing	-7017
▁combat	-7018
▁denied	-7019
▁desert	-7020
▁discip	-7021
▁fields	-7022
▁gaming	-7023
▁height	-7024
▁honest	-7025
▁hoping	-7026
▁horror	-7027
▁houses	-7028
▁illust	-7029
▁joseph	-7030
▁maduro	-7031
▁merely	-7032
▁nobody	-7033
▁nurgle	-7034
▁openly	-7035
▁palace	-7036
▁perpet	-7037
▁pursue	-7038
▁racing	-7039
▁regist	-7040
▁remark	-7041
▁remind	-7042
▁reward	-7043
▁talked	-7044
▁titles	-7045
quarters	-7046
sylvania	-7047
▁anymore	-7048
▁channel	-7049
▁closing	-7050
▁counsel	-7051
▁flights	-7052
▁genuine	-7053
▁holiday	-7054
▁illicit	-7055
▁journey	-7056
▁northam	-7057
▁oversee	-7058
▁passion	-7059
▁privacy	-7060
▁refusal	-7061
▁scripts	-7062
▁settled	-7063
▁swedish	-7064
▁treated	-7065
▁unknown	-7066
▁visited	-7067
terrorism	-7068
▁actively	-7069
▁advisory	-7070
▁arguably	-7071
▁artistic	-7072
▁concrete	-7073
▁electric	-7074
▁electron	-7075
▁exterior	-7076
▁forecast	-7077
▁handling	-7078
▁homeland	-7079
▁insisted	-7080
▁intended	-7081
▁memorial	-7082
▁mismatch	-7083
▁moynihan	-7084
▁osthryth	-7085
▁peaceful	-7086
▁preserve	-7087
▁reliable	-7088
▁somebody	-7089
▁stanford	-7090
▁suggests	-7091
▁talented	-7092
▁timeline	-7093
ifications	-7094
▁accidents	-7095
▁happening	-7096
▁henderson	-7097
▁inspector	-7098
▁isolation	-7099
▁offerings	-7100
▁practices	-7101
▁producing	-7102
▁prominent	-7103
▁prompting	-7104
▁returning	-7105
▁solutions	-7106
▁strategic	-7107
▁workplace	-7108
trafficking	-7109
▁adventuron	-7110
▁attractive	-7111
▁conspiracy	-7112
▁contribute	-7113
▁operatives	-7114
▁permission	-7115
▁resistance	-7116
▁retirement	-7117
▁challenging	-7118
▁citizenship	-7119
▁mittelstadt	-7120
▁prosecutors	-7121
▁intervention	-7122
▁pennsylvania	-7123
▁spokesperson	-7124
▁approximately	-7125
▁conservatives	-7126
▁investigating	-7127
▁manufacturing	-7128
▁accountability	-7129
!)	-7130
31	-7131
32	-7132
5)	-7133
54	-7134
56	-7135
77	-7136
9%	-7137
mm	-7138
tm	-7139
va	-7140
zt	-7141
är	-7142
éd	-7143
ín	-7144
▁<	-7145
▁ö	-7146
▁ه	-7147
-16	-7148
:00	-7149
abi	-7150
ala	-7151
bey	-7152
dos	-7153
dro	-7154
itu	-7155
jad	-7156
pal	-7157
pub	-7158
rot	-7159
ser	-7160
spr	-7161
thr	-7162
unk	-7163
usa	-7164
voa	-7165
wel	-7166
yon	-7167
▁47	-7168
▁55	-7169
▁8.	-7170
▁ao	-7171
▁au	-7172
▁bp	-7173
▁ka	-7174
▁kh	-7175
▁kr	-7176
▁nv	-7177
▁ní	-7178
▁że	-7179
"":"	-7180
....	-7181
abad	-7182
aids	-7183
asty	-7184
aust	-7185
camp	-7186
conf	-7187
core	-7188
each	-7189
elph	-7190
eman	-7191
eter	-7192
fall	-7193
hole	-7194
icul	-7195
idad	-7196
ifer	-7197
iled	-7198
kham	-7199
kill	-7200
lett	-7201
mans	-7202
near	-7203
nels	-7204
renn	-7205
scow	-7206
sell	-7207
sign	-7208
thor	-7209
view	-7210
▁14,	-7211
▁17,	-7212
▁ash	-7213
▁año	-7214
▁dor	-7215
▁enh	-7216
▁eru	-7217
▁gap	-7218
▁hij	-7219
▁icc	-7220
▁jal	-7221
▁kun	-7222
▁lag	-7223
▁lux	-7224
▁mum	-7225
▁ott	-7226
▁pir	-7227
▁ray	-7228
▁raz	-7229
▁sin	-7230
▁tab	-7231
▁tas	-7232
▁tut	-7233
▁uni	-7234
▁vib	-7235
acare	-7236
arcot	-7237
cohol	-7238
iable	-7239
ichol	-7240
icism	-7241
icits	-7242
igate	-7243
iones	-7244
isten	-7245
jamin	-7246
mente	-7247
oster	-7248
plant	-7249
range	-7250
rison	-7251
sters	-7252
those	-7253
today	-7254
union	-7255
▁1960	-7256
▁1979	-7257
▁1997	-7258
▁2006	-7259
▁bang	-7260
▁bent	-7261
▁boat	-7262
▁bold	-7263
▁bump	-7264
▁busy	-7265
▁ecos	-7266
▁está	-7267
▁heck	-7268
▁hide	-7269
▁hunt	-7270
▁icos	-7271
▁lone	-7272
▁luck	-7273
▁luke	-7274
▁mash	-7275
▁meat	-7276
▁pose	-7277
▁sele	-7278
▁tall	-7279
▁teen	-7280
▁tied	-7281
▁upgr	-7282
▁utah	-7283
bridge	-7284
change	-7285
cience	-7286
iences	-7287
intern	-7288
making	-7289
strong	-7290
▁0.03%	-7291
▁2010,	-7292
▁2015,	-7293
▁abdul	-7294
▁audio	-7295
▁bless	-7296
▁bunch	-7297
▁categ	-7298
▁coins	-7299
▁cyber	-7300
▁displ	-7301
▁dozen	-7302
▁empty	-7303
▁entit	-7304
▁flows	-7305
▁gains	-7306
▁globe	-7307
▁goods	-7308
▁iraqi	-7309
▁lying	-7310
▁mosqu	-7311
▁resur	-7312
▁scher	-7313
▁scope	-7314
▁sheet	-7315
▁simon	-7316
▁spect	-7317
▁sympt	-7318
▁theat	-7319
▁thick	-7320
▁tokyo	-7321
▁trave	-7322
▁trick	-7323
▁wider	-7324
▁yacht	-7325
acement	-7326
apeutic	-7327
bellion	-7328
conduct	-7329
culture	-7330
houston	-7331
ionally	-7332
ivities	-7333
mingham	-7334
reuters	-7335
▁10,000	-7336
▁anyway	-7337
▁awards	-7338
▁behalf	-7339
▁bodies	-7340
▁boring	-7341
▁branch	-7342
▁burned	-7343
▁checks	-7344
▁corbyn	-7345
▁deadly	-7346
▁degree	-7347
▁enthus	-7348
▁estate	-7349
▁ethics	-7350
▁factor	-7351
▁fantas	-7352
▁hidden	-7353
▁hurric	-7354
▁ignore	-7355
▁impose	-7356
▁incomp	-7357
▁kuwait	-7358
▁mainly	-7359
▁marked	-7360
▁moscow	-7361
▁myster	-7362
▁narrow	-7363
▁papers	-7364
▁prepar	-7365
▁ratios	-7366
▁ruling	-7367
▁shiite	-7368
▁sister	-7369
▁spider	-7370
▁steady	-7371
▁struck	-7372
▁struct	-7373
▁tackle	-7374
▁temper	-7375
▁thread	-7376
▁tweets	-7377
▁whites	-7378
-1809676	-7379
articles	-7380
deputies	-7381
official	-7382
▁chapter	-7383
▁circuit	-7384
▁citizen	-7385
▁compete	-7386
▁concent	-7387
▁dispute	-7388
▁divided	-7389
▁emerged	-7390
▁enemies	-7391
▁equally	-7392
▁females	-7393
▁helicop	-7394
▁inquiry	-7395
▁mistake	-7396
▁ordered	-7397
▁passive	-7398
▁phoenix	-7399
▁promote	-7400
▁prosper	-7401
▁rallies	-7402
▁revenue	-7403
▁sanders	-7404
▁subsequ	-7405
▁unusual	-7406
▁watched	-7407
▁arkansas	-7408
▁colombia	-7409
▁defended	-7410
▁disabled	-7411
▁feedback	-7412
▁focusing	-7413
▁homeless	-7414
▁portrait	-7415
▁register	-7416
▁relative	-7417
▁resource	-7418
▁rhetoric	-7419
▁thousand	-7420
▁traffick	-7421
▁valuable	-7422
▁visiting	-7423
▁addresses	-7424
▁alexander	-7425
▁caecilian	-7426
▁collected	-7427
▁completed	-7428
▁demanding	-7429
▁developer	-7430
▁discussed	-7431
▁ecosystem	-7432
▁encounter	-7433
▁franchise	-7434
▁highlight	-7435
▁hollywood	-7436
▁incidents	-7437
▁mechanism	-7438
▁overnight	-7439
▁rebellion	-7440
▁recommend	-7441
▁referring	-7442
▁regularly	-7443
▁requiring	-7444
▁scheduled	-7445
▁seriously	-7446
▁stability	-7447
▁streaming	-7448
▁targeting	-7449
therapeutic	-7450
▁chancellor	-7451
▁complained	-7452
▁disappoint	-7453
▁extinction	-7454
▁javascript	-7455
▁journalism	-7456
▁performing	-7457
▁principles	-7458
▁professors	-7459
▁settlement	-7460
▁advertising	-7461
▁application	-7462
▁deportation	-7463
▁description	-7464
▁eliminating	-7465
▁residential	-7466
▁conservation	-7467
▁conversation	-7468
▁headquarters	-7469
▁photographed	-7470
▁recreational	-7471
anarchitecture	-7472
archaeologists	-7473
▁automatically	-7474
▁functionality	-7475
▁fundamentally	-7476
▁psychological	-7477
▁attractiveness	-7478
/5	-7479
bb	-7480
fo	-7481
gb	-7482
gn	-7483
oz	-7484
pm	-7485
yr	-7486
és	-7487
ís	-7488
را	-7489
▁ε	-7490
-26	-7491
-75	-7492
/36	-7493
120	-7494
big	-7495
bow	-7496
cer	-7497
ema	-7498
ila	-7499
ima	-7500
iri	-7501
izz	-7502
job	-7503
lad	-7504
mat	-7505
may	-7506
mun	-7507
nik	-7508
opp	-7509
rah	-7510
ran	-7511
rek	-7512
rif	-7513
rob	-7514
sim	-7515
sun	-7516
ths	-7517
top	-7518
tsd	-7519
uay	-7520
ums	-7521
vas	-7522
zil	-7523
بغا	-7524
▁gn	-7525
▁od	-7526
▁tu	-7527
▁wy	-7528
▁zh	-7529
++20	-7530
acts	-7531
arms	-7532
asts	-7533
ação	-7534
emed	-7535
eper	-7536
good	-7537
iana	-7538
iang	-7539
icht	-7540
illa	-7541
iolg	-7542
llen	-7543
odes	-7544
owdy	-7545
pare	-7546
phas	-7547
pire	-7548
rick	-7549
stop	-7550
tele	-7551
thew	-7552
wing	-7553
▁$25	-7554
▁199	-7555
▁500	-7556
▁alb	-7557
▁cot	-7558
▁dad	-7559
▁env	-7560
▁gov	-7561
▁hdr	-7562
▁jae	-7563
▁jet	-7564
▁luc	-7565
▁mae	-7566
▁pad	-7567
▁pel	-7568
▁poe	-7569
▁rod	-7570
▁rom	-7571
▁sel	-7572
▁som	-7573
▁syl	-7574
▁unn	-7575
▁usd	-7576
▁الب	-7577
bered	-7578
chief	-7579
eless	-7580
fired	-7581
iated	-7582
idesp	-7583
iemba	-7584
inter	-7585
itual	-7586
onian	-7587
photo	-7588
pical	-7589
scale	-7590
style	-7591
worth	-7592
▁acts	-7593
▁aids	-7594
▁beer	-7595
▁bois	-7596
▁cong	-7597
▁corp	-7598
▁dass	-7599
▁deer	-7600
▁grab	-7601
▁gran	-7602
▁hadn	-7603
▁hash	-7604
▁hire	-7605
▁hung	-7606
▁legs	-7607
▁magn	-7608
▁marg	-7609
▁nazi	-7610
▁obsc	-7611
▁pock	-7612
▁ptsd	-7613
▁roch	-7614
▁sche	-7615
▁sits	-7616
▁stun	-7617
▁subm	-7618
▁ties	-7619
▁visa	-7620
▁worm	-7621
▁yeah	-7622
agency	-7623
arrass	-7624
arthur	-7625
finals	-7626
former	-7627
ileaks	-7628
inform	-7629
mining	-7630
orient	-7631
oustic	-7632
timore	-7633
ulated	-7634
▁2009.	-7635
▁2012,	-7636
▁alien	-7637
▁bears	-7638
▁cance	-7639
▁chris	-7640
▁conce	-7641
▁deleg	-7642
▁diego	-7643
▁drone	-7644
▁fever	-7645
▁fuels	-7646
▁gowdy	-7647
▁greyh	-7648
▁haley	-7649
▁imper	-7650
▁input	-7651
▁inval	-7652
▁lorry	-7653
▁minds	-7654
▁moham	-7655
▁mortg	-7656
▁phase	-7657
▁putin	-7658
▁reass	-7659
▁remem	-7660
▁repro	-7661
▁shell	-7662
▁spots	-7663
▁types	-7664
▁vital	-7665
amacare	-7666
chester	-7667
liberal	-7668
support	-7669
workers	-7670
▁apolog	-7671
▁beauty	-7672
▁brutal	-7673
▁caller	-7674
▁canyon	-7675
▁condol	-7676
▁correl	-7677
▁donors	-7678
▁drills	-7679
▁explan	-7680
▁faster	-7681
▁finger	-7682
▁flying	-7683
▁formal	-7684
▁freeze	-7685
▁giants	-7686
▁jeunes	-7687
▁julian	-7688
▁korean	-7689
▁ledger	-7690
▁lehrer	-7691
▁master	-7692
▁minist	-7693
▁murray	-7694
▁native	-7695
▁passes	-7696
▁poster	-7697
▁presum	-7698
▁punish	-7699
▁putnam	-7700
▁quoine	-7701
▁refuse	-7702
▁reluct	-7703
▁rounds	-7704
▁schulz	-7705
▁slight	-7706
▁sudden	-7707
▁talent	-7708
▁thinks	-7709
▁thrown	-7710
▁trauma	-7711
▁trends	-7712
▁unders	-7713
▁valley	-7714
▁warren	-7715
▁weapon	-7716
▁widely	-7717
▁widesp	-7718
▁yellow	-7719
▁ziemba	-7720
guardian	-7721
interest	-7722
pictured	-7723
releases	-7724
▁accompl	-7725
▁airport	-7726
▁alcohol	-7727
▁auction	-7728
▁battery	-7729
▁buffalo	-7730
▁carries	-7731
▁choices	-7732
▁classic	-7733
▁command	-7734
▁contest	-7735
▁custody	-7736
▁customs	-7737
▁dealing	-7738
▁deliber	-7739
▁doubled	-7740
▁enabled	-7741
▁erupted	-7742
▁evening	-7743
▁fucking	-7744
▁goldman	-7745
▁harvest	-7746
▁invited	-7747
▁license	-7748
▁neither	-7749
▁notting	-7750
▁nowhere	-7751
▁pitched	-7752
▁podcast	-7753
▁proceed	-7754
▁ratiolg	-7755
▁ratiosm	-7756
▁reinfor	-7757
▁rockets	-7758
▁routine	-7759
▁senator	-7760
▁speaker	-7761
▁turning	-7762
christmas	-7763
operation	-7764
▁appointe	-7765
▁aviation	-7766
▁brothers	-7767
▁collabor	-7768
▁combined	-7769
▁compiler	-7770
▁constant	-7771
▁courtesy	-7772
▁deficits	-7773
▁examples	-7774
▁feelings	-7775
▁humanity	-7776
▁ideology	-7777
▁incoming	-7778
▁jennifer	-7779
▁occupied	-7780
▁recovery	-7781
▁rochdale	-7782
▁schedule	-7783
▁sexually	-7784
▁substant	-7785
/2017/12/1	-7786
identified	-7787
whitehouse	-7788
▁algorithm	-7789
▁appointed	-7790
▁complaint	-7791
▁connected	-7792
▁consumers	-7793
▁determine	-7794
▁embarrass	-7795
▁estimated	-7796
▁everybody	-7797
▁existence	-7798
▁featuring	-7799
▁framework	-7800
▁immediate	-7801
▁improving	-7802
▁migration	-7803
▁opponents	-7804
▁passwords	-7805
▁pollution	-7806
▁practical	-7807
▁prospects	-7808
▁reactions	-7809
▁reduction	-7810
▁replacing	-7811
▁resulting	-7812
▁universal	-7813
suppression	-7814
▁constantly	-7815
▁convention	-7816
▁everywhere	-7817
▁exhibition	-7818
▁legitimate	-7819
▁occupation	-7820
▁processing	-7821
▁protesting	-7822
▁protestors	-7823
▁telecommun	-7824
▁widespread	-7825
▁demonstrate	-7826
▁engineering	-7827
▁experiences	-7828
▁importantly	-7829
▁personality	-7830
▁playstation	-7831
▁programming	-7832
▁publication	-7833
▁quarterback	-7834
▁recognition	-7835
▁consistently	-7836
▁entrepreneur	-7837
▁improvements	-7838
▁interference	-7839
▁palestinians	-7840
▁representing	-7841
▁surveillance	-7842
▁verification	-7843
▁administrator	-7844
▁controversial	-7845
▁manufacturers	-7846
▁privatization	-7847
▁discrimination	-7848
!!	-7849
-6	-7850
/9	-7851
3)	-7852
3/	-7853
9)	-7854
cz	-7855
jo	-7856
jv	-7857
nt	-7858
rd	-7859
si	-7860
ár	-7861
ço	-7862
να	-7863
ال	-7864
▁μ	-7865
""—	-7866
),"	-7867
-15	-7868
.),	-7869
/62	-7870
:30	-7871
aka	-7872
del	-7873
dge	-7874
dit	-7875
eds	-7876
exp	-7877
fan	-7878
fre	-7879
gra	-7880
hab	-7881
icy	-7882
imm	-7883
ivo	-7884
nbc	-7885
onc	-7886
ped	-7887
rez	-7888
sea	-7889
uls	-7890
wed	-7891
wis	-7892
íom	-7893
▁(2	-7894
▁(9	-7895
▁:)	-7896
▁ds	-7897
acob	-7898
anes	-7899
emic	-7900
enas	-7901
ener	-7902
erce	-7903
file	-7904
find	-7905
iece	-7906
imer	-7907
ipei	-7908
irds	-7909
ismo	-7910
ista	-7911
itim	-7912
lago	-7913
leum	-7914
live	-7915
lord	-7916
mand	-7917
olen	-7918
oral	-7919
osis	-7920
outs	-7921
park	-7922
phys	-7923
pour	-7924
rees	-7925
reve	-7926
riel	-7927
road	-7928
ropr	-7929
tail	-7930
vent	-7931
yout	-7932
▁$4,	-7933
▁$7.	-7934
▁15-	-7935
▁150	-7936
▁18,	-7937
▁198	-7938
▁25,	-7939
▁27,	-7940
▁300	-7941
▁80%	-7942
▁bou	-7943
▁cav	-7944
▁cos	-7945
▁cpu	-7946
▁dag	-7947
▁dim	-7948
▁eld	-7949
▁gur	-7950
▁hav	-7951
▁hud	-7952
▁mun	-7953
▁nam	-7954
▁nec	-7955
▁oak	-7956
▁osw	-7957
▁rip	-7958
▁rum	-7959
▁spr	-7960
▁tel	-7961
▁www	-7962
""),"	-7963
abeth	-7964
alloc	-7965
angle	-7966
antes	-7967
arios	-7968
child	-7969
claim	-7970
cracy	-7971
craft	-7972
erves	-7973
essee	-7974
eston	-7975
icing	-7976
ieron	-7977
inson	-7978
itals	-7979
izona	-7980
leans	-7981
lives	-7982
mates	-7983
oming	-7984
opher	-7985
osene	-7986
owned	-7987
store	-7988
think	-7989
women	-7990
▁$100	-7991
▁15.5	-7992
▁2005	-7993
▁agus	-7994
▁ahed	-7995
▁banc	-7996
▁batt	-7997
▁boot	-7998
▁boys	-7999
▁brow	-8000
▁bugs	-8001
▁cham	-8002
▁dash	-8003
▁dean	-8004
▁dell	-8005
▁drag	-8006
▁dvoa	-8007
▁eggs	-8008
▁fate	-8009
▁flip	-8010
▁foss	-8011
▁info	-8012
▁keen	-8013
▁mans	-8014
▁puts	-8015
▁rent	-8016
▁rice	-8017
▁rico	-8018
▁ride	-8019
▁sean	-8020
▁sein	-8021
▁sequ	-8022
▁soci	-8023
▁soil	-8024
▁sole	-8025
▁suit	-8026
▁till	-8027
▁trem	-8028
▁uber	-8029
▁vary	-8030
▁wise	-8031
▁yoga	-8032
accept	-8033
antiqu	-8034
ateral	-8035
celona	-8036
consin	-8037
ectual	-8038
family	-8039
finder	-8040
ington	-8041
ipping	-8042
lessly	-8043
rapped	-8044
terday	-8045
threat	-8046
▁0.04%	-8047
▁admit	-8048
▁arena	-8049
▁cable	-8050
▁cards	-8051
▁cerem	-8052
▁chill	-8053
▁clube	-8054
▁clubs	-8055
▁coinc	-8056
▁cycle	-8057
▁devot	-8058
▁dirty	-8059
▁doyle	-8060
▁dream	-8061
▁fixed	-8062
▁folks	-8063
▁gregg	-8064
▁gross	-8065
▁ideal	-8066
▁index	-8067
▁jacob	-8068
▁juven	-8069
▁lgbtq	-8070
▁likes	-8071
▁loose	-8072
▁maria	-8073
▁nodes	-8074
▁pages	-8075
▁panic	-8076
▁plant	-8077
▁prize	-8078
▁quote	-8079
▁roger	-8080
▁skept	-8081
▁split	-8082
▁stake	-8083
▁stowe	-8084
▁tesla	-8085
▁threw	-8086
▁tommy	-8087
america	-8088
ctioned	-8089
england	-8090
fatally	-8091
holders	-8092
limited	-8093
nytimes	-8094
ography	-8095
podcast	-8096
rations	-8097
science	-8098
tenance	-8099
unction	-8100
youtube	-8101
▁animal	-8102
▁argent	-8103
▁assume	-8104
▁asylum	-8105
▁bought	-8106
▁brazil	-8107
▁bronze	-8108
▁conven	-8109
▁copies	-8110
▁decide	-8111
▁declar	-8112
▁donate	-8113
▁earned	-8114
▁emphas	-8115
▁escape	-8116
▁expert	-8117
▁explos	-8118
▁fairly	-8119
▁fiscal	-8120
▁frozen	-8121
▁gotten	-8122
▁incent	-8123
▁inters	-8124
▁leaves	-8125
▁linear	-8126
▁locked	-8127
▁losses	-8128
▁madrid	-8129
▁makers	-8130
▁nelson	-8131
▁notion	-8132
▁observ	-8133
▁ottawa	-8134
▁praise	-8135
▁quoted	-8136
▁random	-8137
▁robust	-8138
▁saving	-8139
▁settle	-8140
▁sports	-8141
▁switch	-8142
▁taipei	-8143
▁trades	-8144
▁traged	-8145
▁troops	-8146
american	-8147
eachment	-8148
inations	-8149
▁100,000	-8150
▁banking	-8151
▁canucks	-8152
▁chevron	-8153
▁coaster	-8154
▁creates	-8155
▁defined	-8156
▁descend	-8157
▁deserve	-8158
▁diamond	-8159
▁empower	-8160
▁equival	-8161
▁heckard	-8162
▁insight	-8163
▁justify	-8164
▁letting	-8165
▁mashhad	-8166
▁matthew	-8167
▁maximum	-8168
▁noticed	-8169
▁operate	-8170
▁orleans	-8171
▁package	-8172
▁painted	-8173
▁physics	-8174
▁plastic	-8175
▁prepare	-8176
▁pushing	-8177
▁queries	-8178
▁radical	-8179
▁ramirez	-8180
▁recipro	-8181
▁regimes	-8182
▁reserve	-8183
▁reviews	-8184
▁simpson	-8185
▁sparked	-8186
▁stepped	-8187
▁studios	-8188
▁summary	-8189
▁teacher	-8190
▁telecom	-8191
/2017-12/	-8192
▁acoustic	-8193
▁baseball	-8194
▁benjamin	-8195
▁cardinal	-8196
▁churches	-8197
▁circumst	-8198
▁civilian	-8199
▁coaching	-8200
▁commerce	-8201
▁concepts	-8202
▁creature	-8203
▁crossing	-8204
▁damaging	-8205
▁database	-8206
▁donation	-8207
▁employee	-8208
▁famously	-8209
▁firearms	-8210
▁graphics	-8211
▁invasion	-8212
▁kerosene	-8213
▁mentally	-8214
▁monument	-8215
▁opinions	-8216
▁panthers	-8217
▁petition	-8218
▁policing	-8219
▁promises	-8220
▁regional	-8221
▁shocking	-8222
▁supplies	-8223
▁teaching	-8224
▁upcoming	-8225
washington	-8226
▁baltimore	-8227
▁clubhouse	-8228
▁component	-8229
▁contained	-8230
▁democracy	-8231
▁guarantee	-8232
▁increases	-8233
▁indicated	-8234
▁involving	-8235
▁lightning	-8236
▁louisiana	-8237
▁macarthur	-8238
▁neighbors	-8239
▁obamacare	-8240
▁occasions	-8241
▁permitted	-8242
▁primarily	-8243
▁requested	-8244
▁sentences	-8245
▁somewhere	-8246
▁surprised	-8247
▁tennessee	-8248
▁virtually	-8249
▁wisconsin	-8250
antiquities	-8251
▁animations	-8252
▁appearance	-8253
▁boundaries	-8254
▁celebrated	-8255
▁determined	-8256
▁eliminated	-8257
▁expression	-8258
▁highlights	-8259
▁incredible	-8260
▁incredibly	-8261
▁industries	-8262
▁introduced	-8263
▁nationwide	-8264
▁smartphone	-8265
▁threatened	-8266
▁withdrawal	-8267
▁competitors	-8268
▁conferences	-8269
▁corporation	-8270
▁destruction	-8271
▁extradition	-8272
▁ideological	-8273
▁impeachment	-8274
▁interactive	-8275
▁partnership	-8276
▁progressive	-8277
▁technically	-8278
▁temporarily	-8279
▁transaction	-8280
▁demonstrated	-8281
▁implementing	-8282
▁transparency	-8283
▁interventions	-8284
02	-8285
08	-8286
52	-8287
::	-8288
;"	-8289
],	-8290
bp	-8291
cf	-8292
db	-8293
hy	-8294
ii	-8295
js	-8296
kh	-8297
lm	-8298
ée	-8299
íc	-8300
ún	-8301
▁κ	-8302
▁π	-8303
-19	-8304
21/	-8305
27/	-8306
40,	-8307
50,	-8308
aca	-8309
add	-8310
aho	-8311
ani	-8312
bab	-8313
cht	-8314
dog	-8315
eed	-8316
enh	-8317
ete	-8318
iki	-8319
iot	-8320
ira	-8321
iti	-8322
ius	-8323
jud	-8324
lat	-8325
mir	-8326
obb	-8327
olk	-8328
oma	-8329
php	-8330
raf	-8331
spe	-8332
suc	-8333
tax	-8334
too	-8335
ías	-8336
▁53	-8337
▁56	-8338
▁ih	-8339
▁ان	-8340
-424	-8341
alph	-8342
avor	-8343
bery	-8344
best	-8345
boks	-8346
cane	-8347
crit	-8348
ende	-8349
ente	-8350
gang	-8351
hdad	-8352
idat	-8353
iden	-8354
klär	-8355
ksen	-8356
liur	-8357
many	-8358
mble	-8359
moud	-8360
nest	-8361
next	-8362
neys	-8363
oles	-8364
olic	-8365
paul	-8366
pers	-8367
plus	-8368
ppel	-8369
pret	-8370
reon	-8371
stud	-8372
uana	-8373
udes	-8374
ulty	-8375
wish	-8376
yeom	-8377
▁(2.	-8378
▁));	-8379
▁13,	-8380
▁15,	-8381
▁20%	-8382
▁21,	-8383
▁9/1	-8384
▁ale	-8385
▁bhí	-8386
▁bil	-8387
▁blo	-8388
▁cbs	-8389
▁cdu	-8390
▁dax	-8391
▁doj	-8392
▁eat	-8393
▁fat	-8394
▁faz	-8395
▁fel	-8396
▁gin	-8397
▁hir	-8398
▁hub	-8399
▁ico	-8400
▁jak	-8401
▁jur	-8402
▁kai	-8403
▁lev	-8404
▁mps	-8405
▁nhl	-8406
▁rok	-8407
▁sig	-8408
abama	-8409
aldon	-8410
ashed	-8411
astro	-8412
black	-8413
celer	-8414
china	-8415
crash	-8416
elect	-8417
empor	-8418
entes	-8419
fatal	-8420
gling	-8421
great	-8422
group	-8423
haven	-8424
imony	-8425
isive	-8426
izoph	-8427
leted	-8428
liest	-8429
miami	-8430
orgia	-8431
othan	-8432
otted	-8433
oured	-8434
phoon	-8435
proof	-8436
redit	-8437
renia	-8438
roman	-8439
shore	-8440
tmann	-8441
udeau	-8442
uther	-8443
▁"""[	-8444
▁$0.3	-8445
▁2001	-8446
▁adam	-8447
▁aoun	-8448
▁años	-8449
▁bart	-8450
▁bias	-8451
▁bond	-8452
▁cath	-8453
▁cock	-8454
▁dies	-8455
▁echo	-8456
▁fare	-8457
▁fulf	-8458
▁gors	-8459
▁greg	-8460
▁guil	-8461
▁gust	-8462
▁josh	-8463
▁lady	-8464
▁lets	-8465
▁maps	-8466
▁math	-8467
▁mehr	-8468
▁mock	-8469
▁moto	-8470
▁node	-8471
▁peak	-8472
▁peer	-8473
▁pela	-8474
▁sets	-8475
▁snap	-8476
▁sons	-8477
▁soul	-8478
▁stur	-8479
▁toll	-8480
▁tone	-8481
▁urge	-8482
▁ward	-8483
▁wins	-8484
ancies	-8485
around	-8486
author	-8487
azione	-8488
before	-8489
deadly	-8490
during	-8491
endous	-8492
father	-8493
giving	-8494
herald	-8495
incial	-8496
liurfa	-8497
nation	-8498
ocrats	-8499
omsday	-8500
orders	-8501
veland	-8502
▁0.05%	-8503
▁1,000	-8504
▁accur	-8505
▁affir	-8506
▁backl	-8507
▁begun	-8508
▁camps	-8509
▁chart	-8510
▁chose	-8511
▁chron	-8512
▁corps	-8513
▁cryst	-8514
▁cuomo	-8515
▁czech	-8516
▁daley	-8517
▁debut	-8518
▁depth	-8519
▁doors	-8520
▁drawn	-8521
▁enorm	-8522
▁forth	-8523
▁fried	-8524
▁hamda	-8525
▁hindu	-8526
▁horse	-8527
▁laura	-8528
▁login	-8529
▁lunch	-8530
▁miner	-8531
▁mobil	-8532
▁proxy	-8533
▁ralph	-8534
▁recon	-8535
▁rival	-8536
▁roinn	-8537
▁shine	-8538
▁simpl	-8539
▁spurs	-8540
▁stars	-8541
▁sweet	-8542
▁upper	-8543
▁visas	-8544
▁youth	-8545
comfort	-8546
company	-8547
izabeth	-8548
pective	-8549
plitude	-8550
selling	-8551
vereign	-8552
▁aryeom	-8553
▁ashley	-8554
▁assign	-8555
▁banner	-8556
▁beside	-8557
▁bitter	-8558
▁blamed	-8559
▁brings	-8560
▁casual	-8561
▁circle	-8562
▁clarke	-8563
▁dallas	-8564
▁daniel	-8565
▁doctor	-8566
▁exists	-8567
▁extent	-8568
▁extrem	-8569
▁flight	-8570
▁forgot	-8571
▁fossil	-8572
▁guards	-8573
▁handed	-8574
▁harvey	-8575
▁headed	-8576
▁hugely	-8577
▁humans	-8578
▁inevit	-8579
▁jacket	-8580
▁justin	-8581
▁lifted	-8582
▁narcot	-8583
▁packed	-8584
▁picked	-8585
▁prince	-8586
▁proven	-8587
▁racial	-8588
▁raises	-8589
▁riding	-8590
▁saudis	-8591
▁serves	-8592
▁shares	-8593
▁sophie	-8594
▁stance	-8595
▁static	-8596
▁supply	-8597
▁suprem	-8598
▁surviv	-8599
▁ticket	-8600
▁tunnel	-8601
▁visits	-8602
▁walked	-8603
▁werden	-8604
atherine	-8605
protests	-8606
standoff	-8607
ulations	-8608
▁acceler	-8609
▁alabama	-8610
▁anticip	-8611
▁arizona	-8612
▁arrival	-8613
▁baghdad	-8614
▁beckham	-8615
▁brandon	-8616
▁buccane	-8617
▁cameras	-8618
▁coaches	-8619
▁dissent	-8620
▁editing	-8621
▁fantasy	-8622
▁follows	-8623
▁gabriel	-8624
▁gorsuch	-8625
▁hardest	-8626
▁ignored	-8627
▁mahmoud	-8628
▁mortars	-8629
▁notable	-8630
▁oakland	-8631
▁ontario	-8632
▁penalty	-8633
▁postcss	-8634
▁pulling	-8635
▁rapidly	-8636
▁rebuild	-8637
▁reduced	-8638
▁russell	-8639
▁seasons	-8640
▁shouted	-8641
▁simonon	-8642
▁somehow	-8643
▁staying	-8644
▁storage	-8645
▁survive	-8646
▁sustain	-8647
▁theater	-8648
▁trudeau	-8649
▁typhoon	-8650
▁typical	-8651
▁wealthy	-8652
/2017-12-	-8653
democracy	-8654
instagram	-8655
▁category	-8656
▁commands	-8657
▁controls	-8658
▁covering	-8659
▁customer	-8660
▁doomsday	-8661
▁dropping	-8662
▁entering	-8663
▁entitled	-8664
▁entrants	-8665
▁exercise	-8666
▁expanded	-8667
▁exposing	-8668
▁freshman	-8669
▁friendly	-8670
▁guardian	-8671
▁hardware	-8672
▁holtmann	-8673
▁limiting	-8674
▁longtime	-8675
▁marginal	-8676
▁memories	-8677
▁mosquito	-8678
▁normally	-8679
▁ordinary	-8680
▁overseas	-8681
▁proposal	-8682
▁receiver	-8683
▁reducing	-8684
▁reopened	-8685
▁sentence	-8686
▁servants	-8687
▁somewhat	-8688
▁sponsors	-8689
▁stronger	-8690
▁supervis	-8691
▁symptoms	-8692
▁universe	-8693
▁whenever	-8694
▁wildlife	-8695
izophrenia	-8696
▁abandoned	-8697
▁barcelona	-8698
▁classroom	-8699
▁computers	-8700
▁consensus	-8701
▁contracts	-8702
▁criminals	-8703
▁defensive	-8704
▁diversity	-8705
▁employers	-8706
▁engineers	-8707
▁functions	-8708
▁household	-8709
▁illegally	-8710
▁lawmakers	-8711
▁nonprofit	-8712
▁northeast	-8713
▁performed	-8714
▁petroleum	-8715
▁preferred	-8716
▁prototype	-8717
▁sanliurfa	-8718
▁slaughter	-8719
▁sovereign	-8720
▁sustained	-8721
▁taxpayers	-8722
▁testimony	-8723
▁weinstein	-8724
▁yesterday	-8725
▁acceptable	-8726
▁apartments	-8727
▁appointees	-8728
▁appreciate	-8729
▁approaches	-8730
▁assistance	-8731
▁collecting	-8732
▁collection	-8733
▁communists	-8734
▁compatible	-8735
▁designated	-8736
▁developing	-8737
▁disturbing	-8738
▁excellence	-8739
▁greyhounds	-8740
▁healthcare	-8741
▁initiative	-8742
▁maintained	-8743
▁originally	-8744
▁phenomenon	-8745
▁physically	-8746
▁possession	-8747
▁propaganda	-8748
▁prosecutor	-8749
▁prototypes	-8750
▁publishing	-8751
▁reasonable	-8752
▁recognised	-8753
▁recreation	-8754
▁reputation	-8755
▁restaurant	-8756
▁springboks	-8757
▁subsequent	-8758
▁suggesting	-8759
▁touchdowns	-8760
▁transplant	-8761
▁tremendous	-8762
▁archaeology	-8763
▁blockchains	-8764
▁christopher	-8765
▁devastating	-8766
▁explanation	-8767
▁institution	-8768
▁investments	-8769
▁involvement	-8770
▁maintenance	-8771
▁medications	-8772
▁politically	-8773
▁replacement	-8774
▁substantial	-8775
▁associations	-8776
▁expectations	-8777
▁historically	-8778
▁implications	-8779
▁intellectual	-8780
▁performances	-8781
▁prosecutions	-8782
▁requirements	-8783
▁shareholders	-8784
▁transnational	-8785
.-	-8786
5/	-8787
cp	-8788
di	-8789
dt	-8790
iw	-8791
vc	-8792
ät	-8793
ün	-8794
دي	-8795
فر	-8796
▁σ	-8797
!).	-8798
/1.	-8799
/14	-8800
140	-8801
20%	-8802
26/	-8803
28/	-8804
=""	-8805
bra	-8806
edu	-8807
gie	-8808
gop	-8809
his	-8810
hur	-8811
ikh	-8812
kom	-8813
lab	-8814
ois	-8815
pie	-8816
pow	-8817
tes	-8818
tle	-8819
tur	-8820
wat	-8821
yer	-8822
▁2-	-8823
▁5:	-8824
▁64	-8825
▁65	-8826
▁>>	-8827
▁fi	-8828
▁gp	-8829
▁ll	-8830
▁ly	-8831
▁ni	-8832
▁om	-8833
▁pb	-8834
▁qt	-8835
▁sb	-8836
▁xr	-8837
▁من	-8838
"";"	-8839
/176	-8840
/180	-8841
acle	-8842
agen	-8843
ahoo	-8844
anth	-8845
ardo	-8846
arks	-8847
brid	-8848
bury	-8849
cade	-8850
club	-8851
cust	-8852
ders	-8853
done	-8854
fast	-8855
ican	-8856
iffe	-8857
ioti	-8858
istí	-8859
itol	-8860
kman	-8861
mart	-8862
name	-8863
ncia	-8864
node	-8865
oret	-8866
osta	-8867
pack	-8868
phic	-8869
pton	-8870
real	-8871
rise	-8872
rose	-8873
stan	-8874
terr	-8875
umer	-8876
urek	-8877
user	-8878
uted	-8879
vada	-8880
vote	-8881
yard	-8882
ério	-8883
▁$15	-8884
▁$3.	-8885
▁$5.	-8886
▁$6,	-8887
▁$7,	-8888
▁$8.	-8889
▁1.2	-8890
▁12.	-8891
▁16,	-8892
▁24,	-8893
▁3.9	-8894
▁30-	-8895
▁ace	-8896
▁aet	-8897
▁ast	-8898
▁blm	-8899
▁bos	-8900
▁bul	-8901
▁cub	-8902
▁cul	-8903
▁flu	-8904
▁foi	-8905
▁gcc	-8906
▁gil	-8907
▁gps	-8908
▁hew	-8909
▁hog	-8910
▁inn	-8911
▁ire	-8912
▁jay	-8913
▁jog	-8914
▁kle	-8915
▁kot	-8916
▁lam	-8917
▁lun	-8918
▁mak	-8919
▁meg	-8920
▁pdf	-8921
▁rah	-8922
▁tai	-8923
▁upr	-8924
▁voc	-8925
▁wid	-8926
▁الت	-8927
aleza	-8928
archy	-8929
arcia	-8930
atell	-8931
berts	-8932
chann	-8933
dling	-8934
doing	-8935
earls	-8936
eping	-8937
essed	-8938
happy	-8939
ierce	-8940
iking	-8941
inity	-8942
isons	-8943
likes	-8944
metoo	-8945
ocial	-8946
ockey	-8947
owing	-8948
space	-8949
ubble	-8950
umber	-8951
▁2012	-8952
▁athe	-8953
▁barg	-8954
▁bayt	-8955
▁belt	-8956
▁bloc	-8957
▁brig	-8958
▁bust	-8959
▁chat	-8960
▁dece	-8961
▁dirt	-8962
▁ease	-8963
▁evil	-8964
▁fame	-8965
▁fisa	-8966
▁forb	-8967
▁gaza	-8968
▁glad	-8969
▁grup	-8970
▁guid	-8971
▁hota	-8972
▁kidd	-8973
▁lect	-8974
▁libr	-8975
▁logo	-8976
▁mail	-8977
▁oder	-8978
▁oide	-8979
▁pent	-8980
▁ramp	-8981
▁sanc	-8982
▁scal	-8983
▁shah	-8984
▁sono	-8985
▁stal	-8986
▁trou	-8987
▁unve	-8988
▁vent	-8989
▁wird	-8990
▁über	-8991
adelph	-8992
arthed	-8993
astern	-8994
behind	-8995
bourne	-8996
courts	-8997
encing	-8998
fields	-8999
friend	-9000
holder	-9001
ilarly	-9002
iminal	-9003
island	-9004
mented	-9005
ortion	-9006
proble	-9007
ranked	-9008
ribune	-9009
rifice	-9010
source	-9011
ultane	-9012
▁2012.	-9013
▁adams	-9014
▁ahmad	-9015
▁alloc	-9016
▁anton	-9017
▁arrow	-9018
▁asian	-9019
▁beast	-9020
▁biden	-9021
▁blind	-9022
▁brenn	-9023
▁cells	-9024
▁cheat	-9025
▁clark	-9026
▁creek	-9027
▁della	-9028
▁dereg	-9029
▁dimin	-9030
▁drops	-9031
▁dying	-9032
▁embed	-9033
▁hedge	-9034
▁hyatt	-9035
▁inbox	-9036
▁keeps	-9037
▁label	-9038
▁layer	-9039
▁liked	-9040
▁loves	-9041
▁merch	-9042
▁mines	-9043
▁minim	-9044
▁niger	-9045
▁novel	-9046
▁nurse	-9047
▁oblig	-9048
▁opens	-9049
▁pases	-9050
▁pavel	-9051
▁polar	-9052
▁punch	-9053
▁reads	-9054
▁risks	-9055
▁roman	-9056
▁ruled	-9057
▁sindh	-9058
▁stair	-9059
▁taste	-9060
▁theme	-9061
▁tourn	-9062
▁usual	-9063
▁weird	-9064
▁wives	-9065
achtell	-9066
control	-9067
driving	-9068
icholas	-9069
igation	-9070
itories	-9071
network	-9072
present	-9073
ruption	-9074
success	-9075
ubeidat	-9076
working	-9077
▁aethel	-9078
▁aliens	-9079
▁avenue	-9080
▁bloody	-9081
▁buried	-9082
▁chiang	-9083
▁comics	-9084
▁dating	-9085
▁deemed	-9086
▁dispar	-9087
▁docker	-9088
▁enjoys	-9089
▁esquer	-9090
▁excess	-9091
▁finish	-9092
▁format	-9093
▁freely	-9094
▁fueron	-9095
▁funded	-9096
▁gained	-9097
▁guilty	-9098
▁gunman	-9099
▁harder	-9100
▁iconic	-9101
▁indict	-9102
▁invent	-9103
▁lothan	-9104
▁manner	-9105
▁nevada	-9106
▁obtain	-9107
▁orient	-9108
▁parent	-9109
▁patrol	-9110
▁pinned	-9111
▁plants	-9112
▁rifles	-9113
▁satell	-9114
▁server	-9115
▁shrink	-9116
▁staged	-9117
▁stages	-9118
▁steven	-9119
▁stocks	-9120
▁stolen	-9121
▁tenure	-9122
▁trials	-9123
▁wallet	-9124
▁wishes	-9125
adelphia	-9126
dictator	-9127
▁abandon	-9128
▁absence	-9129
▁anybody	-9130
▁assumed	-9131
▁authent	-9132
▁beneath	-9133
▁captain	-9134
▁capture	-9135
▁chamber	-9136
▁chronic	-9137
▁compare	-9138
▁compass	-9139
▁delayed	-9140
▁drawing	-9141
▁faculty	-9142
▁forever	-9143
▁grounds	-9144
▁hunting	-9145
▁intense	-9146
▁invalid	-9147
▁jeffrey	-9148
▁mandate	-9149
▁matches	-9150
▁milioti	-9151
▁pledged	-9152
▁portion	-9153
▁quietly	-9154
▁regions	-9155
▁roberts	-9156
▁rolling	-9157
▁seniors	-9158
▁sherman	-9159
▁shipped	-9160
▁solving	-9161
▁surging	-9162
▁theoret	-9163
▁tragedy	-9164
▁trigger	-9165
community	-9166
dcsheriff	-9167
efficient	-9168
▁advocacy	-9169
▁attitude	-9170
▁cemetery	-9171
▁ceremony	-9172
▁cocktail	-9173
▁compiled	-9174
▁drinking	-9175
▁educated	-9176
▁emerging	-9177
▁enormous	-9178
▁equality	-9179
▁flagship	-9180
▁frontier	-9181
▁graduate	-9182
▁guidance	-9183
▁heritage	-9184
▁informed	-9185
▁involves	-9186
▁lifetime	-9187
▁machines	-9188
▁maryland	-9189
▁militant	-9190
▁moreover	-9191
▁offshore	-9192
▁opposing	-9193
▁overlook	-9194
▁payments	-9195
▁pressing	-9196
▁prompted	-9197
▁refusing	-9198
▁relevant	-9199
▁resulted	-9200
▁selected	-9201
▁senators	-9202
▁strength	-9203
▁strongly	-9204
▁visitors	-9205
revolution	-9206
▁addressed	-9207
▁alongside	-9208
▁anonymous	-9209
▁audiences	-9210
▁authentic	-9211
▁cleveland	-9212
▁contacted	-9213
▁container	-9214
▁contempor	-9215
▁directors	-9216
▁discourse	-9217
▁discovery	-9218
▁elizabeth	-9219
▁emotional	-9220
▁encourage	-9221
▁excellent	-9222
▁fortaleza	-9223
▁hopefully	-9224
▁hurricane	-9225
▁instances	-9226
▁integrity	-9227
▁melbourne	-9228
▁methodist	-9229
▁movements	-9230
▁naturally	-9231
▁ourselves	-9232
▁oversight	-9233
▁processes	-9234
▁promising	-9235
▁promoting	-9236
▁promotion	-9237
▁selection	-9238
▁similarly	-9239
▁spotlight	-9240
▁succeeded	-9241
▁televised	-9242
▁temporary	-9243
▁territory	-9244
▁vacancies	-9245
▁validator	-9246
▁violation	-9247
▁wikileaks	-9248
theguardian	-9249
▁algorithms	-9250
▁birmingham	-9251
▁buccaneers	-9252
▁describing	-9253
▁encouraged	-9254
▁equivalent	-9255
▁escalation	-9256
▁explaining	-9257
▁extractive	-9258
▁laundering	-9259
▁meaningful	-9260
▁membership	-9261
▁misconduct	-9262
▁overseeing	-9263
▁popularity	-9264
▁procession	-9265
▁questioned	-9266
▁registered	-9267
▁struggling	-9268
▁accusations	-9269
▁bureaucracy	-9270
▁correlation	-9271
▁credibility	-9272
▁declaration	-9273
▁initiatives	-9274
▁westminster	-9275
investigation	-9276
▁acknowledged	-9277
▁developments	-9278
▁instructions	-9279
▁intersection	-9280
▁occasionally	-9281
▁overwhelming	-9282
▁partnerships	-9283
▁thanksgiving	-9284
▁circumstances	-9285
▁contributions	-9286
▁technological	-9287
▁representative	-9288
▁transportation	-9289
."	-9290
].	-9291
cs	-9292
kr	-9293
ln	-9294
ox	-9295
wm	-9296
ło	-9297
ικ	-9298
ρο	-9299
▁ق	-9300
"">	-9301
/10	-9302
10.	-9303
20/	-9304
400	-9305
414	-9306
926	-9307
ahr	-9308
aku	-9309
amm	-9310
ara	-9311
awf	-9312
aye	-9313
bad	-9314
bus	-9315
cha	-9316
cla	-9317
cus	-9318
dam	-9319
ece	-9320
egg	-9321
god	-9322
him	-9323
hit	-9324
hna	-9325
igs	-9326
igt	-9327
ika	-9328
inj	-9329
jon	-9330
lib	-9331
mor	-9332
nic	-9333
oli	-9334
ols	-9335
pac	-9336
pat	-9337
phy	-9338
rum	-9339
ähr	-9340
▁**	-9341
▁54	-9342
▁57	-9343
▁85	-9344
▁9.	-9345
▁__	-9346
▁dv	-9347
▁ff	-9348
▁md	-9349
▁nu	-9350
▁ou	-9351
▁ré	-9352
abet	-9353
anim	-9354
area	-9355
bled	-9356
both	-9357
clos	-9358
deal	-9359
dist	-9360
dive	-9361
dney	-9362
edia	-9363
edin	-9364
erto	-9365
euro	-9366
fact	-9367
fers	-9368
gans	-9369
half	-9370
have	-9371
hrab	-9372
ifax	-9373
igin	-9374
iley	-9375
iola	-9376
ippi	-9377
issa	-9378
lost	-9379
make	-9380
mass	-9381
math	-9382
mite	-9383
open	-9384
orse	-9385
osen	-9386
ouch	-9387
phib	-9388
poin	-9389
pple	-9390
rect	-9391
rock	-9392
rous	-9393
shon	-9394
site	-9395
soci	-9396
stra	-9397
subs	-9398
text	-9399
thur	-9400
tten	-9401
uins	-9402
umin	-9403
vedo	-9404
wear	-9405
wind	-9406
zing	-9407
äter	-9408
▁(11	-9409
▁1.5	-9410
▁13.	-9411
▁17-	-9412
▁bei	-9413
▁cbc	-9414
▁cen	-9415
▁cin	-9416
▁cpp	-9417
▁dil	-9418
▁dry	-9419
▁ell	-9420
▁enf	-9421
▁fgm	-9422
▁gdp	-9423
▁gem	-9424
▁gif	-9425
▁haz	-9426
▁hos	-9427
▁ian	-9428
▁iso	-9429
▁jin	-9430
▁kit	-9431
▁lav	-9432
▁lie	-9433
▁lyn	-9434
▁nan	-9435
▁nba	-9436
▁oaa	-9437
▁pec	-9438
▁scp	-9439
▁sei	-9440
▁sid	-9441
▁tag	-9442
▁tak	-9443
▁ves	-9444
▁vox	-9445
▁zem	-9446
.'"""	-9447
acies	-9448
acles	-9449
ailed	-9450
ancou	-9451
aning	-9452
anças	-9453
aping	-9454
armot	-9455
awfiq	-9456
baugh	-9457
check	-9458
epend	-9459
error	-9460
ersed	-9461
exper	-9462
grand	-9463
green	-9464
index	-9465
keyes	-9466
liner	-9467
oklyn	-9468
oness	-9469
osoph	-9470
plate	-9471
riers	-9472
somet	-9473
south	-9474
super	-9475
their	-9476
these	-9477
ucker	-9478
urned	-9479
▁15.3	-9480
▁18.0	-9481
▁1950	-9482
▁1970	-9483
▁1980	-9484
▁aber	-9485
▁adds	-9486
▁aver	-9487
▁beam	-9488
▁cane	-9489
▁chun	-9490
▁craw	-9491
▁cups	-9492
▁dhom	-9493
▁dogs	-9494
▁duty	-9495
▁elev	-9496
▁epic	-9497
▁exec	-9498
▁finn	-9499
▁flaw	-9500
▁flex	-9501
▁fold	-9502
▁fork	-9503
▁fred	-9504
▁gini	-9505
▁grav	-9506
▁holy	-9507
▁hype	-9508
▁indo	-9509
▁irre	-9510
▁kann	-9511
▁kirk	-9512
▁lash	-9513
▁lies	-9514
▁mask	-9515
▁memo	-9516
▁mikh	-9517
▁mile	-9518
▁palm	-9519
▁plot	-9520
▁pope	-9521
▁pour	-9522
▁prin	-9523
▁proc	-9524
▁pupp	-9525
▁puzz	-9526
▁rang	-9527
▁sant	-9528
▁shad	-9529
▁sick	-9530
▁sink	-9531
▁sogi	-9532
▁solo	-9533
▁sont	-9534
▁yose	-9535
50,000	-9536
aching	-9537
associ	-9538
astery	-9539
ceived	-9540
commod	-9541
cripts	-9542
econom	-9543
ethere	-9544
github	-9545
hnaill	-9546
iciary	-9547
icides	-9548
idades	-9549
iments	-9550
issues	-9551
lihood	-9552
mation	-9553
odynam	-9554
ounced	-9555
owners	-9556
played	-9557
record	-9558
refill	-9559
reness	-9560
shoots	-9561
thorne	-9562
ublica	-9563
▁0.08%	-9564
▁2,000	-9565
▁2011,	-9566
▁abbas	-9567
▁agric	-9568
▁album	-9569
▁alike	-9570
▁aspen	-9571
▁atlus	-9572
▁backb	-9573
▁badly	-9574
▁bajor	-9575
▁bills	-9576
▁bombs	-9577
▁bryan	-9578
▁burst	-9579
▁cease	-9580
▁demol	-9581
▁eleph	-9582
▁enemy	-9583
▁falls	-9584
▁fores	-9585
▁freem	-9586
▁genus	-9587
▁hayes	-9588
▁irish	-9589
▁kunin	-9590
▁laugh	-9591
▁maltz	-9592
▁merit	-9593
▁nader	-9594
▁onset	-9595
▁overd	-9596
▁overl	-9597
▁paulo	-9598
▁pelle	-9599
▁pharm	-9600
▁plain	-9601
▁ports	-9602
▁quart	-9603
▁razor	-9604
▁react	-9605
▁relax	-9606
▁saeed	-9607
▁santi	-9608
▁sarah	-9609
▁saved	-9610
▁schol	-9611
▁shake	-9612
▁sobre	-9613
▁solve	-9614
▁subpo	-9615
▁tests	-9616
▁tries	-9617
▁tronc	-9618
▁vegan	-9619
▁veloc	-9620
▁walks	-9621
▁winds	-9622
account	-9623
century	-9624
charged	-9625
current	-9626
donnell	-9627
ecutive	-9628
emption	-9629
ibtimes	-9630
inguish	-9631
invited	-9632
issippi	-9633
iteness	-9634
neutral	-9635
ocolate	-9636
popular	-9637
rential	-9638
running	-9639
seattle	-9640
service	-9641
univers	-9642
western	-9643
witness	-9644
▁50,000	-9645
▁admits	-9646
▁albeit	-9647
▁amphib	-9648
▁argues	-9649
▁arthur	-9650
▁assass	-9651
▁babies	-9652
▁banned	-9653
▁barric	-9654
▁boulev	-9655
▁brands	-9656
▁browne	-9657
▁bundes	-9658
▁cancer	-9659
▁colors	-9660
▁comedy	-9661
▁cotten	-9662
▁disput	-9663
▁draped	-9664
▁driver	-9665
▁erklär	-9666
▁fabric	-9667
▁facial	-9668
▁garcia	-9669
▁github	-9670
▁herald	-9671
▁hockey	-9672
▁hollow	-9673
▁incons	-9674
▁insist	-9675
▁invite	-9676
▁jewish	-9677
▁landed	-9678
▁loudon	-9679
▁michel	-9680
▁newton	-9681
▁pollak	-9682
▁profit	-9683
▁rarely	-9684
▁reddit	-9685
▁reopen	-9686
▁resign	-9687
▁scales	-9688
▁scores	-9689
▁spoken	-9690
▁stayed	-9691
▁stimul	-9692
▁string	-9693
▁submit	-9694
▁suffer	-9695
▁sydney	-9696
▁tawfiq	-9697
▁unfair	-9698
▁upline	-9699
▁vancou	-9700
▁voices	-9701
▁weiner	-9702
▁winner	-9703
▁الببغا	-9704
--------	-9705
blogspot	-9706
ductions	-9707
ethereum	-9708
facebook	-9709
heastern	-9710
independ	-9711
oriented	-9712
▁adopted	-9713
▁amongst	-9714
▁artific	-9715
▁capable	-9716
▁capitol	-9717
▁cardass	-9718
▁causing	-9719
▁centers	-9720
▁chances	-9721
▁chanted	-9722
▁clement	-9723
▁collaps	-9724
▁compell	-9725
▁designs	-9726
▁detroit	-9727
▁digging	-9728
▁disclos	-9729
▁diverse	-9730
▁dressed	-9731
▁element	-9732
▁embrace	-9733
▁enacted	-9734
▁enforce	-9735
▁enthusi	-9736
▁exports	-9737
▁factory	-9738
▁falling	-9739
▁flashes	-9740
▁flooded	-9741
▁georgia	-9742
▁gunfire	-9743
▁indiana	-9744
▁instant	-9745
▁invoked	-9746
▁joining	-9747
▁landing	-9748
▁landler	-9749
▁latimer	-9750
▁locally	-9751
▁mainnet	-9752
▁melissa	-9753
▁mikhail	-9754
▁militar	-9755
▁neutral	-9756
▁nigeria	-9757
▁oideach	-9758
▁outdoor	-9759
▁picking	-9760
▁poeppel	-9761
▁recruit	-9762
▁remarks	-9763
▁rushing	-9764
▁savings	-9765
▁spotted	-9766
▁strange	-9767
▁sympath	-9768
▁theatre	-9769
▁tourist	-9770
▁tunnels	-9771
▁winners	-9772
dailynews	-9773
isticated	-9774
political	-9775
telegraph	-9776
▁achieved	-9777
▁analysts	-9778
▁attached	-9779
▁attacked	-9780
▁bachtell	-9781
▁blocking	-9782
▁buckeyes	-9783
▁catastro	-9784
▁clothing	-9785
▁coinbase	-9786
▁deceased	-9787
▁delivers	-9788
▁detailed	-9789
▁discover	-9790
▁disorder	-9791
▁embedded	-9792
▁employed	-9793
▁esquerda	-9794
▁explicit	-9795
▁extended	-9796
▁formally	-9797
▁generate	-9798
▁husbands	-9799
▁imperial	-9800
▁judgment	-9801
▁medicine	-9802
▁pentagon	-9803
▁presents	-9804
▁prohibit	-9805
▁promoted	-9806
▁proteste	-9807
▁rational	-9808
▁receives	-9809
▁reserved	-9810
▁rotation	-9811
▁santiago	-9812
▁scenario	-9813
▁scottish	-9814
▁shootout	-9815
▁stirling	-9816
▁undermin	-9817
▁uprising	-9818
▁yosemite	-9819
▁zemarmot	-9820
acceptable	-9821
▁affecting	-9822
▁assistant	-9823
▁awareness	-9824
▁bernstein	-9825
▁catherine	-9826
▁chocolate	-9827
▁communism	-9828
▁comparing	-9829
▁dedicated	-9830
▁depending	-9831
▁describes	-9832
▁desperate	-9833
▁economies	-9834
▁economist	-9835
▁electoral	-9836
▁equipment	-9837
▁estimates	-9838
▁exchanges	-9839
▁exclusive	-9840
▁execution	-9841
▁expecting	-9842
▁extensive	-9843
▁gathering	-9844
▁governing	-9845
▁guardiola	-9846
▁interpret	-9847
▁jugadores	-9848
▁libraries	-9849
▁licensing	-9850
▁listening	-9851
▁militants	-9852
▁perfectly	-9853
▁precisely	-9854
▁proposals	-9855
▁provision	-9856
▁simultane	-9857
▁sponsored	-9858
▁staircase	-9859
▁suspended	-9860
▁telephone	-9861
▁vancouver	-9862
▁accessible	-9863
▁adaptation	-9864
▁addressing	-9865
▁associates	-9866
▁biological	-9867
▁collective	-9868
▁comparison	-9869
▁complexity	-9870
▁components	-9871
▁conducting	-9872
▁criticized	-9873
▁definition	-9874
▁dhomhnaill	-9875
▁facilities	-9876
▁fatalities	-9877
▁franchises	-9878
▁functional	-9879
▁helicopter	-9880
▁inevitable	-9881
▁inevitably	-9882
▁performers	-9883
▁politician	-9884
▁prevention	-9885
▁propublica	-9886
▁provincial	-9887
▁purchasing	-9888
▁screenshot	-9889
▁understood	-9890
▁achievement	-9891
▁acknowledge	-9892
▁celebrating	-9893
▁condolences	-9894
▁cooperation	-9895
▁intelligent	-9896
▁interaction	-9897
▁legislative	-9898
▁marketshare	-9899
▁participant	-9900
▁restaurants	-9901
▁territories	-9902
▁thermodynam	-9903
▁transferred	-9904
▁transparent	-9905
▁withdrawing	-9906
▁appalachians	-9907
▁championship	-9908
▁confidential	-9909
▁contemporary	-9910
▁evolutionary	-9911
▁experimental	-9912
▁restrictions	-9913
▁conversations	-9914
▁demonstrating	-9915
▁establishment	-9916
▁participation	-9917
▁schizophrenia	-9918
▁sophisticated	-9919
▁authentication	-9920
▁simultaneously	-9921
,0	-9922
2-	-9923
3-	-9924
61	-9925
71	-9926
</	-9927
](	-9928
aç	-9929
cu	-9930
gt	-9931
mr	-9932
pd	-9933
ui	-9934
uz	-9935
wc	-9936
zi	-9937
ór	-9938
ام	-9939
رو	-9940
ست	-9941
▁ج	-9942
▁ح	-9943
▁س	-9944
!!!	-9945
-10	-9946
-13	-9947
/28	-9948
320	-9949
504	-9950
900	-9951
984	-9952
aba	-9953
ahs	-9954
ahu	-9955
aki	-9956
amh	-9957
amo	-9958
aqu	-9959
aws	-9960
azz	-9961
cap	-9962
cat	-9963
cbs	-9964
cro	-9965
dex	-9966
dut	-9967
fts	-9968
fut	-9969
gaz	-9970
igr	-9971
isc	-9972
kar	-9973
ker	-9974
llo	-9975
lor	-9976
mid	-9977
mot	-9978
mur	-9979
nie	-9980
oni	-9981
osa	-9982
ouc	-9983
pan	-9984
pin	-9985
rup	-9986
sic	-9987
sit	-9988
tar	-9989
tro	-9990
uni	-9991
uto	-9992
xin	-9993
yet	-9994
ées	-9995
بير	-9996
▁$8	-9997
▁$9	-9998
▁58	-9999
▁67	-10000
▁95	-10001
▁aj	-10002
▁ax	-10003
▁dá	-10004
▁eğ	-10005
▁ft	-10006
▁rv	-10007
▁—–	-10008
/165	-10009
/18/	-10010
/612	-10011
/623	-10012
000-	-10013
000.	-10014
ails	-10015
arda	-10016
arre	-10017
aska	-10018
born	-10019
brit	-10020
coal	-10021
curl	-10022
deep	-10023
dell	-10024
dern	-10025
duty	-10026
east	-10027
enth	-10028
erts	-10029
este	-10030
ethe	-10031
expl	-10032
fair	-10033
feed	-10034
gery	-10035
help	-10036
hour	-10037
icia	-10038
icut	-10039
iere	-10040
iner	-10041
inge	-10042
inik	-10043
into	-10044
isis	-10045
jack	-10046
join	-10047
jähr	-10048
kind	-10049
kson	-10050
ktla	-10051
lass	-10052
left	-10053
lsea	-10054
mons	-10055
move	-10056
olla	-10057
omin	-10058
onts	-10059
orig	-10060
phee	-10061
plan	-10062
pool	-10063
reds	-10064
rell	-10065
rome	-10066
safe	-10067
shel	-10068
sted	-10069
step	-10070
teen	-10071
then	-10072
true	-10073
uits	-10074
ules	-10075
ulpt	-10076
umul	-10077
wach	-10078
wage	-10079
wire	-10080
▁$11	-10081
▁$20	-10082
▁$5,	-10083
▁10-	-10084
▁10.	-10085
▁12-	-10086
▁125	-10087
▁17.	-10088
▁20-	-10089
▁ano	-10090
▁anx	-10091
▁aux	-10092
▁ave	-10093
▁awk	-10094
▁bnb	-10095
▁cow	-10096
▁dna	-10097
▁dow	-10098
▁eri	-10099
▁gui	-10100
▁gut	-10101
▁gym	-10102
▁hin	-10103
▁jar	-10104
▁jem	-10105
▁joy	-10106
▁kne	-10107
▁kos	-10108
▁kru	-10109
▁kup	-10110
▁mug	-10111
▁muj	-10112
▁npr	-10113
▁nut	-10114
▁raw	-10115
▁rin	-10116
▁scl	-10117
▁snp	-10118
▁são	-10119
▁tap	-10120
▁tay	-10121
▁tip	-10122
▁toy	-10123
▁unw	-10124
▁vin	-10125
▁zur	-10126
alert	-10127
alous	-10128
andez	-10129
anton	-10130
bling	-10131
bring	-10132
chain	-10133
chron	-10134
echer	-10135
eland	-10136
email	-10137
encer	-10138
enger	-10139
erate	-10140
farda	-10141
gered	-10142
idays	-10143
illor	-10144
inois	-10145
istas	-10146
itung	-10147
lando	-10148
llers	-10149
olith	-10150
peter	-10151
piece	-10152
polis	-10153
pound	-10154
ppled	-10155
scene	-10156
shirt	-10157
since	-10158
surpr	-10159
tting	-10160
uffle	-10161
ulent	-10162
usted	-10163
úblic	-10164
▁100%	-10165
▁1930	-10166
▁2.9.	-10167
▁anch	-10168
▁bare	-10169
▁bast	-10170
▁belg	-10171
▁buzz	-10172
▁caps	-10173
▁ceni	-10174
▁chen	-10175
▁cous	-10176
▁edin	-10177
▁effe	-10178
▁elic	-10179
▁espa	-10180
▁glam	-10181
▁gray	-10182
▁habe	-10183
▁hart	-10184
▁hook	-10185
▁icon	-10186
▁ital	-10187
▁jake	-10188
▁jama	-10189
▁juan	-10190
▁kane	-10191
▁kath	-10192
▁khan	-10193
▁lamb	-10194
▁leak	-10195
▁leis	-10196
▁loop	-10197
▁lung	-10198
▁mara	-10199
▁marr	-10200
▁marx	-10201
▁mini	-10202
▁pear	-10203
▁pens	-10204
▁pret	-10205
▁qtum	-10206
▁quad	-10207
▁raid	-10208
▁sadd	-10209
▁salv	-10210
▁scan	-10211
▁slam	-10212
▁spac	-10213
▁sque	-10214
▁tatt	-10215
▁thir	-10216
▁tire	-10217
▁tons	-10218
▁toss	-10219
▁trav	-10220
▁urug	-10221
▁vari	-10222
▁vest	-10223
▁veto	-10224
▁weig	-10225
▁xbox	-10226
▁zomb	-10227
▁كبير	-10228
..."""	-10229
ailand	-10230
anteed	-10231
ashing	-10232
astics	-10233
asting	-10234
ateful	-10235
balled	-10236
burger	-10237
canada	-10238
casper	-10239
closed	-10240
ctuary	-10241
direct	-10242
effect	-10243
erated	-10244
estine	-10245
europe	-10246
funded	-10247
groups	-10248
hammer	-10249
ijuana	-10250
intell	-10251
iptomo	-10252
ischen	-10253
itious	-10254
minded	-10255
mobile	-10256
nesota	-10257
orship	-10258
osophy	-10259
outhis	-10260
overed	-10261
proper	-10262
rators	-10263
school	-10264
scious	-10265
secret	-10266
sexual	-10267
update	-10268
▁2010.	-10269
▁2018!	-10270
▁alarm	-10271
▁alpha	-10272
▁annoy	-10273
▁balls	-10274
▁blaze	-10275
▁blogs	-10276
▁bonus	-10277
▁branc	-10278
▁brave	-10279
▁bruce	-10280
▁clamp	-10281
▁comic	-10282
▁conse	-10283
▁craig	-10284
▁depos	-10285
▁downs	-10286
▁dutch	-10287
▁eager	-10288
▁edges	-10289
▁einer	-10290
▁fancy	-10291
▁freep	-10292
▁funny	-10293
▁gegen	-10294
▁ghost	-10295
▁glenn	-10296
▁grass	-10297
▁griev	-10298
▁haben	-10299
▁hence	-10300
▁hoped	-10301
▁hydro	-10302
▁kenya	-10303
▁knife	-10304
▁lifts	-10305
▁liver	-10306
▁macon	-10307
▁marsh	-10308
▁miche	-10309
▁mined	-10310
▁mixed	-10311
▁plaza	-10312
▁prone	-10313
▁redes	-10314
▁reloc	-10315
▁renov	-10316
▁rifle	-10317
▁risen	-10318
▁rises	-10319
▁safer	-10320
▁saleh	-10321
▁scoil	-10322
▁scrip	-10323
▁spell	-10324
▁squad	-10325
▁stops	-10326
▁strat	-10327
▁surge	-10328
▁tends	-10329
▁tired	-10330
▁todos	-10331
▁tutor	-10332
▁valle	-10333
▁voter	-10334
▁vowed	-10335
▁wheel	-10336
acional	-10337
channel	-10338
cribing	-10339
erville	-10340
iciency	-10341
illiant	-10342
itative	-10343
onsense	-10344
picture	-10345
profess	-10346
profile	-10347
realdon	-10348
theless	-10349
through	-10350
▁bannon	-10351
▁beings	-10352
▁bitten	-10353
▁burial	-10354
▁carlos	-10355
▁cheese	-10356
▁coding	-10357
▁columb	-10358
▁copper	-10359
▁defeat	-10360
▁define	-10361
▁engulf	-10362
▁expose	-10363
▁extend	-10364
▁feigin	-10365
▁formed	-10366
▁fundra	-10367
▁garner	-10368
▁grants	-10369
▁hitler	-10370
▁hudson	-10371
▁insult	-10372
▁iphone	-10373
▁jaeger	-10374
▁laskey	-10375
▁latter	-10376
▁manage	-10377
▁margin	-10378
▁mcphee	-10379
▁mercia	-10380
▁mirror	-10381
▁monaco	-10382
▁namely	-10383
▁orange	-10384
▁organs	-10385
▁parano	-10386
▁pepper	-10387
▁racist	-10388
▁ranked	-10389
▁recher	-10390
▁remote	-10391
▁satisf	-10392
▁scheme	-10393
▁scoile	-10394
▁silver	-10395
▁slides	-10396
▁speeds	-10397
▁strict	-10398
▁taiwan	-10399
▁twenty	-10400
▁unlock	-10401
▁upload	-10402
▁urbano	-10403
▁urgent	-10404
▁vessel	-10405
▁videot	-10406
▁worthy	-10407
aldtrump	-10408
discover	-10409
identité	-10410
ilingual	-10411
inikanth	-10412
intended	-10413
khamenei	-10414
republic	-10415
watching	-10416
▁academy	-10417
▁advisor	-10418
▁answers	-10419
▁aspects	-10420
▁awkward	-10421
▁barriss	-10422
▁brennan	-10423
▁caution	-10424
▁charity	-10425
▁chelsea	-10426
▁chicken	-10427
▁compens	-10428
▁comprom	-10429
▁consent	-10430
▁continu	-10431
▁courage	-10432
▁creator	-10433
▁crossed	-10434
▁crucial	-10435
▁dealers	-10436
▁dehaven	-10437
▁doubles	-10438
▁drivers	-10439
▁dynasty	-10440
▁edition	-10441
▁enables	-10442
▁endorse	-10443
▁enjoyed	-10444
▁expects	-10445
▁expense	-10446
▁exposed	-10447
▁facilit	-10448
▁founded	-10449
▁generic	-10450
▁halifax	-10451
▁hirshon	-10452
▁houthis	-10453
▁illness	-10454
▁imposed	-10455
▁indefin	-10456
▁ireland	-10457
▁lasting	-10458
▁legitim	-10459
▁lengthy	-10460
▁letters	-10461
▁libcurl	-10462
▁linking	-10463
▁marched	-10464
▁matched	-10465
▁mexican	-10466
▁mineral	-10467
▁pacific	-10468
▁packers	-10469
▁patreon	-10470
▁patriot	-10471
▁pending	-10472
▁permits	-10473
▁pitcher	-10474
▁placing	-10475
▁powered	-10476
▁privile	-10477
▁rainbow	-10478
▁rampant	-10479
▁regards	-10480
▁restore	-10481
▁returns	-10482
▁scoring	-10483
▁sectors	-10484
▁shocked	-10485
▁shooter	-10486
▁silence	-10487
▁statist	-10488
▁suicide	-10489
▁surface	-10490
▁surgery	-10491
▁terrain	-10492
▁tribute	-10493
▁trusted	-10494
▁uruguay	-10495
▁viewing	-10496
ettlement	-10497
unearthed	-10498
▁accepted	-10499
▁accommod	-10500
▁adoption	-10501
▁advances	-10502
▁advocate	-10503
▁arrivals	-10504
▁birthday	-10505
▁captains	-10506
▁catholic	-10507
▁cellular	-10508
▁contacts	-10509
▁counties	-10510
▁criptomo	-10511
▁deciding	-10512
▁decrease	-10513
▁defeated	-10514
▁defender	-10515
▁delivery	-10516
▁destabil	-10517
▁disagree	-10518
▁distinct	-10519
▁engaging	-10520
▁grenades	-10521
▁illinois	-10522
▁indicted	-10523
▁interpre	-10524
▁invested	-10525
▁managing	-10526
▁obtained	-10527
▁patterns	-10528
▁profiles	-10529
▁psychiat	-10530
▁rebounds	-10531
▁recalled	-10532
▁robinson	-10533
▁settings	-10534
▁shoulder	-10535
▁starters	-10536
▁steelers	-10537
▁stranger	-10538
▁survival	-10539
▁survived	-10540
▁suspects	-10541
▁tensions	-10542
▁throness	-10543
▁ultimate	-10544
▁undersco	-10545
▁violated	-10546
▁websites	-10547
corruption	-10548
foundation	-10549
▁aethelred	-10550
▁arguments	-10551
▁assertion	-10552
▁associate	-10553
▁bitrefill	-10554
▁cambridge	-10555
▁concealed	-10556
▁conflicts	-10557
▁construct	-10558
▁dependent	-10559
▁detention	-10560
▁dismissed	-10561
▁edinburgh	-10562
▁efference	-10563
▁efficient	-10564
▁financing	-10565
▁forgotten	-10566
▁hashgraph	-10567
▁hawthorne	-10568
▁identical	-10569
▁installed	-10570
▁intention	-10571
▁investing	-10572
▁islanders	-10573
▁mikhailov	-10574
▁mortality	-10575
▁motorcade	-10576
▁mountains	-10577
▁offseason	-10578
▁prisoners	-10579
▁producers	-10580
▁providers	-10581
▁recovered	-10582
▁reluctant	-10583
▁rendering	-10584
▁renewable	-10585
▁retailers	-10586
▁scattered	-10587
▁strongest	-10588
▁struggles	-10589
▁unlimited	-10590
▁unpopular	-10591
▁whiteness	-10592
▁witnessed	-10593
▁wonderful	-10594
comfortable	-10595
information	-10596
livescience	-10597
▁advantages	-10598
▁altogether	-10599
▁assumption	-10600
▁cemeteries	-10601
▁committees	-10602
▁comprehens	-10603
▁connecting	-10604
▁correction	-10605
▁delivering	-10606
▁discipline	-10607
▁economists	-10608
▁engagement	-10609
▁extraordin	-10610
▁frustrated	-10611
▁grievances	-10612
▁guaranteed	-10613
▁historians	-10614
▁liberation	-10615
▁newspapers	-10616
▁oideachais	-10617
▁philosophy	-10618
▁productive	-10619
▁punishment	-10620
▁razorbacks	-10621
▁remarkable	-10622
▁remembered	-10623
▁restricted	-10624
▁scientific	-10625
▁strategies	-10626
▁structures	-10627
▁surrounded	-10628
▁suspicious	-10629
▁tournament	-10630
▁williamson	-10631
/2017/12/19/	-10632
prostitution	-10633
▁appointment	-10634
▁coefficient	-10635
▁congressman	-10636
▁consecutive	-10637
▁controversy	-10638
▁distinguish	-10639
▁exploration	-10640
▁integration	-10641
▁methodology	-10642
▁photographs	-10643
▁protections	-10644
▁rajinikanth	-10645
▁reciprocity	-10646
▁requirement	-10647
▁smartphones	-10648
▁traffickers	-10649
▁transformed	-10650
▁understands	-10651
▁achievements	-10652
▁additionally	-10653
▁commissioner	-10654
▁contribution	-10655
▁contributors	-10656
▁deliberately	-10657
▁nevertheless	-10658
▁paramilitary	-10659
▁presentation	-10660
▁publications	-10661
▁respectively	-10662
▁surprisingly	-10663
▁temperatures	-10664
▁unidentified	-10665
▁collaboration	-10666
▁corresponding	-10667
▁documentation	-10668
▁neighborhoods	-10669
▁notifications	-10670
▁participating	-10671
▁professionals	-10672
▁reinforcement	-10673
realdonaldtrump	-10674
▁slaughterhouse	-10675
*:	-10676
+,	-10677
-7	-10678
/8	-10679
0)	-10680
01	-10681
04	-10682
6-	-10683
8/	-10684
ei	-10685
hq	-10686
jc	-10687
jf	-10688
jp	-10689
pb	-10690
uy	-10691
zg	-10692
än	-10693
ém	-10694
én	-10695
ña	-10696
τε	-10697
اك	-10698
ند	-10699
نو	-10700
ية	-10701
ين	-10702
▁%	-10703
▁ä	-10704
-1.	-10705
-23	-10706
.5%	-10707
013	-10708
10,	-10709
15)	-10710
17.	-10711
22/	-10712
220	-10713
24/	-10714
26,	-10715
27.	-10716
290	-10717
303	-10718
345	-10719
386	-10720
700	-10721
860	-10722
890	-10723
968	-10724
ags	-10725
aha	-10726
ahn	-10727
amn	-10728
anz	-10729
aux	-10730
cnn	-10731
czy	-10732
dan	-10733
dep	-10734
eck	-10735
elf	-10736
gly	-10737
gow	-10738
hil	-10739
iad	-10740
jan	-10741
kim	-10742
lot	-10743
maa	-10744
mod	-10745
oft	-10746
ola	-10747
orp	-10748
reo	-10749
roc	-10750
sac	-10751
sci	-10752
udo	-10753
unc	-10754
van	-10755
wid	-10756
wil	-10757
wns	-10758
ycl	-10759
äub	-10760
▁''	-10761
▁(7	-10762
▁5%	-10763
▁52	-10764
▁72	-10765
▁75	-10766
▁8:	-10767
▁mb	-10768
▁mt	-10769
▁pá	-10770
▁rp	-10771
▁sé	-10772
▁ui	-10773
▁vi	-10774
▁در	-10775
/174	-10776
/184	-10777
/185	-10778
acre	-10779
alny	-10780
anna	-10781
asey	-10782
aspx	-10783
asse	-10784
atri	-10785
beek	-10786
boys	-10787
code	-10788
cops	-10789
cost	-10790
crat	-10791
cult	-10792
data	-10793
days	-10794
emes	-10795
fern	-10796
fill	-10797
hatt	-10798
held	-10799
hill	-10800
hors	-10801
iler	-10802
inas	-10803
inke	-10804
jvbu	-10805
liga	-10806
made	-10807
main	-10808
mani	-10809
mist	-10810
moon	-10811
mull	-10812
muth	-10813
nedy	-10814
oard	-10815
ocus	-10816
oded	-10817
oirí	-10818
oler	-10819
ooth	-10820
oyed	-10821
paid	-10822
pert	-10823
plat	-10824
pled	-10825
pred	-10826
qual	-10827
rane	-10828
rets	-10829
rust	-10830
sing	-10831
soft	-10832
swat	-10833
take	-10834
tico	-10835
ught	-10836
uttg	-10837
wart	-10838
ític	-10839
▁$24	-10840
▁11.	-10841
▁250	-10842
▁26.	-10843
▁28-	-10844
▁baz	-10845
▁bot	-10846
▁ces	-10847
▁chu	-10848
▁cou	-10849
▁cyn	-10850
▁dia	-10851
▁doe	-10852
▁dus	-10853
▁dys	-10854
▁err	-10855
▁fdp	-10856
▁gad	-10857
▁gao	-10858
▁gla	-10859
▁gum	-10860
▁hip	-10861
▁hug	-10862
▁iii	-10863
▁jen	-10864
▁jou	-10865
▁kay	-10866
▁kaz	-10867
▁kil	-10868
▁kin	-10869
▁kmd	-10870
▁kon	-10871
▁kyc	-10872
▁lei	-10873
▁lik	-10874
▁lsk	-10875
▁maj	-10876
▁mcc	-10877
▁naj	-10878
▁neu	-10879
▁nfc	-10880
▁nie	-10881
▁nik	-10882
▁nin	-10883
▁nps	-10884
▁ohr	-10885
▁pew	-10886
▁poc	-10887
▁prz	-10888
▁pul	-10889
▁rab	-10890
▁rae	-10891
▁tea	-10892
▁tec	-10893
▁tox	-10894
▁tyr	-10895
▁vic	-10896
▁viv	-10897
▁vow	-10898
▁wpr	-10899
▁الع	-10900
allah	-10901
arded	-10902
arton	-10903
atisf	-10904
court	-10905
ensed	-10906
enses	-10907
erald	-10908
escal	-10909
eurek	-10910
fires	-10911
glect	-10912
goers	-10913
grave	-10914
greek	-10915
hears	-10916
hroom	-10917
idate	-10918
ilton	-10919
inced	-10920
ioned	-10921
issue	-10922
iters	-10923
itzer	-10924
iwack	-10925
knife	-10926
langu	-10927
lfare	-10928
liche	-10929
oreal	-10930
orrow	-10931
overs	-10932
parts	-10933
ports	-10934
print	-10935
quest	-10936
quist	-10937
rayed	-10938
reoty	-10939
revue	-10940
riors	-10941
river	-10942
scope	-10943
ships	-10944
stage	-10945
start	-10946
three	-10947
uated	-10948
unity	-10949
valid	-10950
water	-10951
▁$11,	-10952
▁1/50	-10953
▁1996	-10954
▁2.10	-10955
▁2/50	-10956
▁2002	-10957
▁3/50	-10958
▁4/50	-10959
▁5/50	-10960
▁6/50	-10961
▁7/50	-10962
▁8/50	-10963
▁9/50	-10964
▁ante	-10965
▁auss	-10966
▁bind	-10967
▁bríd	-10968
▁caut	-10969
▁cens	-10970
▁clip	-10971
▁clue	-10972
▁crus	-10973
▁dans	-10974
▁dawn	-10975
▁earn	-10976
▁ears	-10977
▁exha	-10978
▁fasc	-10979
▁fiat	-10980
▁fish	-10981
▁fled	-10982
▁func	-10983
▁gaps	-10984
▁gegl	-10985
▁geys	-10986
▁gift	-10987
▁gill	-10988
▁groß	-10989
▁gymn	-10990
▁hair	-10991
▁heal	-10992
▁helm	-10993
▁hern	-10994
▁hier	-10995
▁hipp	-10996
▁hort	-10997
▁huff	-10998
▁idex	-10999
▁incl	-11000
▁inhe	-11001
▁jean	-11002
▁jets	-11003
▁joke	-11004
▁jong	-11005
▁kerr	-11006
▁kiss	-11007
▁laug	-11008
▁loan	-11009
▁lobb	-11010
▁lore	-11011
▁lula	-11012
▁mars	-11013
▁meal	-11014
▁mens	-11015
▁menu	-11016
▁noah	-11017
▁país	-11018
▁pier	-11019
▁rene	-11020
▁sear	-11021
▁shed	-11022
▁shir	-11023
▁stro	-11024
▁tips	-11025
▁tort	-11026
▁twin	-11027
▁unhe	-11028
▁unif	-11029
▁unre	-11030
▁vend	-11031
▁wing	-11032
▁zone	-11033
00,000	-11034
access	-11035
active	-11036
agogue	-11037
ailing	-11038
amento	-11039
apolis	-11040
arcity	-11041
assing	-11042
atican	-11043
backer	-11044
caller	-11045
caster	-11046
contro	-11047
cribed	-11048
docker	-11049
driven	-11050
enders	-11051
erving	-11052
future	-11053
hattan	-11054
iances	-11055
idemic	-11056
indust	-11057
inejad	-11058
isdict	-11059
ledger	-11060
lichen	-11061
lining	-11062
myster	-11063
ocaust	-11064
ologie	-11065
ontane	-11066
orflow	-11067
parish	-11068
please	-11069
produc	-11070
rahman	-11071
ranean	-11072
shirts	-11073
stefan	-11074
teenth	-11075
umping	-11076
untary	-11077
worker	-11078
▁0.07%	-11079
▁0.09%	-11080
▁0.20%	-11081
▁10/50	-11082
▁11/50	-11083
▁12/50	-11084
▁13/50	-11085
▁14/50	-11086
▁15/50	-11087
▁16/50	-11088
▁17/50	-11089
▁18/50	-11090
▁19/50	-11091
▁20/50	-11092
▁21/50	-11093
▁22/50	-11094
▁23/50	-11095
▁24/50	-11096
▁25/50	-11097
▁26/50	-11098
▁27/50	-11099
▁28/50	-11100
▁29/50	-11101
▁3,000	-11102
▁30/50	-11103
▁31/50	-11104
▁32/50	-11105
▁33/50	-11106
▁34/50	-11107
▁35/50	-11108
▁36/50	-11109
▁37/50	-11110
▁38/50	-11111
▁39/50	-11112
▁40/50	-11113
▁41/50	-11114
▁42/50	-11115
▁43/50	-11116
▁44/50	-11117
▁45/50	-11118
▁46/50	-11119
▁47/50	-11120
▁48/50	-11121
▁49/50	-11122
▁50/50	-11123
▁abbey	-11124
▁adopt	-11125
▁aller	-11126
▁andre	-11127
▁angle	-11128
▁angry	-11129
▁arsen	-11130
▁balko	-11131
▁bases	-11132
▁bells	-11133
▁blame	-11134
▁bloom	-11135
▁blown	-11136
▁boxes	-11137
▁brian	-11138
▁caval	-11139
▁chile	-11140
▁choos	-11141
▁comey	-11142
▁conan	-11143
▁conti	-11144
▁counc	-11145
▁cpusa	-11146
▁cruel	-11147
▁dates	-11148
▁deals	-11149
▁decor	-11150
▁dixon	-11151
▁dorud	-11152
▁effig	-11153
▁einem	-11154
▁elder	-11155
▁eller	-11156
▁envoy	-11157
▁essay	-11158
▁fault	-11159
▁gangs	-11160
▁habit	-11161
▁hanno	-11162
▁hesit	-11163
▁hikes	-11164
▁hills	-11165
▁inaug	-11166
▁instr	-11167
▁irreg	-11168
▁isles	-11169
▁logic	-11170
▁looph	-11171
▁maior	-11172
▁mohan	-11173
▁moroc	-11174
▁mummy	-11175
▁pants	-11176
▁parsi	-11177
▁plate	-11178
▁posed	-11179
▁poses	-11180
▁quint	-11181
▁rhett	-11182
▁rooms	-11183
▁route	-11184
▁sadiq	-11185
▁saint	-11186
▁seeks	-11187
▁sends	-11188
▁seoul	-11189
▁shoes	-11190
▁songs	-11191
▁stamp	-11192
▁tasks	-11193
▁tires	-11194
▁topic	-11195
▁trash	-11196
▁tresp	-11197
▁unlaw	-11198
▁unter	-11199
▁upset	-11200
▁wegen	-11201
▁wells	-11202
▁width	-11203
▁zinke	-11204
another	-11205
atorium	-11206
because	-11207
british	-11208
chinese	-11209
custody	-11210
defined	-11211
develop	-11212
ections	-11213
emperor	-11214
founder	-11215
icester	-11216
ictions	-11217
iculous	-11218
iliated	-11219
isation	-11220
latimes	-11221
mission	-11222
olithic	-11223
phoenix	-11224
quality	-11225
reement	-11226
respect	-11227
robbery	-11228
ropolis	-11229
ructive	-11230
society	-11231
strange	-11232
ttenham	-11233
unknown	-11234
uttgart	-11235
washing	-11236
wounded	-11237
written	-11238
▁abedin	-11239
▁aboard	-11240
▁amnest	-11241
▁arrive	-11242
▁baloch	-11243
▁basket	-11244
▁bolton	-11245
▁breach	-11246
▁breaks	-11247
▁burden	-11248
▁burrow	-11249
▁castle	-11250
▁chosen	-11251
▁cleric	-11252
▁clever	-11253
▁clinic	-11254
▁coffee	-11255
▁covers	-11256
▁covert	-11257
▁delete	-11258
▁divide	-11259
▁drives	-11260
▁emerge	-11261
▁equity	-11262
▁escort	-11263
▁ethnic	-11264
▁exclud	-11265
▁exempt	-11266
▁exting	-11267
▁eğitim	-11268
▁fierce	-11269
▁garden	-11270
▁harris	-11271
▁hosted	-11272
▁infant	-11273
▁joumaa	-11274
▁kicked	-11275
▁kotaku	-11276
▁kruzen	-11277
▁kupfer	-11278
▁ladder	-11279
▁leeann	-11280
▁lifest	-11281
▁locals	-11282
▁magnet	-11283
▁measey	-11284
▁nicola	-11285
▁overth	-11286
▁phones	-11287
▁pirate	-11288
▁preced	-11289
▁pushes	-11290
▁quartz	-11291
▁quebec	-11292
▁ramsey	-11293
▁rating	-11294
▁repeal	-11295
▁retali	-11296
▁rolled	-11297
▁sacked	-11298
▁sensor	-11299
▁snakes	-11300
▁sophom	-11301
▁spirit	-11302
▁squand	-11303
▁suther	-11304
▁taylor	-11305
▁topics	-11306
▁tribal	-11307
▁tricky	-11308
▁unanim	-11309
▁verbal	-11310
▁verify	-11311
▁worksh	-11312
▁yemeni	-11313
ecessary	-11314
language	-11315
military	-11316
multiple	-11317
together	-11318
▁actress	-11319
▁amounts	-11320
▁antonio	-11321
▁applies	-11322
▁archive	-11323
▁assists	-11324
▁backing	-11325
▁battles	-11326
▁beliefs	-11327
▁besides	-11328
▁bombing	-11329
▁bowling	-11330
▁briefed	-11331
▁careful	-11332
▁casting	-11333
▁clarify	-11334
▁commons	-11335
▁congest	-11336
▁convinc	-11337
▁crystal	-11338
▁cssnext	-11339
▁defiant	-11340
▁desired	-11341
▁evolved	-11342
▁exhibit	-11343
▁failing	-11344
▁forcing	-11345
▁germans	-11346
▁greatly	-11347
▁hackers	-11348
▁hackett	-11349
▁handful	-11350
▁harvard	-11351
▁hawkman	-11352
▁hostile	-11353
▁iceland	-11354
▁invaded	-11355
▁irrelev	-11356
▁kennedy	-11357
▁knowing	-11358
▁legally	-11359
▁lessons	-11360
▁lifting	-11361
▁lindner	-11362
▁loading	-11363
▁mediter	-11364
▁methods	-11365
▁midterm	-11366
▁millenn	-11367
▁monster	-11368
▁mystery	-11369
▁nanette	-11370
▁neglect	-11371
▁nominee	-11372
▁origins	-11373
▁outcome	-11374
▁partial	-11375
▁patrick	-11376
▁percept	-11377
▁pleased	-11378
▁polling	-11379
▁posting	-11380
▁praised	-11381
▁premier	-11382
▁preview	-11383
▁procure	-11384
▁profits	-11385
▁reconst	-11386
▁reforms	-11387
▁reveals	-11388
▁ronaldo	-11389
▁rulings	-11390
▁scaling	-11391
▁session	-11392
▁sincere	-11393
▁stagger	-11394
▁staging	-11395
▁startup	-11396
▁strikes	-11397
▁sylwest	-11398
▁testnet	-11399
▁trailer	-11400
▁tribune	-11401
▁vibrant	-11402
▁vincent	-11403
▁welfare	-11404
▁wermuth	-11405
▁wharton	-11406
▁whoever	-11407
▁worried	-11408
/2017/11/	-11409
hezbollah	-11410
▁accusing	-11411
▁airliner	-11412
▁annually	-11413
▁atlantic	-11414
▁backlash	-11415
▁barriers	-11416
▁battered	-11417
▁broadway	-11418
▁brooklyn	-11419
▁browsers	-11420
▁certific	-11421
▁columbia	-11422
▁convince	-11423
▁daylight	-11424
▁describe	-11425
▁designer	-11426
▁deviants	-11427
▁dialogue	-11428
▁distract	-11429
▁dominant	-11430
▁dynamics	-11431
▁emotions	-11432
▁engulfed	-11433
▁feminist	-11434
▁firmware	-11435
▁founding	-11436
▁franklin	-11437
▁frequent	-11438
▁holidays	-11439
▁informal	-11440
▁inherent	-11441
▁inspired	-11442
▁leverage	-11443
▁lorestan	-11444
▁mentions	-11445
▁migrants	-11446
▁mistakes	-11447
▁mushroom	-11448
▁operated	-11449
▁particle	-11450
▁partisan	-11451
▁performs	-11452
▁phonemes	-11453
▁playoffs	-11454
▁rankings	-11455
▁reaching	-11456
▁recruits	-11457
▁referred	-11458
▁registry	-11459
▁restored	-11460
▁reviewed	-11461
▁rewarded	-11462
▁scarcity	-11463
▁searches	-11464
▁sequence	-11465
▁shouting	-11466
▁slightly	-11467
▁slowdown	-11468
▁spectrum	-11469
▁stations	-11470
▁steering	-11471
▁stepdown	-11472
▁stereoty	-11473
▁striking	-11474
▁studying	-11475
▁sturgeon	-11476
▁suddenly	-11477
▁thailand	-11478
▁tomorrow	-11479
▁trumpgop	-11480
▁tweeting	-11481
▁underway	-11482
▁unveiled	-11483
▁updating	-11484
▁velocity	-11485
▁versions	-11486
▁warnings	-11487
eurekalert	-11488
▁aftermath	-11489
▁afterward	-11490
▁ambitious	-11491
▁analytics	-11492
▁anonymity	-11493
▁augmented	-11494
▁automated	-11495
▁ballistic	-11496
▁boulevard	-11497
▁brilliant	-11498
▁condemned	-11499
▁convicted	-11500
▁convinced	-11501
▁declaring	-11502
▁diagnosed	-11503
▁disappear	-11504
▁discredit	-11505
▁displayed	-11506
▁donations	-11507
▁editorial	-11508
▁exception	-11509
▁excessive	-11510
▁explosion	-11511
▁extension	-11512
▁factories	-11513
▁followers	-11514
▁guardians	-11515
▁homicides	-11516
▁immigrant	-11517
▁inclusive	-11518
▁infection	-11519
▁integrate	-11520
▁jefferson	-11521
▁judiciary	-11522
▁liquidity	-11523
▁marijuana	-11524
▁materials	-11525
▁mechanics	-11526
▁minnesota	-11527
▁notorious	-11528
▁objective	-11529
▁pakistani	-11530
▁preparing	-11531
▁principle	-11532
▁privately	-11533
▁recalling	-11534
▁recording	-11535
▁residence	-11536
▁resisting	-11537
▁revellers	-11538
▁reviewers	-11539
▁sacrifice	-11540
▁sanctuary	-11541
▁satellite	-11542
▁scientist	-11543
▁shootings	-11544
▁stuttgart	-11545
▁successor	-11546
▁survivors	-11547
▁synagogue	-11548
▁technique	-11549
▁testifies	-11550
▁tottenham	-11551
▁traumatic	-11552
▁triggered	-11553
▁warhammer	-11554
▁acceptance	-11555
▁advocating	-11556
▁bundesliga	-11557
▁capability	-11558
▁charleston	-11559
▁compliance	-11560
▁distribute	-11561
▁efficiency	-11562
▁encourages	-11563
▁frameworks	-11564
▁gymnastics	-11565
▁integrated	-11566
▁interstate	-11567
▁literature	-11568
▁manchester	-11569
▁objectives	-11570
▁organizers	-11571
▁preventing	-11572
▁prosperity	-11573
▁recognized	-11574
▁sanctioned	-11575
▁skepticism	-11576
▁sutherland	-11577
▁tensorflow	-11578
▁undermined	-11579
▁université	-11580
▁visibility	-11581
intelligence	-11582
iranprotests	-11583
▁ahmadinejad	-11584
▁billionaire	-11585
▁centralized	-11586
▁connecticut	-11587
▁consumption	-11588
▁empowerment	-11589
▁festivities	-11590
▁functioning	-11591
▁influential	-11592
▁interagency	-11593
▁legislature	-11594
▁limitations	-11595
▁mississippi	-11596
▁newsletters	-11597
▁perspective	-11598
▁predictions	-11599
▁prosecution	-11600
▁represented	-11601
▁shareholder	-11602
▁technocrats	-11603
▁transported	-11604
▁appreciation	-11605
▁environments	-11606
▁humanitarian	-11607
▁philadelphia	-11608
▁championships	-11609
▁consideration	-11610
▁mediterranean	-11611
▁organisations	-11612
▁traditionally	-11613
▁transitioning	-11614
!'	-11615
);	-11616
-8	-11617
.1	-11618
.8	-11619
7/	-11620
]"	-11621
bd	-11622
bn	-11623
eu	-11624
hz	-11625
ji	-11626
jn	-11627
mc	-11628
np	-11629
sd	-11630
uh	-11631
vs	-11632
wk	-11633
yy	-11634
óg	-11635
śn	-11636
ει	-11637
ρα	-11638
τα	-11639
اب	-11640
دا	-11641
شك	-11642
مي	-11643
هر	-11644
ود	-11645
وم	-11646
▁ó	-11647
-24	-11648
-45	-11649
-76	-11650
.).	-11651
00,	-11652
106	-11653
117	-11654
18-	-11655
180	-11656
184	-11657
260	-11658
270	-11659
30,	-11660
329	-11661
34-	-11662
375	-11663
456	-11664
525	-11665
600	-11666
706	-11667
76,	-11668
793	-11669
840	-11670
866	-11671
904	-11672
919	-11673
955	-11674
959	-11675
990	-11676
afa	-11677
ako	-11678
aky	-11679
arn	-11680
asp	-11681
ava	-11682
bol	-11683
cna	-11684
cru	-11685
dav	-11686
edy	-11687
ekt	-11688
err	-11689
eta	-11690
fig	-11691
fil	-11692
fla	-11693
flo	-11694
fta	-11695
gel	-11696
hey	-11697
hez	-11698
hon	-11699
hra	-11700
imo	-11701
kan	-11702
lah	-11703
len	-11704
mal	-11705
map	-11706
max	-11707
nia	-11708
niz	-11709
nob	-11710
nor	-11711
npr	-11712
omp	-11713
pit	-11714
pix	-11715
pur	-11716
ras	-11717
rex	-11718
rog	-11719
rop	-11720
rss	-11721
saf	-11722
sco	-11723
shr	-11724
tex	-11725
tha	-11726
thy	-11727
tor	-11728
tré	-11729
upp	-11730
urd	-11731
vol	-11732
wah	-11733
xiv	-11734
zig	-11735
äld	-11736
ían	-11737
وني	-11738
▁1-	-11739
▁5-	-11740
▁68	-11741
▁9:	-11742
▁ct	-11743
▁dt	-11744
▁dú	-11745
▁fc	-11746
▁hi	-11747
▁mn	-11748
▁nc	-11749
▁ol	-11750
▁pd	-11751
▁rb	-11752
▁sr	-11753
▁ét	-11754
▁öğ	-11755
▁ελ	-11756
▁مع	-11757
2018	-11758
acha	-11759
ahaw	-11760
ahoe	-11761
alvo	-11762
anny	-11763
anto	-11764
arab	-11765
arat	-11766
arta	-11767
aser	-11768
asia	-11769
aten	-11770
avin	-11771
awor	-11772
ayeb	-11773
azdi	-11774
bean	-11775
bron	-11776
cali	-11777
cand	-11778
clam	-11779
doch	-11780
erer	-11781
etts	-11782
fron	-11783
gard	-11784
glob	-11785
guns	-11786
hara	-11787
hate	-11788
heim	-11789
hero	-11790
hrat	-11791
iary	-11792
iche	-11793
icho	-11794
icks	-11795
icsc	-11796
icts	-11797
idia	-11798
iffs	-11799
igor	-11800
ilst	-11801
imag	-11802
imil	-11803
imir	-11804
info	-11805
isch	-11806
iser	-11807
izon	-11808
lern	-11809
lics	-11810
link	-11811
lymp	-11812
mare	-11813
mint	-11814
mitt	-11815
mund	-11816
norm	-11817
note	-11818
olan	-11819
olve	-11820
once	-11821
opic	-11822
opol	-11823
orks	-11824
past	-11825
phob	-11826
poll	-11827
priv	-11828
prop	-11829
rain	-11830
ream	-11831
renz	-11832
reza	-11833
rior	-11834
rooz	-11835
rown	-11836
show	-11837
shut	-11838
sole	-11839
stri	-11840
stru	-11841
test	-11842
ulip	-11843
urov	-11844
usdt	-11845
vens	-11846
wall	-11847
waśn	-11848
xual	-11849
york	-11850
íomh	-11851
▁$23	-11852
▁$34	-11853
▁(3.	-11854
▁101	-11855
▁112	-11856
▁120	-11857
▁122	-11858
▁193	-11859
▁196	-11860
▁24-	-11861
▁30.	-11862
▁5.0	-11863
▁___	-11864
▁abb	-11865
▁abr	-11866
▁apk	-11867
▁ath	-11868
▁bip	-11869
▁biz	-11870
▁bog	-11871
▁być	-11872
▁chi	-11873
▁cit	-11874
▁cjf	-11875
▁cla	-11876
▁ctr	-11877
▁dak	-11878
▁dal	-11879
▁dez	-11880
▁eti	-11881
▁eug	-11882
▁fec	-11883
▁foo	-11884
▁gib	-11885
▁gle	-11886
▁gpu	-11887
▁ich	-11888
▁ina	-11889
▁kho	-11890
▁lau	-11891
▁mie	-11892
▁moa	-11893
▁mol	-11894
▁méd	-11895
▁nad	-11896
▁oxy	-11897
▁pag	-11898
▁ras	-11899
▁rex	-11900
▁roz	-11901
▁rpg	-11902
▁rud	-11903
▁sed	-11904
▁sic	-11905
▁sir	-11906
▁sne	-11907
▁spu	-11908
▁spy	-11909
▁sta	-11910
▁sue	-11911
▁uno	-11912
▁vez	-11913
▁vio	-11914
▁vip	-11915
▁wur	-11916
▁xrp	-11917
▁zsl	-11918
████	-11919
."")"	-11920
agwat	-11921
andal	-11922
annia	-11923
appro	-11924
ardon	-11925
arest	-11926
aretz	-11927
asses	-11928
aware	-11929
ayeby	-11930
brand	-11931
chers	-11932
coins	-11933
dding	-11934
depth	-11935
derer	-11936
eared	-11937
ecoin	-11938
ector	-11939
ellen	-11940
emiss	-11941
faces	-11942
games	-11943
grade	-11944
hetic	-11945
ibles	-11946
icion	-11947
ieren	-11948
ifact	-11949
ipher	-11950
islam	-11951
istle	-11952
japan	-11953
keley	-11954
lords	-11955
metry	-11956
ochta	-11957
ograf	-11958
omery	-11959
onial	-11960
ounce	-11961
oving	-11962
peace	-11963
porte	-11964
pract	-11965
price	-11966
priet	-11967
reach	-11968
recks	-11969
relig	-11970
techn	-11971
track	-11972
treas	-11973
uffed	-11974
ungen	-11975
usive	-11976
uting	-11977
utiny	-11978
views	-11979
vised	-11980
wered	-11981
wield	-11982
words	-11983
write	-11984
yahoo	-11985
yssey	-11986
zeige	-11987
zione	-11988
ência	-11989
úinte	-11990
▁$0.0	-11991
▁(117	-11992
▁10-0	-11993
▁1900	-11994
▁1985	-11995
▁1986	-11996
▁9/11	-11997
▁abst	-11998
▁aclu	-11999
▁aims	-12000
▁anne	-12001
▁asks	-12002
▁bede	-12003
▁beta	-12004
▁bras	-12005
▁cali	-12006
▁cann	-12007
▁colo	-12008
▁cone	-12009
▁cord	-12010
▁dave	-12011
▁dedu	-12012
▁dick	-12013
▁dome	-12014
▁eleg	-12015
▁ense	-12016
▁erad	-12017
▁erst	-12018
▁este	-12019
▁farm	-12020
▁fars	-12021
▁fide	-12022
▁flew	-12023
▁folk	-12024
▁grim	-12025
▁guit	-12026
▁hass	-12027
▁hike	-12028
▁hole	-12029
▁iowa	-12030
▁kali	-12031
▁kens	-12032
▁kern	-12033
▁khor	-12034
▁kiev	-12035
▁knee	-12036
▁koch	-12037
▁leon	-12038
▁leur	-12039
▁llev	-12040
▁lley	-12041
▁luis	-12042
▁maas	-12043
▁mick	-12044
▁mowa	-12045
▁nada	-12046
▁nats	-12047
▁nell	-12048
▁noch	-12049
▁odds	-12050
▁okay	-12051
▁oreg	-12052
▁oreo	-12053
▁pink	-12054
▁plum	-12055
▁pray	-12056
▁psol	-12057
▁pund	-12058
▁rape	-12059
▁rear	-12060
▁robb	-12061
▁rodr	-12062
▁roof	-12063
▁ruth	-12064
▁sach	-12065
▁scar	-12066
▁seal	-12067
▁slot	-12068
▁spam	-12069
▁stap	-12070
▁sued	-12071
▁surg	-12072
▁swim	-12073
▁tape	-12074
▁tecn	-12075
▁thor	-12076
▁trab	-12077
▁tras	-12078
▁ucla	-12079
▁unch	-12080
▁unse	-12081
▁unst	-12082
▁vert	-12083
▁viel	-12084
▁viet	-12085
▁vlad	-12086
▁wily	-12087
▁zack	-12088
advant	-12089
afford	-12090
ahawks	-12091
alling	-12092
angelo	-12093
antley	-12094
anyahu	-12095
aworld	-12096
bronze	-12097
burial	-12098
commer	-12099
config	-12100
danger	-12101
denver	-12102
design	-12103
double	-12104
estone	-12105
follow	-12106
iating	-12107
ifacts	-12108
imient	-12109
itical	-12110
itudes	-12111
lahoma	-12112
living	-12113
marine	-12114
mirror	-12115
onesia	-12116
online	-12117
passed	-12118
posure	-12119
regard	-12120
renced	-12121
rition	-12122
russia	-12123
second	-12124
seller	-12125
social	-12126
spread	-12127
stones	-12128
tering	-12129
things	-12130
turkey	-12131
usters	-12132
videos	-12133
wahati	-12134
wealth	-12135
widdie	-12136
winter	-12137
▁2011;	-12138
▁2017:	-12139
▁2018?	-12140
▁2334-	-12141
▁abdel	-12142
▁abdol	-12143
▁acted	-12144
▁adequ	-12145
▁adult	-12146
▁alert	-12147
▁ammun	-12148
▁arbit	-12149
▁array	-12150
▁assam	-12151
▁autor	-12152
▁berry	-12153
▁billy	-12154
▁bites	-12155
▁bread	-12156
▁britt	-12157
▁bully	-12158
▁burns	-12159
▁chaos	-12160
▁chase	-12161
▁chili	-12162
▁chttp	-12163
▁civic	-12164
▁clang	-12165
▁compr	-12166
▁consc	-12167
▁coron	-12168
▁crews	-12169
▁crown	-12170
▁dance	-12171
▁daugh	-12172
▁deity	-12173
▁ditch	-12174
▁divid	-12175
▁drove	-12176
▁durov	-12177
▁einen	-12178
▁emigr	-12179
▁empir	-12180
▁energ	-12181
▁enthr	-12182
▁entre	-12183
▁epoch	-12184
▁fails	-12185
▁fazli	-12186
▁frost	-12187
▁gavin	-12188
▁genet	-12189
▁genie	-12190
▁grade	-12191
▁greek	-12192
▁hague	-12193
▁harsh	-12194
▁hasta	-12195
▁highs	-12196
▁hijab	-12197
▁hypot	-12198
▁innoc	-12199
▁jesse	-12200
▁joaqu	-12201
▁kebab	-12202
▁keith	-12203
▁leeds	-12204
▁lewis	-12205
▁lists	-12206
▁logan	-12207
▁luxor	-12208
▁magic	-12209
▁males	-12210
▁meets	-12211
▁meses	-12212
▁nayeb	-12213
▁obser	-12214
▁olymp	-12215
▁opera	-12216
▁orche	-12217
▁osama	-12218
▁otros	-12219
▁ought	-12220
▁parce	-12221
▁patch	-12222
▁peaks	-12223
▁pearl	-12224
▁peers	-12225
▁phill	-12226
▁pione	-12227
▁pleas	-12228
▁pregn	-12229
▁realm	-12230
▁repet	-12231
▁reset	-12232
▁reson	-12233
▁restr	-12234
▁retro	-12235
▁reven	-12236
▁revis	-12237
▁risky	-12238
▁rolls	-12239
▁rosen	-12240
▁sandw	-12241
▁scram	-12242
▁sheep	-12243
▁ships	-12244
▁shops	-12245
▁sidel	-12246
▁silly	-12247
▁skill	-12248
▁slate	-12249
▁slave	-12250
▁slide	-12251
▁smear	-12252
▁smile	-12253
▁spear	-12254
▁stagn	-12255
▁storj	-12256
▁suits	-12257
▁swast	-12258
▁swept	-12259
▁swift	-12260
▁tanks	-12261
▁teeth	-12262
▁tempt	-12263
▁texts	-12264
▁toile	-12265
▁toxic	-12266
▁tribe	-12267
▁tuism	-12268
▁tuned	-12269
▁undoc	-12270
▁vocal	-12271
▁voxel	-12272
▁wound	-12273
▁yazdi	-12274
▁zhang	-12275
▁الاما	-12276
aborate	-12277
detroit	-12278
ductive	-12279
fecture	-12280
freedom	-12281
growing	-12282
hettino	-12283
holding	-12284
illions	-12285
iranian	-12286
itement	-12287
justice	-12288
maryamn	-12289
medical	-12290
oration	-12291
pacific	-12292
pendent	-12293
rection	-12294
rington	-12295
russian	-12296
springs	-12297
timesof	-12298
uggling	-12299
umented	-12300
▁abroad	-12301
▁advers	-12302
▁anchor	-12303
▁antiqu	-12304
▁barbie	-12305
▁behavi	-12306
▁borrow	-12307
▁bosses	-12308
▁breath	-12309
▁browns	-12310
▁buoyed	-12311
▁carved	-12312
▁charts	-12313
▁chiefs	-12314
▁colour	-12315
▁consol	-12316
▁delays	-12317
▁democr	-12318
▁depict	-12319
▁destro	-12320
▁diabet	-12321
▁dispro	-12322
▁dollar	-12323
▁dubbed	-12324
▁eating	-12325
▁eltern	-12326
▁entity	-12327
▁ermitt	-12328
▁eugene	-12329
▁europa	-12330
▁exempl	-12331
▁fisher	-12332
▁foster	-12333
▁fought	-12334
▁franco	-12335
▁fuller	-12336
▁grande	-12337
▁graphs	-12338
▁hazard	-12339
▁hearts	-12340
▁hiding	-12341
▁hybrid	-12342
▁incumb	-12343
▁inject	-12344
▁injust	-12345
▁intrig	-12346
▁ishrat	-12347
▁jailed	-12348
▁johnny	-12349
▁killer	-12350
▁komodo	-12351
▁ladies	-12352
▁leaked	-12353
▁legend	-12354
▁lesson	-12355
▁lineup	-12356
▁loving	-12357
▁maryam	-12358
▁masons	-12359
▁median	-12360
▁minder	-12361
▁minors	-12362
▁montré	-12363
▁morgan	-12364
▁motors	-12365
▁nicely	-12366
▁nvidia	-12367
▁oswald	-12368
▁output	-12369
▁pedest	-12370
▁permit	-12371
▁pledge	-12372
▁pocket	-12373
▁poised	-12374
▁poison	-12375
▁poland	-12376
▁precar	-12377
▁puerto	-12378
▁rachel	-12379
▁reader	-12380
▁relied	-12381
▁relies	-12382
▁repeat	-12383
▁repris	-12384
▁resent	-12385
▁revolt	-12386
▁ripped	-12387
▁ripple	-12388
▁rivals	-12389
▁rohrab	-12390
▁sabres	-12391
▁safely	-12392
▁salary	-12393
▁sculpt	-12394
▁shapes	-12395
▁silent	-12396
▁simone	-12397
▁snatch	-12398
▁streak	-12399
▁stroud	-12400
▁sweden	-12401
▁swings	-12402
▁tested	-12403
▁traded	-12404
▁trench	-12405
▁tribun	-12406
▁triple	-12407
▁upside	-12408
▁urging	-12409
▁versus	-12410
▁walker	-12411
▁waters	-12412
▁watson	-12413
▁whilst	-12414
▁worlds	-12415
ayebyazd	-12416
campaign	-12417
colorado	-12418
confront	-12419
december	-12420
downtown	-12421
emissary	-12422
entrevue	-12423
etheless	-12424
gressive	-12425
itheoirí	-12426
ographer	-12427
original	-12428
possible	-12429
reported	-12430
roozmand	-12431
waśniews	-12432
▁abating	-12433
▁alphago	-12434
▁amnesty	-12435
▁analyze	-12436
▁anytime	-12437
▁arguing	-12438
▁artwork	-12439
▁awarded	-12440
▁barford	-12441
▁bhagwat	-12442
▁blasted	-12443
▁blowing	-12444
▁breathe	-12445
▁briefly	-12446
▁broadly	-12447
▁cameron	-12448
▁candles	-12449
▁chaotic	-12450
▁cheaper	-12451
▁citylab	-12452
▁closest	-12453
▁colours	-12454
▁columns	-12455
▁combust	-12456
▁console	-12457
▁convert	-12458
▁damaged	-12459
▁declare	-12460
▁deepest	-12461
▁disalvo	-12462
▁downing	-12463
▁durante	-12464
▁empress	-12465
▁encount	-12466
▁enfants	-12467
▁equipos	-12468
▁eriksen	-12469
▁escaped	-12470
▁extinct	-12471
▁falcons	-12472
▁fastest	-12473
▁forming	-12474
▁fulfill	-12475
▁gardens	-12476
▁gilbert	-12477
▁glamour	-12478
▁hacking	-12479
▁handled	-12480
▁harmful	-12481
▁hatcher	-12482
▁heights	-12483
▁hewlett	-12484
▁immense	-12485
▁insults	-12486
▁jinping	-12487
▁kitchen	-12488
▁lleyton	-12489
▁lobbied	-12490
▁lowered	-12491
▁manages	-12492
▁minimal	-12493
▁mohamed	-12494
▁mothers	-12495
▁murdoch	-12496
▁natsume	-12497
▁navalny	-12498
▁notably	-12499
▁observe	-12500
▁persons	-12501
▁philipp	-12502
▁phrases	-12503
▁pirates	-12504
▁policía	-12505
▁posters	-12506
▁priorit	-12507
▁proclam	-12508
▁rahmani	-12509
▁ratings	-12510
▁recalls	-12511
▁recover	-12512
▁resolve	-12513
▁respite	-12514
▁scandal	-12515
▁sharply	-12516
▁shifted	-12517
▁signals	-12518
▁skilled	-12519
▁smoking	-12520
▁soldier	-12521
▁stating	-12522
▁studied	-12523
▁suffers	-12524
▁sunrise	-12525
▁trained	-12526
▁turismo	-12527
▁vermont	-12528
▁vietnam	-12529
▁wanting	-12530
▁whistle	-12531
▁writers	-12532
americans	-12533
ancements	-12534
companied	-12535
companies	-12536
criptions	-12537
generated	-12538
monastery	-12539
protected	-12540
qualified	-12541
▁accurate	-12542
▁aircraft	-12543
▁alternet	-12544
▁analyzed	-12545
▁answered	-12546
▁backbone	-12547
▁brantley	-12548
▁briefing	-12549
▁charging	-12550
▁cheating	-12551
▁commonly	-12552
▁constitu	-12553
▁contrary	-12554
▁demanded	-12555
▁dictator	-12556
▁disputed	-12557
▁divisive	-12558
▁earnings	-12559
▁elicited	-12560
▁embraced	-12561
▁epidemic	-12562
▁erickson	-12563
▁everyday	-12564
▁exceeded	-12565
▁failures	-12566
▁feminism	-12567
▁founders	-12568
▁gateways	-12569
▁genitals	-12570
▁grateful	-12571
▁guwahati	-12572
▁hamilton	-12573
▁harassed	-12574
▁hardline	-12575
▁harrison	-12576
▁horrible	-12577
▁incompet	-12578
▁intermed	-12579
▁landmark	-12580
▁lawsuits	-12581
▁lectures	-12582
▁licensed	-12583
▁limbaugh	-12584
▁litecoin	-12585
▁manually	-12586
▁massacre	-12587
▁meddling	-12588
▁medicare	-12589
▁midfield	-12590
▁mistaken	-12591
▁mortgage	-12592
▁navigate	-12593
▁nonsense	-12594
▁offender	-12595
▁operates	-12596
▁opponent	-12597
▁optional	-12598
▁ordering	-12599
▁overdose	-12600
▁painting	-12601
▁paranoia	-12602
▁patriots	-12603
▁pipeline	-12604
▁predomin	-12605
▁premiere	-12606
▁professe	-12607
▁propriet	-12608
▁pushback	-12609
▁regulate	-12610
▁relation	-12611
▁resigned	-12612
▁reversed	-12613
▁scrutiny	-12614
▁segments	-12615
▁shelters	-12616
▁shooters	-12617
▁spontane	-12618
▁startups	-12619
▁tourists	-12620
▁verified	-12621
▁vladimir	-12622
▁warriors	-12623
▁woodward	-12624
callernews	-12625
conference	-12626
generation	-12627
ographical	-12628
university	-12629
▁amplitude	-12630
▁appearing	-12631
▁armstrong	-12632
▁attacking	-12633
▁attorneys	-12634
▁barricade	-12635
▁bilateral	-12636
▁bloomberg	-12637
▁breakdown	-12638
▁britannia	-12639
▁canadians	-12640
▁chronicle	-12641
▁collector	-12642
▁colombian	-12643
▁countless	-12644
▁crackdown	-12645
▁criticize	-12646
▁daughters	-12647
▁departure	-12648
▁designers	-12649
▁designing	-12650
▁diagnosis	-12651
▁directing	-12652
▁disadvant	-12653
▁disclosed	-12654
▁displaced	-12655
▁dissatisf	-12656
▁dominance	-12657
▁dominated	-12658
▁economics	-12659
▁elaborate	-12660
▁extending	-12661
▁favorable	-12662
▁favorites	-12663
▁favourite	-12664
▁happiness	-12665
▁intensity	-12666
▁irregular	-12667
▁jurisdict	-12668
▁liberties	-12669
▁lifestyle	-12670
▁littleton	-12671
▁memorable	-12672
▁mortgages	-12673
▁netanyahu	-12674
▁nightmare	-12675
▁nominated	-12676
▁perceived	-12677
▁policemen	-12678
▁realistic	-12679
▁receivers	-12680
▁reopening	-12681
▁secondary	-12682
▁seemingly	-12683
▁sidelines	-12684
▁socialism	-12685
▁southeast	-12686
▁superstar	-12687
▁tolerance	-12688
▁travelers	-12689
▁travelled	-12690
▁unusually	-12691
▁variables	-12692
▁victories	-12693
▁voluntary	-12694
authorities	-12695
independent	-12696
stitutional	-12697
threatening	-12698
▁accomplish	-12699
▁aggressive	-12700
▁ammunition	-12701
▁amphibians	-12702
▁artificial	-12703
▁attempting	-12704
▁bureaucrat	-12705
▁chilliwack	-12706
▁coalfields	-12707
▁comparable	-12708
▁concerning	-12709
▁condemning	-12710
▁confronted	-12711
▁congestion	-12712
▁conviction	-12713
▁councillor	-12714
▁critically	-12715
▁deductions	-12716
▁disability	-12717
▁discounted	-12718
▁documented	-12719
▁electronic	-12720
▁elementary	-12721
▁evaluation	-12722
▁explorator	-12723
▁extinguish	-12724
▁eyewitness	-12725
▁harrington	-12726
▁indictment	-12727
▁instrument	-12728
▁kensington	-12729
▁likelihood	-12730
▁ministério	-12731
▁motivation	-12732
▁necropolis	-12733
▁nomination	-12734
▁oppression	-12735
▁peacefully	-12736
▁peppermint	-12737
▁persistent	-12738
▁pochettino	-12739
▁prefecture	-12740
▁presumably	-12741
▁recognizes	-12742
▁reductions	-12743
▁reelection	-12744
▁repression	-12745
▁snowballed	-12746
▁staggering	-12747
▁starfinder	-12748
▁sufficient	-12749
▁thankfully	-12750
/2017/12/28/	-12751
organization	-12752
▁agriculture	-12753
▁businessman	-12754
▁contractors	-12755
▁coordinator	-12756
▁differently	-12757
▁disappeared	-12758
▁documentary	-12759
▁electronics	-12760
▁elimination	-12761
▁encountered	-12762
▁encouraging	-12763
▁highlighted	-12764
▁maintaining	-12765
▁nonetheless	-12766
▁photography	-12767
▁populations	-12768
▁resolutions	-12769
▁retaliatory	-12770
▁rohrabacher	-12771
▁sovereignty	-12772
▁suppression	-12773
▁unnecessary	-12774
confrontation	-12775
international	-12776
▁accomplished	-12777
▁aggressively	-12778
▁appointments	-12779
▁capabilities	-12780
▁contributing	-12781
▁counterparts	-12782
▁difficulties	-12783
▁disabilities	-12784
▁indefinitely	-12785
▁individually	-12786
▁marginalized	-12787
▁resurrection	-12788
▁undocumented	-12789
archaeological	-12790
▁architectural	-12791
▁comprehensive	-12792
▁extraordinary	-12793
▁parliamentary	-12794
▁tuismitheoirí	-12795
maryamnayebyazd	-12796
▁archaeologists	-12797
▁representation	-12798
▁characteristics	-12799
▁criminalization	-12800
':	-12801
.:	-12802
2:	-12803
4-	-12804
8+	-12805
bf	-12806
rg	-12807
tı	-12808
uj	-12809
vr	-12810
wd	-12811
zh	-12812
äs	-12813
ów	-12814
ος	-12815
اس	-12816
بر	-12817
فة	-12818
نس	-12819
▁á	-12820
▁ο	-12821
▁ن	-12822
-""	-12823
.11	-12824
.56	-12825
/35	-12826
104	-12827
190	-12828
207	-12829
224	-12830
23.	-12831
250	-12832
256	-12833
28-	-12834
330	-12835
475	-12836
481	-12837
505	-12838
513	-12839
623	-12840
745	-12841
752	-12842
854	-12843
944	-12844
956	-12845
960	-12846
abb	-12847
agr	-12848
akh	-12849
apa	-12850
avi	-12851
awn	-12852
bak	-12853
bay	-12854
bbi	-12855
bud	-12856
bye	-12857
cbc	-12858
cop	-12859
cpp	-12860
deb	-12861
dev	-12862
dib	-12863
did	-12864
dig	-12865
dna	-12866
ecd	-12867
enz	-12868
esh	-12869
esp	-12870
eze	-12871
fix	-12872
gwc	-12873
hni	-12874
huk	-12875
ibl	-12876
iga	-12877
igm	-12878
iii	-12879
imi	-12880
inf	-12881
ixo	-12882
iya	-12883
izw	-12884
jas	-12885
kad	-12886
kee	-12887
lav	-12888
low	-12889
mac	-12890
mah	-12891
mel	-12892
mik	-12893
nis	-12894
obh	-12895
occ	-12896
oil	-12897
olo	-12898
oly	-12899
orf	-12900
pak	-12901
plo	-12902
rne	-12903
rov	-12904
rus	-12905
sab	-12906
say	-12907
ses	-12908
sol	-12909
sta	-12910
try	-12911
uum	-12912
whe	-12913
yeh	-12914
yro	-12915
yst	-12916
zer	-12917
zzo	-12918
écn	-12919
önn	-12920
últ	-12921
دور	-12922
شكل	-12923
كون	-12924
يور	-12925
▁##	-12926
▁->	-12927
▁1)	-12928
▁3:	-12929
▁59	-12930
▁62	-12931
▁79	-12932
▁88	-12933
▁99	-12934
▁ci	-12935
▁fó	-12936
▁gb	-12937
▁mj	-12938
▁má	-12939
▁nj	-12940
▁rs	-12941
▁sf	-12942
▁sá	-12943
▁tn	-12944
▁wi	-12945
▁κα	-12946
▁με	-12947
▁στ	-12948
▁با	-12949
++11	-12950
-26.	-12951
/04/	-12952
/1.9	-12953
/149	-12954
/15/	-12955
/164	-12956
adan	-12957
adox	-12958
agle	-12959
agne	-12960
akut	-12961
aney	-12962
anqu	-12963
arlm	-12964
asas	-12965
atha	-12966
aths	-12967
band	-12968
bank	-12969
bash	-12970
belt	-12971
bill	-12972
bite	-12973
bull	-12974
cash	-12975
chec	-12976
clar	-12977
coff	-12978
cook	-12979
cott	-12980
crow	-12981
ctic	-12982
dzie	-12983
edas	-12984
edes	-12985
eers	-12986
ektu	-12987
enem	-12988
eria	-12989
erpt	-12990
essa	-12991
esus	-12992
fake	-12993
fare	-12994
feld	-12995
food	-12996
gill	-12997
glom	-12998
gone	-12999
hama	-13000
haul	-13001
hein	-13002
hire	-13003
horn	-13004
http	-13005
icon	-13006
idos	-13007
igma	-13008
iker	-13009
impi	-13010
inho	-13011
inqu	-13012
iong	-13013
ioni	-13014
ipad	-13015
iras	-13016
isen	-13017
iste	-13018
ixby	-13019
izza	-13020
jeto	-13021
kana	-13022
kart	-13023
laim	-13024
lake	-13025
leib	-13026
lict	-13027
mess	-13028
mich	-13029
mins	-13030
miss	-13031
muer	-13032
ncnp	-13033
neck	-13034
nung	-13035
ogun	-13036
omes	-13037
omot	-13038
opin	-13039
otes	-13040
otta	-13041
ouds	-13042
ouga	-13043
pens	-13044
prin	-13045
reen	-13046
risk	-13047
rows	-13048
rypt	-13049
sand	-13050
seld	-13051
sens	-13052
shek	-13053
surv	-13054
swns	-13055
tuls	-13056
type	-13057
uced	-13058
ulsa	-13059
umbr	-13060
umed	-13061
undo	-13062
upid	-13063
vict	-13064
vino	-13065
walk	-13066
weap	-13067
ymar	-13068
yrus	-13069
zeit	-13070
älde	-13071
íodo	-13072
▁"20	-13073
▁###	-13074
▁$12	-13075
▁$16	-13076
▁$26	-13077
▁$27	-13078
▁$40	-13079
▁(76	-13080
▁1.6	-13081
▁11-	-13082
▁14-	-13083
▁16.	-13084
▁160	-13085
▁188	-13086
▁19.	-13087
▁195	-13088
▁240	-13089
▁3.5	-13090
▁60-	-13091
▁600	-13092
▁aqu	-13093
▁atm	-13094
▁bsc	-13095
▁cel	-13096
▁cir	-13097
▁dol	-13098
▁doo	-13099
▁dpa	-13100
▁ecu	-13101
▁egg	-13102
▁eid	-13103
▁eli	-13104
▁erg	-13105
▁fda	-13106
▁gat	-13107
▁gmt	-13108
▁gör	-13109
▁ifm	-13110
▁iot	-13111
▁kat	-13112
▁kns	-13113
▁lid	-13114
▁lod	-13115
▁luk	-13116
▁mha	-13117
▁mia	-13118
▁mok	-13119
▁nhs	-13120
▁nun	-13121
▁nyt	-13122
▁odo	-13123
▁owl	-13124
▁piv	-13125
▁pon	-13126
▁pse	-13127
▁pst	-13128
▁péd	-13129
▁qin	-13130
▁qué	-13131
▁rss	-13132
▁sci	-13133
▁seo	-13134
▁soo	-13135
▁sou	-13136
▁tri	-13137
▁tug	-13138
▁uns	-13139
▁vie	-13140
▁vik	-13141
▁wir	-13142
▁wre	-13143
▁yoy	-13144
▁yui	-13145
▁zap	-13146
▁الف	-13147
-2334	-13148
achta	-13149
achus	-13150
addum	-13151
adesh	-13152
adily	-13153
agent	-13154
aires	-13155
alive	-13156
alone	-13157
ambém	-13158
anein	-13159
arity	-13160
astes	-13161
atist	-13162
azole	-13163
brien	-13164
brook	-13165
chair	-13166
charl	-13167
chell	-13168
david	-13169
dream	-13170
drive	-13171
eling	-13172
enzie	-13173
erred	-13174
erset	-13175
erted	-13176
estab	-13177
eters	-13178
ettle	-13179
exist	-13180
faced	-13181
floor	-13182
fonts	-13183
fting	-13184
gence	-13185
giant	-13186
ginia	-13187
grace	-13188
grees	-13189
hello	-13190
heran	-13191
hlken	-13192
hoide	-13193
iates	-13194
ifics	-13195
inery	-13196
insky	-13197
ipzig	-13198
ishes	-13199
ismus	-13200
itate	-13201
large	-13202
liers	-13203
liter	-13204
maroc	-13205
mikem	-13206
month	-13207
mouth	-13208
oding	-13209
orate	-13210
ouses	-13211
overn	-13212
oween	-13213
owski	-13214
paper	-13215
pling	-13216
princ	-13217
radio	-13218
ratri	-13219
rente	-13220
rific	-13221
round	-13222
shows	-13223
sized	-13224
sling	-13225
spect	-13226
stake	-13227
stedt	-13228
still	-13229
stock	-13230
table	-13231
uhito	-13232
unged	-13233
until	-13234
urred	-13235
vests	-13236
would	-13237
zouga	-13238
▁$11.	-13239
▁(1),	-13240
▁(113	-13241
▁(116	-13242
▁(118	-13243
▁1000	-13244
▁1993	-13245
▁2003	-13246
▁2007	-13247
▁9:00	-13248
▁aged	-13249
▁ages	-13250
▁aion	-13251
▁alan	-13252
▁alar	-13253
▁ande	-13254
▁ange	-13255
▁anos	-13256
▁atop	-13257
▁aviv	-13258
▁bach	-13259
▁bags	-13260
▁bard	-13261
▁bass	-13262
▁beau	-13263
▁beds	-13264
▁beef	-13265
▁behr	-13266
▁bicy	-13267
▁bona	-13268
▁bram	-13269
▁brid	-13270
▁buen	-13271
▁bulk	-13272
▁buys	-13273
▁cada	-13274
▁calm	-13275
▁carp	-13276
▁carr	-13277
▁clay	-13278
▁copa	-13279
▁cuba	-13280
▁daem	-13281
▁dale	-13282
▁dann	-13283
▁dens	-13284
▁detr	-13285
▁dias	-13286
▁dife	-13287
▁dort	-13288
▁drum	-13289
▁dune	-13290
▁eins	-13291
▁enab	-13292
▁espn	-13293
▁feds	-13294
▁fing	-13295
▁flee	-13296
▁foal	-13297
▁fond	-13298
▁fool	-13299
▁foul	-13300
▁frag	-13301
▁fres	-13302
▁gaia	-13303
▁gary	-13304
▁geld	-13305
▁gest	-13306
▁gulf	-13307
▁hann	-13308
▁harb	-13309
▁hats	-13310
▁haul	-13311
▁holl	-13312
▁hood	-13313
▁icsc	-13314
▁ihre	-13315
▁jest	-13316
▁kcna	-13317
▁kfar	-13318
▁khoj	-13319
▁kolk	-13320
▁labs	-13321
▁ling	-13322
▁lion	-13323
▁maha	-13324
▁mamm	-13325
▁mant	-13326
▁mast	-13327
▁muit	-13328
▁nang	-13329
▁nash	-13330
▁nuls	-13331
▁nurs	-13332
▁oath	-13333
▁olig	-13334
▁outf	-13335
▁owen	-13336
▁owns	-13337
▁pays	-13338
▁pero	-13339
▁pine	-13340
▁pitt	-13341
▁pizz	-13342
▁podr	-13343
▁przy	-13344
▁puck	-13345
▁puja	-13346
▁pump	-13347
▁quds	-13348
▁rale	-13349
▁rams	-13350
▁reps	-13351
▁seam	-13352
▁slap	-13353
▁sudo	-13354
▁tang	-13355
▁tate	-13356
▁tath	-13357
▁tomb	-13358
▁touc	-13359
▁tube	-13360
▁técn	-13361
▁verb	-13362
▁wabi	-13363
▁wart	-13364
▁wenn	-13365
▁whit	-13366
▁yale	-13367
▁ying	-13368
accord	-13369
acious	-13370
acular	-13371
angers	-13372
aratus	-13373
ardhan	-13374
arlmaw	-13375
asasif	-13376
ashore	-13377
asters	-13378
asthan	-13379
camera	-13380
centre	-13381
crisis	-13382
ensual	-13383
eração	-13384
estria	-13385
forces	-13386
guided	-13387
halten	-13388
hammad	-13389
happen	-13390
height	-13391
hniyeh	-13392
ifting	-13393
illery	-13394
import	-13395
inmate	-13396
ipedia	-13397
isible	-13398
ivated	-13399
locked	-13400
london	-13401
master	-13402
medium	-13403
minute	-13404
muerte	-13405
murder	-13406
orable	-13407
oucair	-13408
oxford	-13409
piring	-13410
player	-13411
rahorn	-13412
reilly	-13413
reveal	-13414
roller	-13415
rotain	-13416
shares	-13417
spoken	-13418
states	-13419
storey	-13420
street	-13421
strike	-13422
strual	-13423
thanks	-13424
ulator	-13425
usions	-13426
yellow	-13427
íticas	-13428
▁1,500	-13429
▁1.414	-13430
▁19-16	-13431
▁2002,	-13432
▁2002.	-13433
▁2004,	-13434
▁2008,	-13435
▁28-21	-13436
▁3-26.	-13437
▁5,000	-13438
▁aedes	-13439
▁ajmer	-13440
▁arxiv	-13441
▁audit	-13442
▁avant	-13443
▁backs	-13444
▁baker	-13445
▁banco	-13446
▁bands	-13447
▁basra	-13448
▁biles	-13449
▁bixby	-13450
▁blanc	-13451
▁bones	-13452
▁brick	-13453
▁byrne	-13454
▁cares	-13455
▁cargo	-13456
▁carib	-13457
▁cette	-13458
▁cheer	-13459
▁chips	-13460
▁choke	-13461
▁clone	-13462
▁colma	-13463
▁craft	-13464
▁crush	-13465
▁curry	-13466
▁datas	-13467
▁dealt	-13468
▁delic	-13469
▁delle	-13470
▁derek	-13471
▁dohuk	-13472
▁donde	-13473
▁donor	-13474
▁enact	-13475
▁ether	-13476
▁excav	-13477
▁exits	-13478
▁fairy	-13479
▁farms	-13480
▁fence	-13481
▁fixes	-13482
▁fleet	-13483
▁flesh	-13484
▁flour	-13485
▁fount	-13486
▁geset	-13487
▁gifts	-13488
▁grove	-13489
▁grows	-13490
▁habib	-13491
▁halle	-13492
▁havoc	-13493
▁heath	-13494
▁heels	-13495
▁henry	-13496
▁hilar	-13497
▁homet	-13498
▁idiot	-13499
▁imbal	-13500
▁immer	-13501
▁indie	-13502
▁inhab	-13503
▁intim	-13504
▁invit	-13505
▁jason	-13506
▁jokes	-13507
▁keane	-13508
▁kerry	-13509
▁kyodo	-13510
▁lagos	-13511
▁leurs	-13512
▁lined	-13513
▁linux	-13514
▁loans	-13515
▁lucas	-13516
▁madan	-13517
▁manip	-13518
▁marce	-13519
▁marks	-13520
▁masks	-13521
▁meyer	-13522
▁minus	-13523
▁monet	-13524
▁nafta	-13525
▁nixon	-13526
▁nobel	-13527
▁opted	-13528
▁oswiu	-13529
▁paese	-13530
▁parte	-13531
▁paula	-13532
▁persu	-13533
▁polka	-13534
▁prima	-13535
▁rated	-13536
▁recur	-13537
▁remin	-13538
▁retal	-13539
▁ridge	-13540
▁rings	-13541
▁rocks	-13542
▁sachs	-13543
▁sauce	-13544
▁saves	-13545
▁serge	-13546
▁sjvbu	-13547
▁skull	-13548
▁socia	-13549
▁solar	-13550
▁steal	-13551
▁tamil	-13552
▁teret	-13553
▁tinha	-13554
▁trein	-13555
▁trent	-13556
▁tyres	-13557
▁usern	-13558
▁vague	-13559
▁vally	-13560
▁votto	-13561
▁wilds	-13562
▁xiong	-13563
▁yield	-13564
▁zebra	-13565
▁ägypt	-13566
against	-13567
annakut	-13568
appoint	-13569
appropr	-13570
artisan	-13571
assault	-13572
attacks	-13573
austral	-13574
central	-13575
changes	-13576
chicago	-13577
cutting	-13578
forward	-13579
funding	-13580
general	-13581
grounds	-13582
haaretz	-13583
icating	-13584
ingshot	-13585
israeli	-13586
jadpour	-13587
keeping	-13588
leading	-13589
leibniz	-13590
leridge	-13591
located	-13592
ocratic	-13593
odyssey	-13594
ointing	-13595
orealis	-13596
osexual	-13597
parents	-13598
players	-13599
portion	-13600
project	-13601
rapping	-13602
redited	-13603
request	-13604
ressing	-13605
ributes	-13606
seldorf	-13607
shelved	-13608
special	-13609
umbling	-13610
vention	-13611
version	-13612
wachung	-13613
welcome	-13614
▁10,013	-13615
▁absurd	-13616
▁abuses	-13617
▁agrees	-13618
▁alaska	-13619
▁apenas	-13620
▁ballot	-13621
▁bancor	-13622
▁bodily	-13623
▁bomber	-13624
▁cannon	-13625
▁carter	-13626
▁chairs	-13627
▁chebbi	-13628
▁chemer	-13629
▁cinema	-13630
▁clampk	-13631
▁clouds	-13632
▁coffin	-13633
▁colony	-13634
▁commod	-13635
▁conced	-13636
▁convoy	-13637
▁costly	-13638
▁cousin	-13639
▁crispr	-13640
▁culmin	-13641
▁dakota	-13642
▁deeper	-13643
▁defect	-13644
▁disper	-13645
▁douche	-13646
▁duties	-13647
▁elites	-13648
▁empres	-13649
▁encomp	-13650
▁endure	-13651
▁enrich	-13652
▁exclus	-13653
▁expend	-13654
▁favors	-13655
▁filing	-13656
▁flavor	-13657
▁forged	-13658
▁freixo	-13659
▁fusion	-13660
▁futbol	-13661
▁gallup	-13662
▁gamers	-13663
▁grupos	-13664
▁gurley	-13665
▁handre	-13666
▁heaven	-13667
▁heroes	-13668
▁hertha	-13669
▁holder	-13670
▁indoor	-13671
▁intact	-13672
▁jacoby	-13673
▁jalapa	-13674
▁kirche	-13675
▁kosher	-13676
▁lament	-13677
▁larson	-13678
▁lasers	-13679
▁layers	-13680
▁lethal	-13681
▁liskhq	-13682
▁maasai	-13683
▁malala	-13684
▁masako	-13685
▁mattel	-13686
▁mercer	-13687
▁mihama	-13688
▁misman	-13689
▁modest	-13690
▁multip	-13691
▁needle	-13692
▁newegg	-13693
▁neymar	-13694
▁occurs	-13695
▁ooster	-13696
▁oppose	-13697
▁oxygen	-13698
▁paektu	-13699
▁paired	-13700
▁palais	-13701
▁panama	-13702
▁parker	-13703
▁philip	-13704
▁phrase	-13705
▁picard	-13706
▁posing	-13707
▁purple	-13708
▁páistí	-13709
▁pédiat	-13710
▁públic	-13711
▁qaddum	-13712
▁recess	-13713
▁rental	-13714
▁replic	-13715
▁retain	-13716
▁revive	-13717
▁rhodes	-13718
▁ritual	-13719
▁sahara	-13720
▁saints	-13721
▁sample	-13722
▁seinen	-13723
▁seized	-13724
▁serial	-13725
▁shadow	-13726
▁shells	-13727
▁sigmar	-13728
▁sindic	-13729
▁slaves	-13730
▁stored	-13731
▁stupid	-13732
▁sunset	-13733
▁sylmar	-13734
▁também	-13735
▁tended	-13736
▁therap	-13737
▁timing	-13738
▁tories	-13739
▁tranqu	-13740
▁trophy	-13741
▁vacuum	-13742
▁vastly	-13743
▁violet	-13744
▁waited	-13745
▁waiver	-13746
▁wooden	-13747
▁zucker	-13748
▁öğrenc	-13749
/2017/11	-13750
accounts	-13751
atorship	-13752
business	-13753
children	-13754
economic	-13755
errorism	-13756
exposure	-13757
fighting	-13758
function	-13759
heritage	-13760
historic	-13761
incident	-13762
inspired	-13763
iranians	-13764
neapolis	-13765
nicholas	-13766
ordinate	-13767
ortality	-13768
partisan	-13769
problems	-13770
security	-13771
specific	-13772
standard	-13773
violence	-13774
virginia	-13775
wielding	-13776
zubeidat	-13777
íomhoide	-13778
▁acevedo	-13779
▁admired	-13780
▁anxiety	-13781
▁authors	-13782
▁ballard	-13783
▁balogun	-13784
▁bardney	-13785
▁bargain	-13786
▁beloved	-13787
▁bicycle	-13788
▁bizarre	-13789
▁boasted	-13790
▁borders	-13791
▁budgets	-13792
▁calvino	-13793
▁careers	-13794
▁cassock	-13795
▁ceiling	-13796
▁checked	-13797
▁cluster	-13798
▁combine	-13799
▁concess	-13800
▁condemn	-13801
▁congres	-13802
▁constit	-13803
▁contrad	-13804
▁cowboys	-13805
▁crowded	-13806
▁cynical	-13807
▁damages	-13808
▁daytime	-13809
▁decides	-13810
▁default	-13811
▁degrees	-13812
▁deleted	-13813
▁delight	-13814
▁demoted	-13815
▁density	-13816
▁denying	-13817
▁devoted	-13818
▁devotee	-13819
▁direita	-13820
▁dismant	-13821
▁distant	-13822
▁dungeon	-13823
▁easiest	-13824
▁ecuador	-13825
▁edwards	-13826
▁elderly	-13827
▁elegant	-13828
▁endless	-13829
▁essence	-13830
▁ethical	-13831
▁evident	-13832
▁exagger	-13833
▁excerpt	-13834
▁expropr	-13835
▁fighter	-13836
▁figured	-13837
▁filling	-13838
▁findler	-13839
▁fintech	-13840
▁flagged	-13841
▁funeral	-13842
▁gaining	-13843
▁gallery	-13844
▁graphic	-13845
▁handgun	-13846
▁helipad	-13847
▁helpful	-13848
▁innings	-13849
▁insider	-13850
▁intrins	-13851
▁issuing	-13852
▁jakarta	-13853
▁jenkins	-13854
▁justine	-13855
▁kilomet	-13856
▁knocked	-13857
▁kolkata	-13858
▁lacking	-13859
▁larkana	-13860
▁leipzig	-13861
▁loyalty	-13862
▁mansour	-13863
▁mapimpi	-13864
▁marking	-13865
▁materia	-13866
▁mindset	-13867
▁modules	-13868
▁momento	-13869
▁murders	-13870
▁muskrat	-13871
▁papyrus	-13872
▁paradox	-13873
▁parnell	-13874
▁periods	-13875
▁persona	-13876
▁persone	-13877
▁período	-13878
▁pockets	-13879
▁pollard	-13880
▁primera	-13881
▁prisons	-13882
▁proving	-13883
▁publish	-13884
▁quantum	-13885
▁raleigh	-13886
▁reclaim	-13887
▁refuses	-13888
▁regency	-13889
▁rehears	-13890
▁robbins	-13891
▁rodgers	-13892
▁samples	-13893
▁servers	-13894
▁shaking	-13895
▁singles	-13896
▁spencer	-13897
▁sponsor	-13898
▁stalled	-13899
▁statute	-13900
▁stephan	-13901
▁sticker	-13902
▁stuffed	-13903
▁suppose	-13904
▁tathair	-13905
▁toppled	-13906
▁torches	-13907
▁traders	-13908
▁transit	-13909
▁travels	-13910
▁tripoli	-13911
▁tyranny	-13912
▁upgrade	-13913
▁utilize	-13914
▁vatican	-13915
▁vendors	-13916
▁venture	-13917
▁visions	-13918
▁warming	-13919
▁warrior	-13920
▁whereas	-13921
▁winston	-13922
▁wishing	-13923
▁wrapped	-13924
achusetts	-13925
agreement	-13926
artifacts	-13927
delivered	-13928
govardhan	-13929
important	-13930
overnight	-13931
sponsored	-13932
territory	-13933
terrorist	-13934
umberland	-13935
uncharted	-13936
▁abortion	-13937
▁animated	-13938
▁artworks	-13939
▁assigned	-13940
▁assorted	-13941
▁avoiding	-13942
▁backfire	-13943
▁berkeley	-13944
▁blending	-13945
▁borealis	-13946
▁branches	-13947
▁bushfire	-13948
▁canister	-13949
▁causeway	-13950
▁cautious	-13951
▁chilling	-13952
▁choosing	-13953
▁choucair	-13954
▁compares	-13955
▁counting	-13956
▁credited	-13957
▁devotees	-13958
▁diabetes	-13959
▁dirigent	-13960
▁displays	-13961
▁elephant	-13962
▁endanger	-13963
▁enhanced	-13964
▁ensuring	-13965
▁episodes	-13966
▁equipped	-13967
▁erklärte	-13968
▁exploded	-13969
▁feculent	-13970
▁finanças	-13971
▁formerly	-13972
▁fountain	-13973
▁globally	-13974
▁gnarlmaw	-13975
▁greening	-13976
▁hartford	-13977
▁hometown	-13978
▁hypothes	-13979
▁impunity	-13980
▁inciting	-13981
▁indicate	-13982
▁ingested	-13983
▁insights	-13984
▁instinct	-13985
▁isolated	-13986
▁jemalloc	-13987
▁lowering	-13988
▁makazole	-13989
▁matching	-13990
▁measured	-13991
▁merzouga	-13992
▁michelle	-13993
▁missions	-13994
▁montréal	-13995
▁moroccan	-13996
▁muhammad	-13997
▁nacional	-13998
▁naruhito	-13999
▁navratri	-14000
▁obsessed	-14001
▁oklahoma	-14002
▁optimism	-14003
▁organism	-14004
▁overhead	-14005
▁pittston	-14006
▁populist	-14007
▁princess	-14008
▁proceeds	-14009
▁protagon	-14010
▁referend	-14011
▁reflects	-14012
▁removing	-14013
▁reserves	-14014
▁resolved	-14015
▁revelers	-14016
▁russians	-14017
▁salaries	-14018
▁scholars	-14019
▁seahawks	-14020
▁seashore	-14021
▁sections	-14022
▁securing	-14023
▁sharpton	-14024
▁shedding	-14025
▁sinkhole	-14026
▁staffing	-14027
▁steadily	-14028
▁stressed	-14029
▁superior	-14030
▁symmetry	-14031
▁sympathe	-14032
▁tailored	-14033
▁template	-14034
▁touching	-14035
▁traveled	-14036
▁villages	-14037
▁warrants	-14038
▁wildfire	-14039
▁workflow	-14040
▁wormhole	-14041
mikemearls	-14042
muerteadas	-14043
surprising	-14044
tulsaworld	-14045
violations	-14046
waśniewski	-14047
▁accompany	-14048
▁achieving	-14049
▁alliances	-14050
▁apparatus	-14051
▁arbitrary	-14052
▁argentina	-14053
▁arresting	-14054
▁artillery	-14055
▁assaulted	-14056
▁assembled	-14057
▁atheisten	-14058
▁attending	-14059
▁attribute	-14060
▁basefonts	-14061
▁beginners	-14062
▁behaviour	-14063
▁benefited	-14064
▁bramstedt	-14065
▁brazilian	-14066
▁bushfires	-14067
▁calculate	-14068
▁centuries	-14069
▁certified	-14070
▁chemicals	-14071
▁collision	-14072
▁contested	-14073
▁continent	-14074
▁countdown	-14075
▁creatures	-14076
▁defendant	-14077
▁defenders	-14078
▁defending	-14079
▁depicting	-14080
▁detective	-14081
▁dinwiddie	-14082
▁dispersed	-14083
▁disregard	-14084
▁embracing	-14085
▁enthroned	-14086
▁equestria	-14087
▁escalator	-14088
▁excluding	-14089
▁exploited	-14090
▁exploring	-14091
▁fantastic	-14092
▁forecasts	-14093
▁frequency	-14094
▁halloween	-14095
▁hassanein	-14096
▁hilarious	-14097
▁holocaust	-14098
▁inclusion	-14099
▁indicator	-14100
▁indonesia	-14101
▁instantly	-14102
▁interface	-14103
▁introduce	-14104
▁justified	-14105
▁manhattan	-14106
▁menstrual	-14107
▁merchants	-14108
▁misguided	-14109
▁motivated	-14110
▁mughniyeh	-14111
▁nationals	-14112
▁northumbr	-14113
▁northwest	-14114
▁obstacles	-14115
▁palestine	-14116
▁passenger	-14117
▁portrayed	-14118
▁premature	-14119
▁preserved	-14120
▁privilege	-14121
▁processed	-14122
▁protested	-14123
▁protocols	-14124
▁rajasthan	-14125
▁releasing	-14126
▁repressed	-14127
▁robertson	-14128
▁sceneries	-14129
▁shattered	-14130
▁sidelined	-14131
▁signature	-14132
▁slingshot	-14133
▁sophomore	-14134
▁southwest	-14135
▁spearhead	-14136
▁specifics	-14137
▁subjected	-14138
▁submitted	-14139
▁subpoenas	-14140
▁subsidies	-14141
▁surviving	-14142
▁tillerson	-14143
▁translate	-14144
▁traveller	-14145
▁undermine	-14146
▁unsuccess	-14147
▁violently	-14148
überwachung	-14149
▁adventures	-14150
▁aggression	-14151
▁announcing	-14152
▁applicants	-14153
▁architects	-14154
▁automobile	-14155
▁bipartisan	-14156
▁cardassian	-14157
▁catalonian	-14158
▁challenged	-14159
▁chevrotain	-14160
▁christians	-14161
▁collisions	-14162
▁commentary	-14163
▁commenting	-14164
▁compelling	-14165
▁consultant	-14166
▁continuous	-14167
▁contractor	-14168
▁convenient	-14169
▁convincing	-14170
▁cornerback	-14171
▁correlated	-14172
▁definitive	-14173
▁demolition	-14174
▁difficulty	-14175
▁diminished	-14176
▁discontent	-14177
▁disruptive	-14178
▁dusseldorf	-14179
▁emphasized	-14180
▁excitement	-14181
▁expressing	-14182
▁federalist	-14183
▁fourteenth	-14184
▁freemasons	-14185
▁generating	-14186
▁habibollah	-14187
▁importante	-14188
▁incentives	-14189
▁injunction	-14190
▁innovative	-14191
▁legalising	-14192
▁linebacker	-14193
▁monitoring	-14194
▁moratorium	-14195
▁oosterbeek	-14196
▁optimistic	-14197
▁overlooked	-14198
▁powershell	-14199
▁precarious	-14200
▁prediction	-14201
▁presenting	-14202
▁profitable	-14203
▁promotions	-14204
▁psychiatry	-14205
▁remarkably	-14206
▁separatist	-14207
▁solidarity	-14208
▁squandered	-14209
▁storefront	-14210
▁supportive	-14211
▁torrential	-14212
▁traditions	-14213
▁trilingual	-14214
▁unofficial	-14215
▁validation	-14216
▁vestrahorn	-14217
▁virginians	-14218
▁witnessing	-14219
▁abdelrahman	-14220
▁adversaries	-14221
▁behroozmand	-14222
▁calculation	-14223
▁campaigners	-14224
▁campaigning	-14225
▁chemerinsky	-14226
▁commitments	-14227
▁communicate	-14228
▁complaining	-14229
▁computation	-14230
▁contributor	-14231
▁cooperating	-14232
▁coordinated	-14233
▁desperation	-14234
▁destination	-14235
▁destructive	-14236
▁electricity	-14237
▁enterprises	-14238
▁enthusiasts	-14239
▁experiments	-14240
▁exploratory	-14241
▁firefighter	-14242
▁furthermore	-14243
▁geyserville	-14244
▁interviewed	-14245
▁marketplace	-14246
▁neighboring	-14247
▁notoriously	-14248
▁obstruction	-14249
▁outstanding	-14250
▁prohibition	-14251
▁recommended	-14252
▁restricting	-14253
▁saddleridge	-14254
▁settlements	-14255
▁specialized	-14256
▁statistical	-14257
▁supervisors	-14258
▁sustainable	-14259
▁theoretical	-14260
▁trespassing	-14261
▁underscores	-14262
▁alternatives	-14263
▁authenticity	-14264
▁catastrophic	-14265
▁commercially	-14266
▁continuously	-14267
▁economically	-14268
▁inconsistent	-14269
▁manufacturer	-14270
▁southeastern	-14271
▁videographer	-14272
▁authorization	-14273
▁commissioners	-14274
▁confrontation	-14275
▁disappointing	-14276
▁disproportion	-14277
▁expropriation	-14278
▁interestingly	-14279
▁investigative	-14280
▁playerunknown	-14281
▁topographical	-14282
▁uncomfortable	-14283
dailycallernews	-14284
▁administrative	-14285
▁overwhelmingly	-14286
▁reconstruction	-14287
▁administrations	-14288
▁recommendations	-14289
▁vulnerabilities	-14290
%,	-14291
')	-14292
**	-14293
.2	-14294
05	-14295
72	-14296
@5	-14297
_)	-14298
bh	-14299
ea	-14300
ej	-14301
fm	-14302
hk	-14303
hm	-14304
ję	-14305
kc	-14306
km	-14307
kü	-14308
lh	-14309
ml	-14310
nf	-14311
pc	-14312
pf	-14313
rt	-14314
rz	-14315
sg	-14316
uo	-14317
uu	-14318
vt	-14319
wy	-14320
xi	-14321
zc	-14322
}}	-14323
ße	-14324
äd	-14325
ób	-14326
öt	-14327
ğı	-14328
ıl	-14329
ły	-14330
ść	-14331
με	-14332
ον	-14333
تر	-14334
فا	-14335
لي	-14336
مر	-14337
نا	-14338
ول	-14339
ير	-14340
ید	-14341
00.	-14342
10%	-14343
11.	-14344
115	-14345
12,	-14346
130	-14347
136	-14348
14%	-14349
14)	-14350
145	-14351
153	-14352
16,	-14353
160	-14354
182	-14355
20,	-14356
20-	-14357
228	-14358
240	-14359
25)	-14360
25.	-14361
285	-14362
300	-14363
309	-14364
310	-14365
325	-14366
360	-14367
379	-14368
380	-14369
424	-14370
45.	-14371
50.	-14372
574	-14373
594	-14374
650	-14375
690	-14376
710	-14377
774	-14378
778	-14379
787	-14380
830	-14381
85,	-14382
962	-14383
966	-14384
967	-14385
978	-14386
993	-14387
994	-14388
agt	-14389
ają	-14390
akt	-14391
asi	-14392
aya	-14393
bek	-14394
bes	-14395
bin	-14396
bir	-14397
bli	-14398
buy	-14399
cav	-14400
chi	-14401
cov	-14402
dez	-14403
doc	-14404
dow	-14405
edi	-14406
ems	-14407
eur	-14408
fbi	-14409
fed	-14410
fol	-14411
fps	-14412
gal	-14413
ghz	-14414
gic	-14415
gir	-14416
gon	-14417
hah	-14418
hat	-14419
hod	-14420
hua	-14421
iam	-14422
ieg	-14423
iji	-14424
isa	-14425
isi	-14426
iva	-14427
jac	-14428
jar	-14429
jer	-14430
kid	-14431
lek	-14432
lif	-14433
log	-14434
mhz	-14435
mis	-14436
mss	-14437
nat	-14438
nev	-14439
obs	-14440
oid	-14441
osé	-14442
oyd	-14443
pps	-14444
rix	-14445
ryn	-14446
sal	-14447
saw	-14448
sha	-14449
ssa	-14450
tal	-14451
tat	-14452
tml	-14453
tte	-14454
tun	-14455
uka	-14456
url	-14457
vor	-14458
web	-14459
wes	-14460
wik	-14461
wit	-14462
yan	-14463
zal	-14464
zcz	-14465
zeh	-14466
zia	-14467
zou	-14468
ári	-14469
äch	-14470
çuk	-14471
ígh	-14472
ück	-14473
λου	-14474
های	-14475
وات	-14476
▁#1	-14477
▁),	-14478
▁00	-14479
▁2%	-14480
▁2)	-14481
▁2:	-14482
▁4:	-14483
▁61	-14484
▁66	-14485
▁69	-14486
▁6:	-14487
▁73	-14488
▁77	-14489
▁7:	-14490
▁81	-14491
▁98	-14492
▁aí	-14493
▁bc	-14494
▁iç	-14495
▁jc	-14496
▁mü	-14497
▁nm	-14498
▁ov	-14499
▁pq	-14500
▁sd	-14501
▁sj	-14502
▁ux	-14503
▁{{	-14504
▁ún	-14505
▁απ	-14506
▁تج	-14507
▁عل	-14508
▁ما	-14509
▁مو	-14510
▁يت	-14511
-12-	-14512
/05/	-14513
/10/	-14514
/100	-14515
/160	-14516
/170	-14517
/175	-14518
167.	-14519
="""	-14520
abic	-14521
abul	-14522
acao	-14523
acas	-14524
acer	-14525
achi	-14526
ahan	-14527
anet	-14528
antz	-14529
ardi	-14530
arse	-14531
ayın	-14532
bage	-14533
bahn	-14534
bern	-14535
blow	-14536
bole	-14537
burn	-14538
came	-14539
card	-14540
cele	-14541
conc	-14542
coup	-14543
ctor	-14544
dade	-14545
dcnf	-14546
does	-14547
doll	-14548
edge	-14549
edly	-14550
egas	-14551
emer	-14552
enen	-14553
enza	-14554
erte	-14555
eser	-14556
esin	-14557
eten	-14558
eton	-14559
give	-14560
greg	-14561
hall	-14562
heit	-14563
hift	-14564
hosp	-14565
huge	-14566
iare	-14567
iasm	-14568
iber	-14569
icol	-14570
igte	-14571
inav	-14572
inch	-14573
ingo	-14574
init	-14575
inth	-14576
irer	-14577
iron	-14578
itas	-14579
ität	-14580
izia	-14581
ição	-14582
jail	-14583
josh	-14584
late	-14585
laun	-14586
laze	-14587
leep	-14588
lene	-14589
llar	-14590
mile	-14591
mode	-14592
much	-14593
nine	-14594
nych	-14595
obit	-14596
ogyn	-14597
oled	-14598
omed	-14599
ompe	-14600
opez	-14601
orum	-14602
orus	-14603
otal	-14604
otos	-14605
owal	-14606
phil	-14607
phis	-14608
pins	-14609
prov	-14610
purs	-14611
rawn	-14612
rels	-14613
reno	-14614
rice	-14615
rics	-14616
rodu	-14617
rout	-14618
seek	-14619
sein	-14620
shad	-14621
sold	-14622
sten	-14623
team	-14624
tell	-14625
tian	-14626
tomb	-14627
tons	-14628
torn	-14629
trak	-14630
tted	-14631
uart	-14632
uded	-14633
ugos	-14634
urie	-14635
utch	-14636
virt	-14637
weak	-14638
weet	-14639
were	-14640
wife	-14641
yers	-14642
yson	-14643
zone	-14644
ário	-14645
érie	-14646
être	-14647
ücht	-14648
▁$28	-14649
▁$4.	-14650
▁$50	-14651
▁$6.	-14652
▁$64	-14653
▁$75	-14654
▁$8,	-14655
▁$9,	-14656
▁$9.	-14657
▁(--	-14658
▁(1,	-14659
▁(13	-14660
▁(16	-14661
▁(18	-14662
▁(93	-14663
▁)),	-14664
▁***	-14665
▁12%	-14666
▁128	-14667
▁14.	-14668
▁140	-14669
▁2.5	-14670
▁40%	-14671
▁400	-14672
▁abc	-14673
▁agu	-14674
▁ain	-14675
▁alc	-14676
▁aly	-14677
▁amy	-14678
▁ard	-14679
▁arn	-14680
▁até	-14681
▁bac	-14682
▁bau	-14683
▁bhr	-14684
▁bun	-14685
▁cad	-14686
▁cig	-14687
▁cox	-14688
▁dah	-14689
▁dum	-14690
▁déc	-14691
▁eos	-14692
▁erc	-14693
▁ffg	-14694
▁gcu	-14695
▁gig	-14696
▁gul	-14697
▁hey	-14698
▁hou	-14699
▁irr	-14700
▁jum	-14701
▁kad	-14702
▁kob	-14703
▁kop	-14704
▁kör	-14705
▁lig	-14706
▁liv	-14707
▁lur	-14708
▁mck	-14709
▁mim	-14710
▁naz	-14711
▁nos	-14712
▁nue	-14713
▁osc	-14714
▁pam	-14715
▁pep	-14716
▁pes	-14717
▁pig	-14718
▁poo	-14719
▁ruh	-14720
▁ses	-14721
▁sli	-14722
▁slo	-14723
▁sox	-14724
▁suv	-14725
▁tat	-14726
▁tav	-14727
▁ted	-14728
▁tir	-14729
▁umd	-14730
▁utc	-14731
▁vcs	-14732
▁voy	-14733
▁wol	-14734
▁wür	-14735
▁zac	-14736
▁zwe	-14737
▁últ	-14738
▁الس	-14739
▁بال	-14740
,000.	-14741
3,000	-14742
9,000	-14743
?'"""	-14744
abila	-14745
adium	-14746
affir	-14747
ahram	-14748
akelh	-14749
akkad	-14750
apore	-14751
apped	-14752
asgow	-14753
aults	-14754
avery	-14755
beach	-14756
bells	-14757
berry	-14758
block	-14759
broad	-14760
bronx	-14761
cause	-14762
chase	-14763
citiz	-14764
clean	-14765
close	-14766
comed	-14767
contr	-14768
coran	-14769
doors	-14770
dress	-14771
ecute	-14772
eding	-14773
emple	-14774
endum	-14775
enode	-14776
ensio	-14777
ernal	-14778
esses	-14779
estar	-14780
estro	-14781
falls	-14782
griff	-14783
hawks	-14784
heart	-14785
holds	-14786
hored	-14787
iação	-14788
icaid	-14789
ichel	-14790
ician	-14791
icked	-14792
idden	-14793
idity	-14794
ieder	-14795
ieval	-14796
ilere	-14797
iller	-14798
impse	-14799
india	-14800
inner	-14801
iolek	-14802
ische	-14803
issed	-14804
ixton	-14805
keted	-14806
labor	-14807
leave	-14808
lehem	-14809
leton	-14810
liked	-14811
lived	-14812
locks	-14813
maker	-14814
match	-14815
medic	-14816
metro	-14817
minor	-14818
nacle	-14819
naiss	-14820
named	-14821
neath	-14822
nered	-14823
ocket	-14824
onews	-14825
onies	-14826
oning	-14827
opard	-14828
orers	-14829
osing	-14830
ostic	-14831
perez	-14832
phets	-14833
polic	-14834
prove	-14835
raham	-14836
resse	-14837
rical	-14838
ridge	-14839
rieve	-14840
rique	-14841
roads	-14842
ronom	-14843
santa	-14844
shots	-14845
speed	-14846
stead	-14847
stell	-14848
stice	-14849
storp	-14850
strug	-14851
syria	-14852
thsch	-14853
toler	-14854
truth	-14855
ución	-14856
uerie	-14857
wales	-14858
wesen	-14859
witch	-14860
xinhu	-14861
yclic	-14862
ários	-14863
çuklu	-14864
▁$.15	-14865
▁$.50	-14866
▁$10,	-14867
▁$12.	-14868
▁$13,	-14869
▁$200	-14870
▁(100	-14871
▁1992	-14872
▁1995	-14873
▁2004	-14874
▁5:15	-14875
▁aelf	-14876
▁arce	-14877
▁assh	-14878
▁bail	-14879
▁bain	-14880
▁bait	-14881
▁beac	-14882
▁bele	-14883
▁bere	-14884
▁beth	-14885
▁bien	-14886
▁bild	-14887
▁blew	-14888
▁bong	-14889
▁bort	-14890
▁bour	-14891
▁brag	-14892
▁burd	-14893
▁cafe	-14894
▁cats	-14895
▁cave	-14896
▁chef	-14897
▁cher	-14898
▁chid	-14899
▁conj	-14900
▁corn	-14901
▁ctrl	-14902
▁dear	-14903
▁decr	-14904
▁degr	-14905
▁dent	-14906
▁disg	-14907
▁dive	-14908
▁dmit	-14909
▁dupl	-14910
▁dvip	-14911
▁eile	-14912
▁einw	-14913
▁eles	-14914
▁elks	-14915
▁ende	-14916
▁evan	-14917
▁fios	-14918
▁fixt	-14919
▁ftse	-14920
▁gamb	-14921
▁golf	-14922
▁gord	-14923
▁groc	-14924
▁hadi	-14925
▁halt	-14926
▁horm	-14927
▁horv	-14928
▁html	-14929
▁hugh	-14930
▁irma	-14931
▁jahr	-14932
▁jedi	-14933
▁jett	-14934
▁joan	-14935
▁joey	-14936
▁josé	-14937
▁json	-14938
▁juzg	-14939
▁kenn	-14940
▁krem	-14941
▁könn	-14942
▁laut	-14943
▁lawn	-14944
▁lesb	-14945
▁lidl	-14946
▁lomb	-14947
▁loot	-14948
▁lynn	-14949
▁mega	-14950
▁mish	-14951
▁mold	-14952
▁mont	-14953
▁moss	-14954
▁navy	-14955
▁neat	-14956
▁nest	-14957
▁neue	-14958
▁omar	-14959
▁outs	-14960
▁pena	-14961
▁peng	-14962
▁peru	-14963
▁pess	-14964
▁pets	-14965
▁ping	-14966
▁pits	-14967
▁plut	-14968
▁poly	-14969
▁pron	-14970
▁rage	-14971
▁reap	-14972
▁rebu	-14973
▁reef	-14974
▁reid	-14975
▁reun	-14976
▁roku	-14977
▁rome	-14978
▁rope	-14979
▁scam	-14980
▁seus	-14981
▁shin	-14982
▁siri	-14983
▁snip	-14984
▁soll	-14985
▁spar	-14986
▁sums	-14987
▁tale	-14988
▁thug	-14989
▁tian	-14990
▁todo	-14991
▁toug	-14992
▁trag	-14993
▁tres	-14994
▁turf	-14995
▁ugly	-14996
▁vehe	-14997
▁wash	-14998
▁weil	-14999
▁whar	-15000
▁wine	-15001
▁wink	-15002
▁winn	-15003
▁wolf	-15004
▁woll	-15005
▁worn	-15006
▁zahl	-15007
▁zeal	-15008
▁zeyl	-15009
▁بشكل	-15010
/20170	-15011
30,000	-15012
:30303	-15013
adaily	-15014
advert	-15015
ambush	-15016
arbeit	-15017
arched	-15018
atable	-15019
belief	-15020
better	-15021
budget	-15022
cation	-15023
cities	-15024
cliffe	-15025
coffee	-15026
collar	-15027
columb	-15028
debate	-15029
derest	-15030
donald	-15031
echnik	-15032
either	-15033
elines	-15034
engers	-15035
erting	-15036
estial	-15037
estors	-15038
evoked	-15039
factor	-15040
fronts	-15041
guards	-15042
handed	-15043
harass	-15044
idated	-15045
idious	-15046
ierung	-15047
ieties	-15048
iffany	-15049
imated	-15050
inking	-15051
integr	-15052
intend	-15053
ispens	-15054
itures	-15055
ladesh	-15056
lected	-15057
member	-15058
mental	-15059
modern	-15060
muslim	-15061
neighb	-15062
oldest	-15063
ologna	-15064
ologue	-15065
oughty	-15066
phoria	-15067
points	-15068
racted	-15069
really	-15070
recent	-15071
reform	-15072
resour	-15073
riello	-15074
ritual	-15075
safety	-15076
scienc	-15077
scopic	-15078
secure	-15079
soever	-15080
speech	-15081
spring	-15082
steria	-15083
stress	-15084
studio	-15085
subsid	-15086
themed	-15087
thirds	-15088
thomas	-15089
travel	-15090
uition	-15091
unting	-15092
[...]
